#version: 0.2 - Trained by `huggingface/tokenizers`
다 .
근 무
▁ 이
▁ 있
재 택
재택 근무
으 로
▁ 재택근무
▁ 기
▁ 사
▁ 대
▁ 지
▁ 수
했 다.
▁ 1
▁ 시
하 는
에 서
▁ 2
▁ 전
▁ 등
로 나
코 로나
▁ 직
하 고
▁ 가
▁ 것
▁ 확
▁ 일
1 9
▁ 중
▁ 코로나
▁ 한
▁ 보
▁ 인
▁ 위
▁있 다.
▁ 업
▁직 원
이 다.
▁ 제
▁ 정
▁ 자
육 아
▁ 공
▁ 3
▁기 업
▁ 경
▁ 상
휴 직
▁ ‘
▁코로나 19
▁ 육아
▁ 아
▁ “
▁ 부
▁업 무
▁ 근무
▁ "
▁ 방
▁ 다
▁ 비
▁ 최
▁재택근무 를
▁ 주
▁ '
▁ 관
▁ 조
▁ 하
▁ 나
▁ 출
▁ 원
▁ 고
. .
▁육아 휴직
▁ 회
▁ 유
▁ 따
0 0
▁ 서
▁ 연
▁ 신
기 업
▁있 는
부 터
▁ 그
까 지
▁ 내
▁ 구
▁지 난
▁ 통
▁ 도
▁ 모
니 다.
▁ 실
▁ 않
다 고
▁ 개
이 라
▁ 없
면 서
▁ 해
다 는
▁ 오
다 ”
▁ 여
▁ 소
다 "
▁ 감
적 으로
▁ 임
▁위 해
▁ 4
▁ 말
▁ 5
▁ 생
한 다.
들 이
▁ 발
▁지 원
▁ 어
▁확 산
하 기
지 만
도 록
▁ 안
▁ 국
▁ 현
▁ 강
▁ 마
▁ 의
▁ 계
▁사 용
▁원 격
▁ 거
▁ 문
▁ 노
▁시 행
▁ 분
▁2 0
▁ 예
▁ 만
▁ 때
▁ 미
▁ 많
▁ 장
자 는
▁ 필
시 간
▁회 사
▁ 근
▁ 동
▁ 받
c o
▁ 집
▁ 밝
▁ 늘
▁ 선
▁것 으로
▁ 영
▁ 바
▁ 적
비 스
▁ 결
▁ 높
적 인
. co
▁ 활
▁밝 혔
▁ 및
▁ 더
▁ 추
▁확 진
▁ 했다.
% )
▁ 6
▁ 우
▁ 설
환 경
▁ 또
습 니다.
▁ 불
▁사 무
▁경 우
에 게
▁감 염
▁밝혔 다.
▁대 상
▁도 입
▁ 스
자 가
▁가 능
▁ 남
센 터
▁ 특
▁말 했다.
들 의
▁ 차
▁ 증
.. .
▁ 단
이라 고
하 게
▁근 로
코로나 19
다” 고
▁ 운
▁ 매
▁따 라
▁대 한
들 은
직 원
▁ 성
▁ 8
▁기 자
▁ 같
고 ,
▁ S
▁사 업
▁ 금
▁ 진
▁ 본
▁시 간
에 도
러 스
▁통 해
▁ 교
에 는
▁이 상
▁ 올
다" 고
▁필 요
었 다.
▁위 한
▁ 하는
▁ 세
▁직 장
▁서 비스
▁사무 실
▁ 반
▁ 재
▁출 근
▁ 7
된 다.
▁확 대
▁상 황
▁ 할
▁정 부
▁ 복
▁등 을
0 %
스 템
▁운 영
▁ 달
▁ 외
▁ 환경
▁ 돌
▁ 무
르 면
회 의
▁ 판
라 인
▁ 급
▁따 르면
▁ 건
▁서 울
▁원격 근무
▁ 평
일 부터
▁이 후
▁ 접
▁ 화
.co m
▁사 회
▁보 안
퇴 근
▁활 용
▁증 가
▁실 시
▁ 포
▁제 공
▁관 계
보 다
▁1 0
▁ 9
▁ 점
루 션
솔 루션
됐 다.
이 러스
▁ 효
▁ 체
▁ 변
▁ 들
▁ 좋
▁때 문
▁관 련
▁S K
▁고 용
▁ 김
되 는
▁대 해
해 야
하 지
▁대상 으로
▁ 데
▁ 줄
▁있 도록
▁지난 해
▁중 소
▁이 용
▁같 은
▁ 저
▁ 휴
▁ 앞
았 다.
▁ 협
▁제 도
▁사 람
▁ 후
▁발 생
▁육아휴직 을
▁지 역
▁ 간
▁ 솔루션
▁최 근
▁임 직원
▁ 취
▁ 맞
▁거 리
▁ 프
▁시 스템
▁ 각
▁ L
제 를
▁남 성
▁ 워
▁계 획
하고 ,
▁한 국
▁ 알
장 은
▁ 종
n g
일 까지
▁ 당
▁국 내
▁이 어
▁ 입
대 면
이 나
▁진 행
▁ 온
▁ 초
2 0
▁재택근무 가
▁관계 자는
하 면
▁최 대
만 원
▁기 간
▁ 함
▁ 배
두 기
▁조 치
▁ A
바 이러스
▁사 태
▁신 종
▁관 리
무 원
자 의
▁ 검
▁ 처
▁유 연
▁ I
▁결 과
▁늘 어
증 (
▁방 식
▁신 청
▁ △
성 을
▁방 역
▁ 권
▁대 응
콜 센터
▁ 편
▁가 장
▁ 삼
▁코로나 바이러스
▁ 명
▁자 녀
▁ 행
코로나19 )
정 을
▁들 어
▁직장 인
▁함 께
▁ 규
▁ 재택
▁ 역
라 밸
▁금 융
▁ 카
▁ 클
▁이 번
개 월
거 나
▁ 과
증( 코로나19)
▁한 다.
▁ 못
▁ 되
▁생 산
▁ 요
00 0
스 크
▁아 니
라 우
▁대 비
▁것 이다.
▁올 해
▁미 국
▁설 명
▁노 동
▁20 1
▁ 산
▁전 환
▁ 게
▁아 이
은 행
▁전 체
▁L G
▁나 타
▁회 의
. 5
▁시 작
▁ 두
다" 며
라 고
다” 며
화 를
▁어 려
▁ 응
피 스
▁지 급
▁ P
▁ 물
▁재택근무 에
사 를
▁ 양
▁중소 기업
▁ 콜센터
▁다 양
▁ 절
▁ 했
▁있 어
라우 드
상 회의
▁거리 두기
며 ,
▁대 기업
▁예 정
. k
▁ 새
▁ 참
에서 는
▁개 인
▁일 부
▁여 성
.k r
▁것 이
▁정 보
마 트
▁직원 들
▁ 네
하 면서
▁온 라인
▁이 날
▁모 두
▁사회 적
▁프 로
하 다.
운 데
▁대 표
▁효 율
▁비 대면
▁ 메
지 를
▁ 순
▁고 객
였 다.
▁ 청
▁많 은
▁가 운데
▁ 디
▁연 장
▁강 화
▁공 무원
▁현 재
▁ 파
▁ 하고
▁조 사
▁구 축
이 스
.co .kr
▁삼 성
▁ 작
기 관
하기 로
리 는
▁ 월
에서 도
노 동
▁다 른
▁ 답
▁출 산
▁ K
▁ 크
▁ 열
▁기 준
▁ 허
워 크
▁감염 증(코로나19)
▁ 채
하 겠
▁1 2
대 로
지만 ,
성 이
는 데
프 트
▁ 준
▁응 답
▁ 트
▁수 준
▁가 족
▁특 히
▁2 5
▁ 법
▁ 총
▁ 커
력 을
▁공 간
났 다.
▁ 피
▁클 라우드
관 리
원 은
▁업무 를
▁생 각
▁3 0
▁1 5
▁다양 한
▁ C
▁출 퇴근
( 1
▁ 폐
씨 는
▁ 투
명 이
▁ 약
▁따 른
%) ,
하 도록
로 운
그 룹
▁문 제
▁ 잘
▁적 용
▁일 하는
▁ 심
▁등 의
▁P C
롯 데
▁마 련
▁안 전
지 는
” 이라고
▁본 사
▁사 내
스 트
▁모 든
한 다고
▁필 수
▁수 요
사 회
▁결 정
▁확진 자가
▁추 가
▁급 여
▁ 뒤
텔 레
▁협 업
▁ 큰
▁때문 에
기 도
▁문 화
하 며
▁근로 자
▁ 학
이 버
▁화 상회의
n e
졌 다.
▁1 9
기 자
▁변 화
▁ 박
▁없 는
▁교 육
▁설명 했다.
. 2
▁ 리
사 업
생 활
▁ 넘
▁ 플
▁ 목
▁보 고
라 는
지 고
되 고
▁이 에
요 .
▁I T
▁ 롯데
▁부 서
▁ 식
▁해 당
▁ 격
▁ 속
▁유 지
단 계
▁구 성
▁기 존
. 8
이 터
▁최 소
▁1 1
제 로
▁공 공
▁ 팀
▁평 가
( 3
▁기 능
▁경 제
▁ 완
▁수 도
▁지난 달
균 형
▁일 본
부 는
입 니다.
▁ 갖
▁시 장
▁하 지만
▁적 극
▁필요 한
. 9
a n
▁확 인
회 사
▁직원 이
▁스 마트
▁제 외
▁않 는
▁장 기
원 을
▁2 4
▁ 곳
지 털
▁오 는
▁중 요
▁추 진
▁발 표
▁나타 났다.
제 도
▁기 술
텔레 콤
▁ 향
▁것 을
▁워 라밸
▁ 형
들 을
▁개 발
▁폐 쇄
▁ 민
( 2
. 1
▁직원 들의
▁비 율
▁부 모
▁이 유
▁개 선
▁포 함
. 4
▁확진 자
▁다 시
▁지 속
▁선 택
▁방 침
기 를
▁등 이
▁ 휴직
서 는
▁사업 장
% 로
" 이라고
▁ 담
▁세 계
▁ 될
그 램
▁전 문
▁있 다는
▁주 요
▁이 를
▁것 은
▁기업 의
▁SK 텔레콤
▁ 언
별 로
▁인 사
카 오
▁ 손
▁우 려
보 험
▁아니 라
. 6
▁기 반
이라 는
웨 어
▁1 00
▁ 낮
▁내 용
▁ 쓰
▁상 담
이 고
) ,
. 3
다 면
▁부 담
▁유연 근무
▁K T
▁직원 들이
▁ 뉴
▁1 3
▁1 년
. 7
▁복 지
▁ 합
이 는
왔 다.
▁계획 이다.
휴 가
▁ 착
▁있 다고
▁집 에서
w s
▁생 활
▁ 막
▁ 충
▁외 부
▁ 측
사 는
프 라
▁ 글
했 다고
▁조 직
▁연 구
▁ 애
▁높 은
▁1 6
▁업 계
기 로
▁ 밀
▁휴 가
▁고 려
▁ 창
▁오 피스
▁사용 할
▁정 책
▁ 번
명 을
▁ 질
원 이
ne ws
기 술
▁많 이
▁ 삶
▁다 음
▁있 으
▁1 8
▁대 구
▁예 방
▁ 힘
▁ 빠
업 계
▁집 중
▁ 느
▁매 출
▁중 심
▁기업 이
▁하 나
% ,
문 화
▁없 이
▁만 들
( 4
랫 폼
▁참 여
▁ 눈
▁ 균형
▁ 호
자 를
▁계 속
▁카 카오
업 무
장 을
지 원
▁중 인
이라 며
▁경 험
▁근무 를
▁동 안
▁건 강
▁디 지털
▁중 이다.
▁하 루
▁있 습니다.
▁인 터
▁삼성 전
정 보
▁성 과
▁ 된다.
▁전 망
▁제 품
▁프로 그램
) 는
위 기
▁마 스크
▁규 모
들 도
▁시 대
이 션
@ a
’ 를
▁정 도
▁새 로운
▁이 런
▁않 고
▁또 한
해 서
혁 신
▁영 향
% 가
▁업 체
▁앞 서
▁ 걸
▁현 대
▁접 속
▁강 조
들 에게
시 에
▁최 고
▁3 월
▁판 정을
▁ 첫
▁ 타
페 이스
▁방 안
▁한 편
▁자 율
▁구 글
▁그 러
▁가능 한
▁허 용
▁ 책
▁분 석
처 럼
▁근무 하는
출 산
트 북
▁또 는
감 염
▁공 유
▁비 용
▁임 신
▁만 족
▁ 광
▁ 된
▁비 상
▁2 7
▁않 은
news .com
▁영 업
▁처 음
▁전 국
▁우 리
▁코로나19 로
▁만 큼
▁예정 이다.
▁ 에
▁데 이터
' 를
▁등 에
▁환경 을
▁있 을
육아 휴직
▁ 컨
명 으로
▁지 침
원 격
▁ 긴
▁ E
▁인 력
e r
▁산 업
▁절 반
’ 을
▁권 고
▁고용 노동
리 고
▁ 누
부 분
▁불 가
▁좋 은
서 비스
▁2 3
▁접 촉
▁오 전
기 에
▁자 유
장 이
▁방 문
▁형 태
@ h
▁재택근무 로
▁노 트북
▁ 살
▁때문 이다.
s e
▁ 별
▁플 랫폼
▁직원 의
교 육
원 의
▁ 논
▁정 상
▁ (
▁경 영
▁높 아
▁기업 들이
▁ 찾
▁2 월
주 는
로 벌
라 도
▁제 한
▁투 자
▁ 잡
리 를
▁다 만
▁서비스 를
▁ 홈
사 가
▁시간 을
▁육아휴직 자
라 이
업 체
▁1 7
▁이 미
▁1 4
▁그 는
▁전 년
▁역 시
▁직원 은
▁인 해
▁ B
주 일
▁대 부분
▁일 을
▁감 소
통 신
▁인 프라
▁금 지
▁어려 움
▁검 토
▁설 치
y u
▁이 하
▁크 게
▁ 토
▁돌 입
▁인 한
▁선 정
▁분 위기
▁효 과
▁ 홍
한 다는
▁2 6
▁평 균
▁이 전
조 사
▁가 정
▁물 론
▁기 록
▁현 장
▁의 무
▁최소 화
근 로
▁사 례
▁통 신
▁ 승
했 습니다.
' 을
▁일 과
금 을
되 면서
▁등 으로
a l
▁기업 은
▁수도 권
바 일
▁기 대
▁준 비
▁ 쉽
시 설
▁늘어 나
o r
▁아 닌
▁재택근무 는
▁공 급
▁ 백
▁소 통
하 거나
▁국 가
▁ N
음 .
▁성 장
▁ 용
이 트
19 년
도 가
▁계 열
▁근로 시간
▁사 실
▁글 로벌
▁것 ”이라고
▁정부 는
▁이 달
▁ 로
▁이 동
▁ 음
▁2 8
▁지 적
시 스템
▁ 극
신 저
▁공공 기관
▁ 드
▁아 빠
▁소 프트
% 에
소 프트
지 역
▁ 떨
▁국 민
▁제도 를
▁인터 넷
기 가
▁있 다”고
▁복 귀
▁있 게
▁있 다"고
▁오 후
▁네 이버
▁전 했다.
E O
다 ’
이 었다.
학 교
▁내 부
페이스 북
위 원
▁ 병
▁나 오
▁20 2
으 면
▁장기 화
워 라밸
▁자 체
▁인 증
( 5
) 를
▁떨 어
스 코
이 지
▁보 인
▁ 키
리 가
▁내 년
▁직 접
▁우 선
▁급 증
▁건 물
상 을
▁일 반
▁직원 을
에 선
▁받 은
▁확 보
수 는
▁판 단
o o
▁대 면
▁나 온
▁분 야
급 여
▁ 쓸
▁ 엄
산 업
성 과
점 을
▁예 상
▁돌 아
k yu
▁ 싶
▁ 페이스북
경 영
본 부
▁연 봉
) 을
컴 퓨
했 던
▁더 욱
▁코로나19 가
▁돌 봄
▁대 체
가 는
▁순 환
▁ 면
▁상 태
▁메 신저
▁중 국
▁연 차
▁ 끝
복 지
▁알 려
▁ 치
▁문 서
▁활 동
▁설 문
▁해 결
▁ 독
▁방 지
▁단 계
▁ 코
들 과
8 년
도 를
억 원
▁노 력
▁단 축
▁반 면
부 가
▁이 는
▁재택근무 의
( C
▁출 시
▁받 을
▁활 성
▁시스템 을
스 는
연 구
플 러스
▁시간 이
@ se
상 이
▁앞 으로
▁장 소
kyu ng
고 용
▁전 자
▁안 정
▁직원 들은
▁계열 사
▁판 매
트 워크
▁ V
밖 에
▁부 산
리 아
▁개 정
▁ 희
▁보 호
▁위 험
▁방침 이다.
▁장 려
▁정부 가
산 부
▁삶 의
▁ 너
▁비 중
▁ 0
▁ 꼽
▁ 야
▁자 리
▁2 2
P N
반 기
전 히
▁3 00
▁ /
▁ 브
▁3 개월
임 금
▁중심 으로
s i
오 피스
확 산
▁보 면
▁ 버
없 이
▁업무 에
▁연 결
명 )
▁관 심
% 는
▁ 겪
▁위 치
▁해 외
▁5 0%
▁ ▲
▁확산 을
▁의 견
▁그 룹
시 는
▁대 책
▁중 앙
▁조 성
컴퓨 터
▁ 혁신
르 게
쇼 핑
공 간
▁2 1
▁3 년
▁우 수
▁직원들 에게
▁것 "이라고
a e
▁비 롯
▁채 용
( I
▁고 민
▁확산 에
▁각 각
▁ G
▁받 아
▁줄 어
으 며
▁수 행
▁보 도
원격 근무
▁ 태
▁ 혼
▁ 환
▁없 어
▁여 러
) 가
▁기 본
▁비 해
▁가능 하다.
▁자 신
▁“ 코로나19
▁행 정
▁받 았다.
돌 봄
▁20 19년
▁답 했다.
▁강조 했다.
▁있 었
▁" 재택근무
▁선 제
렸 다.
위 터
하 려
▁여 부
▁5 0
▁증가 했다.
▁ M
▁ 엔
포 트
▁사 옥
▁것 도
▁인 식
레 이
자 리
▁해 야
▁집 단
▁긴 급
더 라도
▁처 리
▁ ━
기 는
▁부 문
▁바 이러스
▁원격근무 를
▁비 교
▁도 움
드 는
▁2 주
▁임 금
▁ 테
▁“ 재택근무
분 기
▁어 렵
▁어려 운
@h an
▁나 눠
▁실 제
▁소프트 웨어
a ng
일 (
▁1 만
j u
이 익
인 트
합 니다.
▁기 회
▁자녀 를
▁너 무
▁ 됐
▁ 울
이 가
▁분 산
▁조치 를
5 년
▁임 산부
▁상황 이
▁들어 갔
▁피 해
명 의
▁지 금
▁희 망
▁ D
▁ 악
▁통 상
▁ 표
되 지
▁시 차
▁경 기도
S G
▁ 철
▁재택근무 와
▁대표 는
▁격 상
▁제외 한
▁ 볼
▁ 퇴근
▁이 뤄
▁어 린
▁확산 으로
▁ 둔
케 이션
▁ -
롭 게
▁위 기
▁트 위터
▁3 일
으 며,
▁제 조
▁활용 해
금 융
▁2 00
. 0
▁민 간
▁그러 나
▁ 머
▁ 날
▁사 이
▁방 법
▁모 바일
▁스 트
▁상황 에
하 여
▁지 시
▁미 만
▁워 크
▁지원 하는
▁늘 고
▁201 8년
▁일 할
▁한 다는
▁인 천
▁부 분
▁조 정
동 안
▁자 가
▁최 초
▁늘 었다.
▁유연근무 제
▁활성 화
1 0
계 를
자 ,
▁국 회
▁않 아
3 0
치 를
▁전 사
▁일 상
▁정 착
▁아 직
▁애 플
▁ 패
수 당
시 장
월 부터
▁구성 원
공 사
유 플러스
▁ 되는
원 에서
▁상 시
▁출 입
▁재 확산
▁맞 춰
kyung .com
▁자 동
▁신 규
분 의
▁늘어 난
대 책
▁전 면
- -
▁공 동
▁노동 자
▁별 도
▁없 다.
▁거 주
▁네 트워크
▁ s
▁소 속
▁사태 로
료 를
지 면서
▁자 제
▁ T
식 을
▁전 화
▁않 았
▁ 컴퓨터
데 ,
출 퇴근
▁솔루션 을
위원 회
@han kyung.com
▁ 길
관 은
시 키
▁부 족
▁LG 유플러스
▁막 기
택 트
▁" 코로나19
▁모 습
▁어 디
▁많 아
▁ 망
▁ 은행
경 제
니 스
도 시
▁상 승
▁ 잠
일 을
▁통 한
▁소 비
) 에
▁ 몰
▁기능 을
" 이라며
e t
사 의
▁LG 전
▁ 갈
했 고,
활 동
▁현 실
가 지
니 다
수 가
▁가 입
’ 에
▁ 덧
▁ 폭
▁인 구
o n
등 학교
▁등 은
▁일 정
▁연 기
마 다
▁1 회
▁동 시에
정 책
친 화
▁시 범
▁공 격
▁근무 시간
▁덧 붙
▁일 ·
▁무 료
▁향 후
@a si
ae .co.kr
@asi ae.co.kr
명 은
i n
▁중 단
▁보 장
▁취 업
▁수요 가
감 을
▁필요 하
으 나
이 크
▁지원 한다.
▁ 즉
설 팅
달 러
▁원 하는
▁넘 어
기 간
▁방 지를
▁사용 자
▁스 타
▁착 용
▁빠 르게
o u
▁기업 들은
▁회사 가
) 이
▁경 력
▁특 성
▁생산 성
▁이유 로
▁측 은
레 스
▁추 세
▁뉴 욕
규 모
▁2 일
세 대
▁작 업
▁책 임
▁E SG
▁ 벌
떻 게
▁ 앱
▁가 상
▁일 주일
▁6 월
▁상황 을
▁ 군
▁ 먹
▁그 렇
타 워
▁ 얼
다 가
다” 면서
▁규 정
T )
▁ 먼
명 ,
비 대면
▁일 이
▁보 험
▁청 년
▁목 표
▁ 핵
▁대 신
▁C EO
긍 정
▁2 9
▁미 래
▁받 는
▁사태 가
데 믹
수 를
▁기업 에
▁4 0
▁영 상
▁요 구
▁향 상
▁덧붙 였다.
이 었
▁주 목
▁저 출산
▁삼성전 자
▁ 범
▁차 단
▁차 질
이 를
▁통 합
▁장 점
) 의
▁도 시
▁시행 하고
▁점 검
▁권 장
보 는
부 모
▁하 면
▁담 당
라 며
서 포트
우 처
▁있 지만
▁A 씨
@a ju
▁보인 다.
@aju news.com
▁ 됐다.
니 터
보 고
화 된
▁경 쟁
▁상 당
▁의 미
▁파 악
▁핵 심
▁ 긍정
비 를
▁하 지
▁어 떻게
▁ 팬
▁ 항
뮤 니
보 안
' 는
당 국
벤 처
▁있 다"며
▁사 이버
▁가 구
▁불 과
l e
▁분 리
시간 )
▁울 산
▁ 꾸
▁ 블
가 족
▁24 일
▁SK텔레콤 은
하 던
▁이 와
▁3 1
▁제공 한다.
▁방식 으로
▁언 제
▁논 의
▁ 콘
개 발
평 등
▁구 매
▁회사 는
▁영향 을
5 0
인 이
▁상 대
▁제공 하는
20 년
) ’
▁부 여
▁게 임
▁만들 어
이 기
이 집
▁보 다
▁육아휴직 급여
▁차 지
▁회사 에
▁고용 보험
▁상 품
▁동 일
▁근로 자의
▁서울 시
▁방안 을
▁있 다”며
▁것 이라고
▁불 편
” 이라며
▁ j
▁인 력을
▁종 합
상 공
지 가
▁2 만
▁자 택
▁많 았다.
▁등 도
▁상 반기
▁근무 자
▁협 력
명 에
▁있 었다.
▁바 우처
▁완 화
( 6
▁3 0%
사회 적
▁ 친
세 가
원 에
현 지
▁있 기
▁소 득
▁4 월
▁받 고
▁본 격
▁9 월
▁25 일
계 획
되 면
▁보 내
▁나 왔다.
▁여 전히
▁알 서포트
▁아이 를
@ d
▁ 떠
▁ 잇
▁재택근무 제
▁의 원은
▁ 씨
사 무
인 력
일 과
▁" 이
▁그 런
뿐 만
▁경우 가
▁달 라
▁포 스코
▁통상 임금
▁1 월
▁않 을
▁컨 설팅
7 년
▁고용노동 부
▁ 웹
▁업 종
▁불 안
▁정부 의
▁발표 했다.
▁어려움 을
일( 현지
견 기업
즈 니스
포 인트
▁상황 에서
▁체 제로
계 가
▁개 학
▁특 별
▁A 씨는
) 은
▁학 교
or k
웍 스
▁한 화
▁출 장
' 에
( S
섰 다.
협 회
▁5 월
▁지원 을
▁안 내
▁ 귀
▁않 도록
▁중요 한
▁나온 다.
량 이
▁발생 한
▁기간 을
▁직원들 을
▁N H
▁근무 환경
▁모 니터
▁실 적
▁심 각
▁전문 가
▁극 복
▁아 울
▁업무 가
▁비율 은
다" 면서
▁각 종
는데 ,
▁커 뮤니
▁고려 해
o ng
· 중
력 이
유 행
▁접 근
( W
도 로
▁여 파
▁어 떤
▁사용 하는
▁매 우
▁문제 가
▁급여 를
d a
선 을
정 부
진 다.
▁인 정
▁사람 이
▁취 약
▁팬 데믹
3 9
버 그
▁지 방
▁‘ 재택근무
▁알려 졌다.
▁아울 러
y e
이 드
▁' 재택근무
▁바 로
▁도입 한
제 가
▁인 원을
▁마 음
▁집 계
▁매 일
▁지침 을
▁ 돈
트 업
▁이 같
▁1 일
▁받 았
▁화 상
▁취 소
▁불가 피
▁백 신
▁스마트 워크
세 를
▁실 천
▁가능 하
▁방식 을
▁ k
혜 택
▁제 대로
▁공간 을
▁밀 집
% 를
i l
▁ h
인 의
▁반 영
경영 자
되 어
안 을
코 리아
▁전 반
▁출근 하는
▁내용 을
상 황
▁있 고
▁공 개
▁실 시간
▁종 사
▁수 는
▁전 달
▁경 기
러 한
▁있 고,
▁유 출
동 산
부 문
하기 도
▁증가 한
▁기 관
▁일 자리
▁23 일
이크 로
1 년
· 재택근무
어 나
▁재택근무 ,
▁하 도록
▁필요 가
▁ 풀
▁인 상
▁인 원
▁3 단계
▁“ 이
▁업무 용
▁나 머
▁실 제로
▁의 료
~ 2
쳤 다.
▁전 날
▁직 무
▁동 참
▁7 월
▁입 장
▁과 정
그룹 은
▁적극 적으로
▁눈 치
▁ 존
의 를
인 은
▁비 즈니스
▁차 원에서
▁검 사
▁ 축
마 존
▁이용 할
▁양 육
▁도움 이
▁들어갔 다.
▁ 라인
자 로
▁가 까
▁나 서
▁동 료
▁번 째
▁자가 격
▁ 퇴
뉴 스
하 자
▁화 면
은행 은
▁철 저
0 만
▁ 침
▁회 식
00 여
▁서 버
▁실시 한
▁초 등학교
▁사 진
▁전 용
▁가능 성이
▁기준 으로
▁스트 레스
▁ 맡
모 트
▁이 제
▁그 동안
▁코로나바이러스 감염
▁힘 들
▁ ▶
지 지
▁기업 들의
▁4 일
▁늘 었
▁이 내
▁점 심
▁참 석
▁먼 저
디 어
위 를
자 인
▁보 건
▁환경 에서
▁26 일
’ 는
▁ 좀
요 일
▁2 년
▁보 니
해 도
▁회사 의
▁종 료
▁요 청
r e
▁ 촉
조 치
▁재택근무 제를
▁수 당
▁검 사를
▁두 고
하겠 다고
▁트 렌
0 만원
▁ 탄
수 록
지 ,
투 자
▁양 립
▁27 일
▁불가 능
▁자유 롭게
대 표
▁모 델
▁않 았다.
▁사무 직
▁당 부
▁자녀 가
▁행 복
▁착 한
@ et
치 는
▁2 단계
▁방 송
▁어린 이집
▁일· 생활
벤처 기업
▁ 농
▁해 소
▁계 약
▁근로 자가
▁사람 들이
▁우려 가
@et news.com
ᄏ ᄏ
▁ 넷
▁ 둘
가 정
요 ?
통 령
▁이 메
▁수 가
▁시 설
▁한 다고
▁같 이
▁외 국
▁좋 아
▁준 수
기술 (I
c e
▁ 갑
닷 컴
히 려
▁이 러한
▁처음 으로
▁어디 서
P C
공 무원
하 다
▁직원 에게
▁당 시
▁홈 페
교 통
▁전 원
▁5 일
▁이후 에도
B C
▁ 몇
▁ 혜택
만 큼
서 를
안 전
▁하 게
▁찾 아
구 조
보 다는
자 체
▁기업 을
▁아 마존
▁유 럽
▁결과 를
▁ W
▁ 돕
▁3 6
▁대해 서는
▁201 7년
르 는
서 울
▁통 계
사업 장
▁부담 을
▁여부 를
▁ 돼
▁ 얻
▁ 윤
랜 드
로 ,
어 서
점 이
▁8 0%
▁스타 트업
▁NH N
1 2
자 들이
출 근
▁오 히려
▁회사 에서
▁했 습니다.
▁제외 하고
▁마스크 를
▁키 우
▁최초 로
) '
▁모 임
▁성 공
▁특성 상
효 율
▁5 2
▁대비 해
▁삼성전 자는
단 절
대 를
▁한 다”고
▁원 칙
▁도입 을
▁비율 이
▁트렌 드
▁ 놓
▁ 능
들 에
자 와
▁3 분의
▁근무 가
▁주 거
▁계 기로
▁시행 한
▁사무실 로
▁체 제를
▁작 년
▁KT 는
0 년
~ 3
▁ 덜
▁의 원
▁남 녀
▁반 응
▁변 화를
▁편 의
교육 청
▁육아 기
▁다 니
▁유 급
▁신 한
▁발 전
▁6 개월
▁합 니다.
▁코로나바이러스감염 증(코로나19)
로 부터
사 진
▁원 활
▁현 황
▁분 할
▁때 까지
시간 을
▁활용 할
하겠 다”고
▁13 일
▁질 문
▁의무 화
률 이
빌 딩
인 증
▁대 유행
▁인 근
▁주 는
▁그 래
▁동 기
▁활용 한
일(현지 시간)
▁ 베
▁사 전
▁수 밖에
▁전 략
▁가 격
▁제 시
▁문화 가
▁쉽 지
▁잇 따
이크로 소프트
▁ 셈
사 에
스 를
스 마트
업 을
인 을
▁하 겠
▁실시 한다.
▁부모 가
▁다음 달
% 였다.
( 7
( V
감 독
▁대 통령
▁소 재
▁거 래
▁조사 됐다.
▁엄 마
▁집단 감염
감 이
과 의
아 빠
지 에
테 크
▁집 에
000 여
▁나머 지
▁ 쉬
▁있 음
00 만원
▁문 의
▁무 엇
▁역 할
▁ 송
▁ 라이
▁보 여
▁문 제를
▁따르면 ,
▁못 한
▁답 변
▁병 행
▁ 앉
▁ 와
▁ 씨는
세 계
스 로
식 당
지 로
▁운영 하는
▁가족 친화
▁V PN
건 을
인 데
으로 ,
▁해 도
▁의 심
▁카 페
▁14 일
▁설문 조사
D I
▁ H
▁ 캠
자 에
접 속
제 ,
지 침
▁영 화
▁차 이가
▁전망 이다.
▁ 걱
▁공 백
▁진 단
▁이상 의
▁점 을
▁비롯 해
▁상대 적으로
▁통상임금 의
2 년
▁ 골
▁ 얘
▁ 좌
보 호
서 도
젝 트
주 의
▁부 동산
▁영 국
▁운영 하고
▁체 계
▁ 뜻
▁ 밖
운 영
▁제 기
▁연 속
▁그 리고
▁오 늘
하겠 다"고
i t
도 는
사 용
▁인 재
▁관 한
▁해 킹
▁최대 한
▁안전 을
▁언 택트
▁충 분
▁여파 로
▁자가격 리
서 다.
자 에게
카 드
▁달 리
▁입 주
( 8
j oo
방 식
보 니
소 기업
여 성
▁의 사
▁거 의
co r
▁편 리
▁쓰 는
▁ 넥
▁ 빨
드 시
▁보 완
▁경 북
▁임 원
▁밀 접
▁기록 했다.
’ 이
▁ 층
상 담
스 (
▁이 들
▁기 획
▁부 정
▁어 느
건 설
▁지 정
▁조 금
▁소 개
▁시행 한다.
▁예 산
▁만 에
▁사업 을
▁들어 간
▁목 소
▁보도 했다.
▁ 즐
가 능
뉴 얼
▁지 켜
▁나 선
▁프로그램 을
단 체
불 어
자 들은
파 트
했 고
▁1 인
▁않 다.
▁교 통
▁회의 를
장 ,
점 은
주 )
▁자 료
▁나 섰다.
▁바 뀌
▁출근 을
▁평 소
하겠 다는
▁광 주
▁쉽 게
▁외 출
▁홈페 이지
르 고
방 역
봤 다.
분 리
▁없 도록
▁도입 했다.
▁사무실 에
▁10 명
▁시작 한
▁느 끼
▁자신 의
위 로
▁등 에서
▁하 기
▁신 속
▁구 조
▁선 보
▁반 드시
▁유연 한
▁리 더
▁휴가 를
er al
eral d
) 과
e n
p .com
▁ 두기
가 고
했 다는
▁가 사
▁제 출
▁유 치
▁서 로
▁말 까지
▁선 호
▁걱 정
률 은
필 요
해 진
▁일 시
▁시행 하는
▁확진 자는
▁이상 이
▁프로 젝트
▁발표 한
@h erald
cor p.com
@herald corp.com
) 로
는 다.
해 왔다.
▁아 니다.
▁주 장
▁실 험
▁근 태
▁임직원 의
.5 %)
제도 를
▁포함 한
c h
티 브
했 지만
▁코로나19 의
▁부 부
▁하 락
▁시행 한다고
▁7 0%
▁개정 안
▁꾸 준
@ joo
다 '
자 녀
▁이 렇
▁이 야
00 만
▁실시 하고
▁수준 으로
▁장려 금
▁ 뛰
▁ 육
기 한
▁제 약
▁공 식
▁교 수는
▁사무실 에서
@joo ng
▁ 하고,
율 은
점 으로
▁있 지만,
▁대 법
▁대 형
▁지 자체
▁회 장은
▁있는 데
▁소 상공
▁강 남
▁장 애
▁회사 로
▁세 종
▁체 제
▁금융 권
) 와
텐 츠
평 가
▁1 0%
▁시 민
▁위해 서는
▁더 불어
▁환경 이
▁무 상
▁선택 할
▁제조 업
. 0%
i m
▁ 북
리 스
▁건 설
▁메 시
▁2주 간
▁셈 이다.
성 에
스 럽
앞 으로
▁1 명
▁직원 과
▁기업 과
▁' 워라밸
▁현 행
▁8 월
▁이날 부터
▁CEO 는
a m
▁ 툴
규 직
리 지
하 이
▁대 폭
▁자 기
▁비 슷
▁감염 병
▁열 린
▁스마트 폰
▁있으 며,
a t
냈 다.
비 즈
원 ,
으 면서
해 졌다.
▁공 지
▁배 우
▁생산 성을
.5 %
▁식 당
▁낮 은
▁균형 을
▁ 늦
네 요
받 고
▁이 외
▁이 틀
▁가 이드
▁하 면서
▁롯데 지
▁18 일
연구 소
▁선제 적으로
@joong ang
▁ O
청 사
형 태
▁것 이라는
▁마 이크로소프트
▁20 20년
▁많 다.
▁10 일
▁기반 으로
▁최고 경영자
리 드
▁지 하
▁없 었
▁없 다는
▁임 대
▁문 화를
▁복 직
▁지역 사회
▁설명 이다.
▁업계 에
@joongang .co.kr
▁ 끌
▁ 벗
▁ 숙
어 도
키 로
으로 써
▁수 원
▁4 4
▁금융 회사
▁조사 한
▁시대 에
▁ 줌
▁대 중
▁위 협
▁근무 할
▁거 쳐
▁단 순
▁세 대
▁한편 ,
▁사실 상
▁22 일
' ,
( 20
▁ ▷
밸 리
사 와
▁1 주일
▁주 변
▁강 력
▁늘어 날
▁시작 했다.
▁추가 로
▁지적 했다.
il y
▁ b
▁ 익
로 구
▁코로나19 에
▁개 최
▁데 스크
▁방역 을
▁호 소
▁넥 슨
1 5
a r
▁ ◇
량 을
인 구
▁원격 접속
▁6 일
▁단 체
▁제공 하고
▁201 5년
▁ 난
▁ 택
의 도
제 공
▁제 주
▁높 이는
▁정보 통신
▁경력 단절
▁착한 기업
이 즈
▁자 세
▁기업 문화
▁고 령
▁임 시
▁지원 하고
▁환경 에
▁갖 추
▁뉴 스
▁있으 며
▁사례 가
▁28 일
( A
” 라고
벌 이
펀 드
▁한 다"고
▁도 쿄
▁불 이익
.9 %)
▁유연근무 제를
▁ e
리 콘
사 항
으로 는
▁아 동
▁아 파트
▁도입 해
▁본 부
▁재택 ·
▁되 고
휴가 를
▁예방 을
▁위치 한
7 0
@ k
C T
거 리
▁직원 에
▁주 택
▁때 는
▁17 일
▁음 성
▁야 근
▁얼 마
da ily
기술(I T)
규 정
이 노
클 라우드
▁가 치
▁‘ 워라밸
▁유 통
▁신 설
▁많 았
▁스 스로
▁종 식
▁여성 의
▁15 일
@se daily
@sedaily .com
▁ R
▁ 풍
적 이
▁가 동
▁아 내
▁늘 면서
▁사무실 을
▁휴 식
▁맞 는
▁응답 자의
.2 %
-- --
· 고
▁ <
▁ 쓴
격 을
국 민
됩 니다.
▁대 규모
▁정 기
▁공 장
▁그 쳤다.
▁설 정
▁9 0%
▁초 기
▁나타 나
▁지급 하는
▁갖 춰
다’ 는
▁커뮤니 케이션
" ...
( 약
▁ 괜
▁ 녹
기 준
데 이
로 드
생 산
소 통
스 ,
하 지만
▁수 립
▁1 분기
▁고 위
▁구 체
.1 %
& #
에 만
▁주 말
▁내 에서
▁여 행
▁식 사
.8 %)
.6 %)
▁책 상
▁드 러
▁시차 출퇴근
▁집계 됐다.
▁ :
▁ 은
도 체
리 어
면 세
증 권
학 년
학 생
▁' 코로나19
▁A I
▁개인 정보
▁법 률
▁결정 했다.
▁19 일
.2 %)
▁기술 을
▁창 의
▁줄어 들
39 ;
&# 39;
4 0
’ 의
▁ 붙
아 이
어 야
▁1 명이
▁최 적
▁여 가
▁상황 이다.
▁못 하는
.5 단계
▁격 리
(C EO
) 씨는
t .co.kr
▁ 빈
▁ 왜
▁ 퍼
공 단
나 라
스 러
자 도
중 앙
▁이 른
▁보 이
▁그 대로
▁시행 할
▁바 탕
▁관련 해
▁K B
▁변화 가
▁경제 적
▁승 진
' 로
’ 가
▁ 뿐
젊 은
차 를
▁사 고
▁지 나
▁전 산
▁정 말
▁‘ 코로나19
▁하 이
▁연 계
▁장 비
▁운 동
▁사업 주
▁올 라
▁재 개
▁행 사
▁정책 을
@d t.co.kr
▁ 터
마 블
없 는
연 금
▁주 문
▁확산 세가
▁영 역
▁설 계
▁매 뉴얼
▁판 교
▁정보 를
▁수준 의
▁안전 한
.7 %)
▁활동 을
필요 한
▁ 슬
모 비스
실 을
한 다”고
▁이 해
▁수 익
▁3 5
▁아 무
▁방 향
▁내 려
▁모 집
▁소 독
▁영 구
▁바 꾸
▁결과 ,
▁신청 할
000 명
▁정보 기술(IT)
▁효율 성을
▁12 월
▁넘 는
▁망 분리
▁ U
▁ 압
니 까
시 아
프 라인
▁재택근무 ·
▁한 해
▁출 생
▁구 현
▁국내 외
▁명 확
▁25 일부터
▁측 면
▁16 일
▁형태 로
다’ 고
▁최고경영자 (CEO
6 5
▁ 넓
▁ 움
거 래
관 계
관 이
됨 에
영 업
우 리
케 팅
하 다고
한 다"고
▁2 배
▁실 리콘
▁사용 한
▁변 경
▁저 장
▁프 리
▁부서 별
▁현대 모비스
▁자유 로운
▁늘어나 고
▁비롯 한
▁엔 씨
▁범 위
' 가
( G
T F
▁ 암
▁ 품
리 적
소 를
스 플
인 력을
주 시
하 다는
했 다"고
▁바 람
▁생산 성이
▁C N
▁영업 이익
▁우수 기업
m 2
o m
했 다”고
▁다 수
▁여 의도
▁본 점
▁계획 을
▁학 생
▁변화 에
▁차질 이
▁캠 페
1 1
6 년
▁ d
고 객
전 을
직 장
▁사 항
▁가 지
▁것 "이라며
▁4 0%
▁결 혼
▁7 일
▁복 무
▁포함 해
▁느 낌
m i
▁ 맛
▁ 탑
상 의
있 는
타 임
▁사 라
▁업무 의
▁주 민
▁지원 금
▁높 았다.
▁매 년
▁방침 을
하려 는
▁움 직
▁ 천
▁ 혹
기 금
메 라
적 이다.
조 사를
함 .
▁있 다
에서 의
▁2 회
▁것 에
▁나 라
▁시간 과
▁남성 의
▁입 사
.9 %
▁데이터 를
▁누 구
▁얘 기
l i
· 경
모 바일
베 이션
사 람
원 과
▁중 기
▁위 반
▁나 가
▁육아휴직 이
▁내 놓
▁결 국
▁줄 여
▁이용 해
’ 으로
▁ 탈
만 5
분 간
▁아 침
▁업무 환경
기업 의
▁차 별
▁어려 워
▁온라인 으로
▁응답 이
▁27 일부터
▁괜 찮
( )
( 대표
▁ 낸
▁ 봉
디 지털
방 송
주 택
항 공
▁분 양
▁미 팅
▁특 수
▁명 령
▁금융 사
▁중소기업 의
▁효율 적으로
▁30 일
▁확인 할
▁분석 했다.
▁끝 나
' 의
▁ 캐
받 을
지 도
하 며,
▁구 분
▁8 세
▁저 녁
▁비중 이
g ye
▁중 이
▁3 4
00 명
▁발 열
▁경우 에는
... "
▁되 면
.8 %
▁11 일
▁지속 적으로
▁꼽 았다.
대책 본부
▁바탕 으로
( M
Z 세대
▁ 횟
▁ 흐
뱅 크
장 의
질 환
최 근
▁등 록
▁3 3
▁회 복
▁구 미
▁실 행
▁원격 으로
▁비율 을
▁정도 로
▁이메 일
▁꾸준 히
원 으로
준 다.
커 버그
▁자 연
▁최 우
까지 는
▁여 건
▁여 유
▁지역 에
▁L S
▁양 성
@se gye
▁자택 에서
▁이렇 게
@segye .com
I T
a .com
▁ 끊
겠 다는
내 식당
노 무
담 당
시 부터
치 고
▁이 들은
▁3 개
▁상 관
▁주 로
▁4 8
▁운 용
▁저 커버그
▁당 국
▁명 이
▁과 거
▁있어 서
▁휴직 을
▁내용 의
▁국민 의
▁안정 적인
▁즉 시
2 5
▁ 챙
구 에
아 서
자 들의
근무 를
▁수 평
▁것 과
▁기업 들
▁상 향
▁아 예
▁연 간
▁6 0
▁기간 은
▁관심 이
▁무료 로
▁과정 에서
이노 베이션
▁엔씨 소프트
' 이
- 19
3 년
f e
’ (
’ ,
’ 은
받 는
성 ,
와 대
율 이
파 이
▁사 유
▁대 화
▁시 험
▁공 직
▁통 제
▁특 정
▁8 일
▁포 스트
▁발생 할
▁롯데 면세
▁갖 고
▁갖 춘
▁매출 이
▁카카오 톡
▁고용노동 부는
▁의견 을
▁당부 했다.
▁ 덕
려 고
와 의
운 용
했 으며,
▁이 슈
▁3 2
▁감 사
▁문 을
▁사람 은
▁고객 센터
▁성과 를
▁걸 쳐
▁만족 도
▁논 란
▁싶 은
▁콘 텐츠
▁좌 석
▁ 젊은
니 어
되 며
명 ),
이 자
제 는
청 은
품 을
▁1 20
▁일 환
▁3 7
▁회 계
▁맞 벌이
▁시스템 이
▁방식 의
▁12 일
▁그러 면서
▁블 룸
’ 로
▁ 옮
너 스
어 요
체 계
▁있 음.
▁1 차
▁인 원이
▁제 작
▁나 와
▁육아휴직 자는
▁신 입
▁밝혔 습니다.
▁교 사
▁조치 다.
▁살 펴
▁면 접
▁겪 고
ou l
) 으로
w w
▁ 닫
▁ 티
공 공
대 에
리 트
오 는
유 연
지 능
▁이 직
▁보 편
▁나 갈
▁높 일
▁감염 증
▁재 직
▁원격근무 가
▁SK 그룹
▁중소 ·중
▁권고 했다.
▁다니 는
로 는
수 도
시 까지
인 터
포 스트
▁유 행
▁시행 에
▁가능 하도록
▁유연 하게
▁카 메라
▁안전 하게
▁보고 서
▁상담 사
▁긍정 적인
▁대중 교통
▁ 삭
▁ 팔
년 간
런 스
려 는
유 업
주 당
하 라
▁대 전
▁통 화
▁4 명
▁선 별
▁7 0
▁10 월
▁당 분간
▁초 과
소 득
재 단
칙 을
한 국
▁다 르
▁최 선을
▁바 란
▁체 크
▁절 감
▁결정 할
▁100 %
▁카카오 는
▁경험 을
▁비용 을
▁돌입 했다.
▁나오 고
▁상태 다.
▁LG유플러스 는
▁넷 마블
▁어디서 나
Y T
▁ 라
브 리드
했 지만,
▁사 원
▁않 으면
▁단 말
▁반 도체
▁후 보
▁간 접
▁배 치
▁임신 부
▁접촉 을
▁동일 한
사무 실
" 라고
▁ o
▁ 밥
너 지
태 원
▁수 출
▁일 하고
▁보 는
▁보 였다.
▁유 튜
▁확산 이
▁회사 를
▁시간 에
▁승 인
▁이같 은
u n
곳 에
부 처
의 회
지 난
▁지 키
▁전 직원
▁한 부모
▁기업 들도
▁적 은
▁경우 ,
▁가능 해
▁디 자인
▁뒤 를
▁않는 다.
▁202 2년
고용 평등
▁머 물
▁탄 력
t e
▁ 견
▁ 꼭
▁ 쿠
구 는
망 을
찬 가지
▁대 학
▁1 위
▁구 내식당
▁마 찬가지
▁만 든
▁남 양
만원 을
▁12 개월
▁확진자 와
▁매출 액
I D
▁ ◆
대 상
번 째
성 도
습 니다
적 이고
▁것 ”이라며
▁확 장
▁중 에
▁자 주
▁실 태
▁20 일
▁적 합
▁9 일
▁진행 하고
▁I CT
▁인터 뷰
▁분위기 가
▁관심 을
▁악 화
2 4
8 0
▁ p
▁ 곧
▁ 몸
대 비
도 ,
시 가
접 촉
화 문
▁한 경
▁업무 와
부터 는
▁없 을
▁4 5
▁마 케팅
▁시행 해
▁높 여
▁6 일까지
▁남 편
▁무 기한
▁저 하
▁배 달
▁되 지
▁했 다고
▁기반 의
▁202 5년
▁대책 을
▁M S
▁존 재
▁소상공 인
N S
▁ 놀
리 티
이 고,
평 균
회 를
▁대 다
▁시 도
▁시 청
하는 데
▁2 .5단계
▁가 져
▁한 시
▁보 상
▁부 처
▁주 고
▁맞 게
▁조직 문화
▁있으 면
▁빠 른
le e
▁중소·중 견기업
1 3
▁ 니
고 를
진 흥
▁사 는
▁지 식
▁1 일부터
▁“ 육아휴직
▁불 필요한
▁달 했다.
▁사태 를
▁답 한
.1 %)
.3 %)
▁영업 점
▁독 일
' 으로
” 고
▁ 멀
▁ 묻
▁ 봐
공 지능
디 오
어 난
▁기 초
▁인 원은
▁없 음
▁20 %
▁매 주
▁진 정
▁접 종
▁SK 이노베이션
▁휴 게
▁제도 다.
.3 %
▁V DI
▁기회 를
▁이같 이
a a
▁ 깨
▁ 끼
느 냐
로 우
률 을
리 에
리 모트
비 용
죠 .
주 로
▁수 업
▁중 에도
▁공 기업
▁3 만
▁조 언
▁거 점
▁늘 리
▁적 응
▁불 만
▁경우 도
▁확대 하고
회의 를
▁실시 하는
▁직장인 이
▁청 사
▁공간 에서
▁피 로
▁담 은
명으로 ,
▁가정 의
▁300 인
▁역할 을
▁유튜 브
▁ 웃
겠 다”고
계 약
이 에
주 간
토 록
향 이
▁기 여
▁보 유
이라 도
▁오 프라인
▁지원 할
▁특 징
▁교 대
▁남성 이
▁과 학
▁메 일
! !
권 을
돼 야
사 ,
시 로
신 종
전 문
화 학
▁보 육
▁인 원의
▁위 메
▁경 찰
▁" 육아휴직
▁해 제
▁더 존
▁특 화
▁증가 하고
▁좋 다.
▁진행 할
▁신청 을
▁효율 적인
▁청 와대
▁열 고
▁확인 됐다.
▁규모 가
▁자율 적으로
▁에 스
▁않아 도
▁LG전 자는
▁암 호
) 도
▁ 페
두 고
▁대 출
▁수 치
▁최 저
▁신 경
▁적 지
▁맞 춤
▁자녀 에
▁201 6년
▁폐쇄 하고
▁구글 은
▁돌아 가
▁길 어
▁그런 데
▁실리콘 밸리
▁한경 닷컴
▁ 탓
함 에
함 을
▁있 다면
▁1 ,
▁전 에
▁자 사
▁연 령
▁연 말
▁받 지
▁도입 하는
▁금 감
▁확대 할
▁되 어
▁속 속
.7 %
▁경험 이
▁처음 이다.
▁일상 화
@d ong
▁잇따 라
▁가이드 라인
@dong a.com
' 은
( 0
▁ 겸
▁ 깊
▁ 센터
놨 다.
니 아
량 은
레 이스
했 는데
▁이 었다.
▁1 000
▁근무 하고
▁5 3
시간 이
▁확대 해
▁임직원 을
▁투 입
.6 %
▁대부분 의
▁네이버 는
▁장기화 로
aa S
( D
9 9
되 기
보 건
부 서
▁이 루
▁시 는
▁상 한
▁육아휴직 은
▁연 동
▁실 내
▁만 나
▁8 8
▁작 성
▁광 화문
▁정상 근무
▁늘어나 면서
▁혜택 을
▁데스크 톱
" 고
▁ J
▁ Q
▁ 랜
▁ 잦
▁ 훨
가 를
구 를
인 사
하 우
함 으로써
▁통 근
▁장 관은
▁우 한
▁체 온
▁휴 대
▁개인 의
▁30 분
▁팀 장
▁낮 아
▁부담 이
▁질 병
▁전망 했다.
비즈 온
교 대
다 며
대 응
명 이다.
문 을
스 타
아 야
영 상
인 지
프 로
▁재택근무 자
▁대 처
▁전 파
▁상 위
▁조 건
▁나 누
▁간 편
▁취 지
▁이어 질
▁전체 의
▁순 이었다.
.4 %
.4 %)
업계 에
@se oul
▁G S
▁자동 차
▁강력 한
@seoul .co.kr
▁ 솔
▁ 징
데 이터
려 면
신 문
윈 타워
▁기 울
▁확 정
▁정 해
▁기업 도
▁부 당
▁통 과
▁실 현
▁밝 힌
▁영 상회의
... 재택근무
▁활용 하는
▁요 즘
▁미국 의
▁늘어나 는
▁추세 다.
▁얼 굴
▁롯데지 주
O V
s t
▁ 헤
노 멀
세 요
▁기 기
▁도 내
▁개 념
▁영 아
▁고용 부
▁배 경
▁순 차
▁채 널
▁커 지고
▁모습 을
▁ 듯
▁ 석
달 라
랐 다.
버 스
설 망
성 장
▁재택근무 ...
▁시 각
하고 자
▁일 하기
▁신 뢰
▁해 서
▁안 에
▁강 원
▁노 출
▁예 외
▁외 에
▁점 차
▁당 연
▁출산 휴가
▁리 모트
▁창 원
▁제품 을
▁충분 히
▁이른 바
인터 넷
▁훨 씬
OV ID
h y
▁ 꺼
▁ 샌
행 정
▁육아휴직 자가
▁구 직
▁통 보
▁4 6
▁노 력을
▁출근 하지
▁지역 의
▁커 피
▁팀 원
▁복지 가
▁( 주)
▁토 로
▁비중 은
▁패 키
▁철저 히
▁최우 선
▁ w
단 지
리 핑
린 다.
시 ,
시 켜
일 이
자 동
지 방
현 재
▁근무 에
▁구 로구
▁여 기에
다" 라고
▁말 부터
▁조치 가
▁협업 툴
▁완 료
별로 는
▁202 1년
▁브 랜드
▁선제 적
▁트위터 는
▁별도 의
▁종사 자
▁더존 비즈온
OVID -19
4 년
V PN
▁ 레
▁ 왔
간 의
까 .
대 체
임 을
제 품
조 건
지 면
했 다"며
▁수 급
▁2 차
▁‘ 사회적
▁개 별
▁노 무
▁적 절
▁추 구
▁학 습
▁눈 에
▁노트북 을
▁경영 진
하려 면
▁차지 했다.
S D
▁ 겨
▁ 캘
가 가
겠 다"고
법 을
서 관
장 려
지 니어
한 다면
했 을
▁기 저
▁대 변
▁일 자
▁보 이고
▁내 달
▁하는 데
▁급 격
▁점 이
▁임직원 이
▁당 초
▁배 려
▁가운데 ,
.7 %),
▁집중 할
▁검토 하고
▁모니터 링
7 8
대 한
캠 프
▁대 우
▁제 안
▁자 산
▁기업 으로
▁서 초
▁생 기
▁201 0년
▁마련 해
▁충 북
▁영향 으로
▁효과 가
고용 노동
▁일주일 에
스플 레이
▁블룸 버그
6 0
▁ 왔다.
드 를
무 는
법 인
주 고
▁시 기
▁‘ 20
▁부 총
다” 는
▁사용 이
▁노 사
▁높 았
에게 는
▁대상 은
▁특 허
▁운영 을
▁곳 은
▁창 출
▁호 텔
▁건강 을
▁높아 졌
▁홍 콩
▁줄어 든
▁비교 적
' (
▁ m
▁ 낳
다 운
대 가
선 이
섬 웨어
센 티브
아 가
전 자
퍼 런스
▁전 해졌다.
▁정 리
▁육아 를
▁4 2
▁발 굴
▁미 리
▁근 거
▁선 언
▁외 에도
▁보안 을
▁이용 하는
▁남성 은
▁진행 한
▁아이 디어
▁현대 차
▁인프라 를
▁홍 보
▁사실 을
▁떨어 진
▁"이 번
▁대다 수
▁ t
▁ 겁
▁ 괴
리 케이션
점 에서
정 에
▁이 주
▁수 입
▁일 에
▁중 구
.. ..
▁오 른
▁사용 을
▁만 드는
▁늘 려
▁차 례
▁확대 하는
▁제도 가
▁간 의
▁알 고
▁배 송
▁편 집
▁들어 가
▁거리두기 가
▁이유 는
▁창 업
▁힘 든
▁효과 를
▁공급 기업
▁혼 자
.0 %)
▁은행 권
▁돕 는
▁남양 유업
) 에서
1 7
K T
b .co.kr
▁ 써
▁ 밖에
다 른
부 를
세 종
수 급
이 지만
전 화
중 소기업
화 상회의
▁있 던
▁경 남
▁" 코로나
▁최 종
▁개 편
▁4 차
▁강 제
▁8 0
▁재 난
▁맞 아
▁아이 가
▁채 택
▁경제 활동
▁민 원
▁우리 나라
▁어려움 이
▁위험 이
▁T V
▁1인 당
▁익 숙
▁상관 없이
& D
~ 5
과 학
보 면
이 블
정 이
지 자
해 주는
▁있 지
▁1 시간
▁전 염
▁전 혀
▁가 속
▁보 이는
▁하 반기
▁서 류
▁오 래
▁사용 자가
▁노 조
▁분 류
▁때 도
▁본 인
▁이번 에
▁연장 하기로
▁응답 자
▁유지 할
▁곳 에서
(C OVID-19
▁워크 플
▁52 시간
스러 운
L G
S J
▁ 납
▁ 을
문 화를
비 가
성 은
억 원을
자 산
점 ,
책 을
트 너
▁전 후
▁등 장
▁가 진
▁그 냥
▁임 금을
▁5 6
▁분 위
▁동 의
▁설 립
▁가능 성을
▁증 상이
▁제공 할
▁체 계를
▁사태 에
▁전환 했다.
▁수준 을
▁문제 는
▁화상회의 를
▁평가 를
▁24 일부터
▁언 급
▁낮 추
▁쓰 고
▁최고 의
▁방법 을
▁LG전 자
1 8
~ 4
됐 다고
래 픽
시 킬
이 오
확 진
▁" 직원
▁없 었다.
▁4 3
▁5 명
▁시행 을
▁집 안
▁활 발
▁앞 장
▁금융 당국
(1 0
▁평가 했다.
▁측 정
▁18 일부터
(4 0
▁치 료
▁축 소
▁비슷 한
▁벗 어나
▁재택· 원격근무
@k mi
YT N
@kmi b.co.kr
r i
▁ YTN
가 량
부 담
비 ,
시 큐
인 원
증 상
▁이 사
▁2 000
▁일 터
▁정 신
▁3 8
▁상 사
▁상 대로
▁따라 서
▁교 수
▁필요 하다.
▁7 5
▁원격근무 에
▁결과 가
▁결과 에
▁절 차
▁30 일까지
▁고용노동 부가
▁겪 는
▁21 일
수당 을
▁A씨 가
▁탑 재
▁흐 름
▁위메 프
( 9
▁ 황
개 의
규 칙
사 설망
스 가
▁직 업
▁인 공지능
▁정 규직
▁자 회사
▁자 료를
▁공 약
▁다 녀
▁조 례
▁단 절
▁단 위로
▁방역 당국
▁가족 돌봄
▁넘 게
an ce
▁토 론
▁재확산 에
▁거주 하는
으나 ,
· ·
▁ 똑
▁ 쪽
인 가
재 난
지 막
통 화
하 나
▁일 단
▁인 센티브
▁정 확
▁다 소
▁' 20
▁높 이
▁매 장
▁확대 를
▁10 년
▁변 호
▁대해 서도
▁진행 하는
▁방식 이
▁역 학
▁것이 란
▁청 소
▁강화 하고
▁작 은
▁시장 을
▁찾 는
▁26 일부터
▁지적 이
▁도움 을
▁커뮤니 티
▁풀 이
▁삭 감
▁ 듣
다 보니
분 에
앵 커
온 라인
테 리어
학 과
▁확 실
▁자 금
▁3 회
▁상 업
▁업무 는
▁근무 제
▁6 5
▁감염 이
▁출근 하고
▁접 수
▁관련 한
▁후 에도
▁종 목
▁명 의
▁연장 했다.
▁중심 의
▁급증 했다.
▁앞으로 도
▁혼 란
▁비교 해
▁벌 어
▁전문가 들은
▁가까 운
▁가까 이
▁ 멈
므 로
제 어
▁이 처럼
▁2 학년
▁가 지고
▁한 번
▁내 다
이라 면
▁없 다고
▁소 송
▁위해 서다.
▁반 복
▁중소기업 에
▁채 팅
▁PC 에
▁1년 간
▁최소화 하기
▁나오 는
▁불과 했다.
다' 고
▁지하 철
▁CN BC
▁캠페 인
▁누구 나
▁지식 산업
~ 20
▁ 델
▁ 쏟
▁ 짜
▁ 획
게 임
민 국
었 던
이 며
일 은
일 자리
조 원
하 라고
해 온
▁재택근무 도
▁인 간
▁기업 에서
▁업무 상
▁있는 지
▁지난 주
▁국 제
▁바 꿔
▁증 권
▁진행 한다.
▁산 재
▁순 으로
▁최소 한
.1 %),
▁힘 을
▁피해 를
▁악 성
(W ork
▁취약 한
▁그래 서
▁압 박
▁맞춤 형
2 1
▁ 쌓
▁ 웨
▁ 잔
기 구
블 릿
상 은
책 임
▁신 고
▁내 렸다.
▁4 개
▁추 후
▁불 구
▁줄 일
▁협 약
▁기간 이
▁산 하
▁절 약
▁거리두기 를
▁구축 을
▁응답 은
▁협업 을
▁속 에서
▁팀 즈
▁접촉 한
라이 브
▁의무 적으로
▁희망 하는
시키 는
▁점심 시간
스럽 게
▁봉 쇄
▁지식산업 센터
u s
” 라며
▁ 띄
▁ 빅
만 족
민 주당
스 의
였 던
위 는
유 출
▁지 출
▁2 개
▁나 왔
▁원 을
▁없 고
▁해 석
▁5 5
▁높 다.
▁재 정
회의 에서
▁증가 하는
▁9 0
▁못 하고
▁외부 에서
근로 자
▁독 려
▁불가피 한
▁수당 을
▁혹 은
▁국민의 힘
( O
2 9
▁ y
▁ ◀
▁ 밤
▁ 찍
기 ,
네 트
센 트
수 준
아 차
액 을
음 을
필 수
했 다”며
혔 다.
▁보 수
▁코로나19 (COVID-19
▁“ 앞으로
▁주 식
▁하 며
▁구 입
▁없 애
▁선 도
▁도입 할
▁근로 자는
▁재 계
▁실시 한다고
▁좋 음
▁중소 벤처기업
▁이용 한
▁당 장
▁조치 했다.
▁관리 를
▁시작 된
▁프로 세
(1 5
▁IT 기업
▁지속 가능
.3 %),
▁절반 이
▁28 일까지
▁M Z세대
▁표 준
▁동일 하게
▁본격 화
( R
2 6
i ng
▁ 믿
기 고
다 ,
인 으로
조 합
하 다”고
▁대 리
▁1 명은
▁시 장은
▁중 견기업
▁관 광
▁내 가
▁도 심
▁4 9
▁지원 하기
▁줄 었
▁발생 하지
▁조치 는
▁방식 이다.
▁올해 는
▁노동 자가
▁중소기업 은
생활 균형
▁완 전
▁100 대
▁인증 을
▁몰 입
(V PN
▁고위 험
가 상
같 은
겼 다.
만 의
시 하는
신 청
일 )
점 에
플 랫폼
▁보 낸
▁자 리를
▁3 차
▁상 장
▁근무 형태
▁주 재
▁유 도
▁모 여
▁실 질
▁국 무
▁마 지막
▁예 약
▁많 음
▁추 정
▁도입 하고
▁사무실 이
▁달 하는
▁돌 파
▁제공 해
▁줄 이기
▁발생 하는
▁간 담
▁시스템 에
▁신청 한
▁행 사를
▁나타 났
▁일부 를
▁여성 이
▁효율 적
(1 4
(2 9
▁컨 택
▁끝 난
▁촉 진
▁원활 한
▁메시 지
▁겁 니다.
( 주
k im
▁ 빚
▁ 셋
▁ 펀드
됐 습니다.
라 면
만 9
인 데,
치 단체
했 으며
▁재택근무 나
▁2 분기
▁‘ 일
▁아 주
▁업무 지
▁육아휴직 에
▁시행 하기로
▁도입 이
▁매 니
▁반 려
▁달 간
▁화 장
▁협 의
▁직장인 들이
▁있어 야
▁생각 이
▁화상회의 ,
▁격 려
▁완 전히
▁합 의
▁건물 을
▁반면 ,
뉴스 1
▁놓 고
사진 =
▁빨 리
자동 차
4 8
’ (3
▁ 액
가 구
구 역
싱 턴
언 택트
지 급
▁이 재
▁직원 도
▁업무 효율
▁출 장을
▁감 안
▁지원 해
▁확산 하면서
▁진 짜
▁필요 성이
▁실시 했다.
▁임직원 들의
▁권 한
▁새 로
▁여성 은
▁파 일
▁월 급
▁롯데 그룹
▁롯데 쇼핑
▁삶 을
▁매출 은
▁높아 지고
▁방지 하기
▁애플 리케이션
▁29 일
▁알서포트 는
▁통계 청
▁키우 는
▁끌 어
▁한시 적으로
' 와
’ 과
겠 다고
기 기
대 학
동 을
수 업
심 히
종 의
주 근
진 단
▁3 명
▁회 장
▁연 락
▁4 7
▁강 의
▁재 판
▁급 속
▁9 시
▁관련 된
▁워 킹
▁관리 가
▁I B
▁대응 할
▁물 류
▁여성 가족
▁크 다.
▁마련 했다.
스트 리트
▁음 식
▁브 리핑
▁사이 에
▁갈 등
▁친 환경
▁신한 은행
스마트 워크
▁이야 기
▁보편 화
( E
s s
▁ 숨
▁ 쇼핑
▁ 뿐만
▁ 빌딩
개 사
까 ?
남 성
네 요.
대 화
더 니
데 스크
령 사회
분 을
사 태
응 답
자 기
자 료
제 한
▁이 중
▁이 탈
▁수 능
▁전 일
▁코로나 로
▁조 항
▁출 연
▁4 1
▁발 의
▁6 3
▁단 지
▁달 성
▁10 만
▁검 색
▁효율 성
▁준 다.
▁11 월
▁적극 적인
▁부모 의
▁경험 한
▁규모 의
▁용 산
▁병 원
▁인식 이
▁출입 을
▁근무시간 을
▁“이 번
▁얼마 나
▁암호 화
주근 접
( 이
c t
▁ 옆
▁ 케
결 과
곳 을
되 자
병 원
보 드
심 각
올 해
이 며,
제 와
해 왔
▁등 이다.
▁위 원
▁공 포
▁기업 용
▁따 로
▁오 픈
▁지원 에
▁도입 한다.
만원 ,
▁전환 을
▁문제 로
▁일본 의
▁워라밸 을
▁충 족
▁페이스북 은
억원 으로
▁태 블릿
▁일· 가정
▁퇴 직
▁둘 째
▁앉 아
▁와 이
▁랜 섬웨어
5 2
7 9
S K
▁ n
▁ 봤
▁ 헌
▁ 별로
로 움
망 에
물 을
부 의
사 옥
율 을
착 한
▁사 랑
▁사 흘
▁말 한다.
▁생 후
▁지원 사업
▁경우 는
▁앞 두고
▁맞 추
▁기간 에
▁직장인 은
▁절 대
▁모두 가
▁응답 했다.
▁트 래픽
▁수준 이다.
▁필수 인력을
▁기존 에
▁지침 에
▁자체 가
▁무엇 보다
▁워크플 레이스
4 일
7 6
기 능
리 후
으 니
주 가
첨 단
홈 쇼핑
화 에
▁전 송
▁“ 직원
기업 은
▁국 방
▁예 측
▁대상 이다.
▁S W
▁이상 을
▁점 점
▁대응 하기
▁요 소
▁콜센터 에서
▁현재 까지
▁PC 를
▁있으 나
▁하나 의
▁형태 의
▁소통 을
▁근로시간 을
▁로 그
▁비중 을
▁자리 잡
▁우수 한
▁기본 계획
▁처리 할
▁즉 각
▁작업 을
▁긍정 적
▁능 력
▁더불어 민주당
▁최고경영자(CEO )는
고용평등 법
리후 생
1 6
B S
~ 8
· 출산
▁ 굳
▁ 궁
되 고,
부 산
실 에서
엑 스
조 로
지 금
투 어
▁재택근무 하는
▁대 기
▁1 층
▁전 세계
▁한 도
▁자 영업
▁상 호
▁회 장이
▁근 본
▁이용 자
▁늘어 났다.
▁법 적
▁15 0
▁기존 의
▁기능 이
▁인사 담당
▁하나 로
▁만족 도가
▁테 크
▁그렇 게
▁퇴 사
4 2
i s
i on
▁ a
▁ 펼
겠 지만
마 스크
머 스
임 신
트 를
협 업
▁이 행
▁이 태원
▁등 과
▁제 어
▁3 9
▁근무 한
▁육아휴직 자의
이라 면서
▁소 셜
▁강 릉
▁20 20
▁선 임
▁6 0%
▁운영 에
▁저 렴
▁워 싱턴
거나 ,
▁공무원 은
▁파 트너
▁약 속
▁곳 이
(2 7
▁사업장 의
지원 센터
정보 통신
▁접속 할
▁첫 째
▁현장 에서
▁수행 할
▁지금 까지
▁상당 히
▁31 일
▁의사 소통
▁공지 했다.
청사 에서
▁하이 브리드
▁움직 임
& G
’ 라는
구 청
기 적으로
받 은
순 환
식 품
이 란
인 과
전 략
차 이
화 가
▁가 전
▁일 정을
▁보 너스
▁인 테리어
▁‘ 아빠
▁코로나19 를
▁나 올
▁회 원
▁확산 되고
▁현 지
▁거 부
▁예 전
▁증 상
▁시간 은
▁이상 으로
▁반 대
▁줄 었다.
▁줄 이고
▁간 단
▁임직원 은
▁대응 을
▁직원들 에
▁효율 을
▁법 안
▁공간 에
▁장기 적으로
.6 %로
al ance
▁떠 오
▁실시간 으로
▁외출 을
▁갖추 고
▁순차 적으로
’ 도
▁ 美
▁ 겹
▁ 뭐
공 장
방 안
시 스코
이 면
조 직
조 차
하 라는
한 다
▁전 화를
▁아 래
▁최 악
▁' 일
▁그 만
▁없 다”고
▁의 원이
▁받 게
▁사무 공간
▁성 능
▁7 3
▁판 결
▁사람 들은
▁편 성
▁투 자를
▁추진 한다.
(2 8
▁개선 을
▁생활 의
▁방안 도
▁잡 코리아
▁통신 사
▁순환 근무
▁위험 을
▁주목 받고
▁포스코 는
▁느끼 는
▁체제 에
▁일환 으로
( T
4 차
▁ 딱
▁ 썼
▁ 엘
도 와
배 구조
승 민
워 킹
의 료
이 용
하 다"고
협 약
화 점
▁2 ~3
▁소 규모
▁강 요
▁더 해
▁추 천
▁매 달
▁복 합
▁복 리후생
▁발생 해
▁규 제
▁대표 적인
▁생각 을
▁C J
▁해당 하는
▁연봉 이
▁문서 를
▁혼 잡
▁소비 자
▁보내 는
▁나서 고
▁현황 을
▁사전 에
유연 근무
~ ~
리 포
만 으로
시 의
식 이
일 에
정 한
카 카오
토 리
하 더라도
▁직 주근접
▁가 치를
▁한 달
▁조 기
▁유 명
▁유 사
▁모 르
▁위해 서
▁4 만
▁높 이고
▁성 남
▁사업 은
▁달 러
▁10 시
▁초 등
▁명 을
▁시작 으로
▁참 가
▁비대면 으로
▁공무원 이
▁월 스트리트
▁수준 이
(1 1
▁적용 해
▁본사 와
▁성과 급
▁용 인
▁3개월 간
명) 보다
▁기회 가
▁받는 다.
▁협력 사
▁주장 했다.
공공 기관
a y
” ...
▁ #
▁ 습
▁ 윈
▁ 히
▁ &#39;
결 재
모 임
사 고
심 을
프 란
▁이 름
▁이 스트
▁수 혜
▁직 종
▁확 충
▁정 치
▁자 발
▁“ 일
▁“ 코로나
▁근무 지
▁" 일
▁주 도
▁신 동
▁도 구
다" 는
▁감염 을
▁대한 민국
▁출근 할
▁운영 한다.
▁사람 들
▁이어 지고
만원 으로
▁배 포
▁대응 에
▁작 용
▁공간 이
▁개발 한
.4 %가
▁선택 해
▁메신저 ,
▁장소 에서
▁“코로나19 로
▁비교 하면
▁농 촌
▁의원 실
▁답변 이
▁기획 재
▁출생 아
▁풀이 된다.
리포 니아
@ kyung
i r
’ 이라는
▁ 뒷
▁ 컸
▁ 헬
개 인
건 강
공 사는
달 라고
로 그
바 이스
베 이
소 독
시 켰
자 들에게
저 널
전 환
정 규직
▁이 들이
▁수 집
▁1 ~2
▁시 급
▁일 의
▁중 순
▁인 기
▁“ 그
▁“ 아
▁주 의
▁' 사회적
▁유 형
▁지원 이
▁마 크
▁계 기가
▁장 관
▁대상 이
▁서비스 가
▁사무실 과
▁돌 보
▁최근 에는
▁계획 이
▁강화 된
▁열 심히
.8 %),
▁28 일부터
▁의견 이
ang .com
▁민간 기업
▁별도 로
이었 던
▁신한 은행은
▁질문 에
▁가족친화 인증
▁목소 리가
기준 법
hy ang.com
프란 시스코
@kyung hyang.com
· 기
▁ 는
▁ 욕
▁ 훈
감 소
대 본
동 에
되 며,
많 은
매 우
모 레
아 웃
진 료
처 리
프 레
현 장
으로 부터
▁기 한
▁사 망
▁전 통
▁인 도
▁공 감
▁“ 회사
▁최 신
▁6 4
▁같 다.
▁서비스 는
▁SK T
▁고용 부는
▁휴 업
▁워 라
▁직장인 들의
▁금융 감독
▁LG 화학
.5 %),
▁대기업 의
▁열 어
▁12 일부터
▁마련 한
(3 0
▁시장 의
▁내용 이
▁13 일까지
▁16 일부터
▁오피스 를
▁참여 를
시스템 을
▁장기화 에
▁연차 를
▁육아휴직급여 를
▁귀 가
▁'재택근무 '
▁불가능 한
▁공백 을
(A I
·경 북
▁간접 노무
▁내다 봤다.
= =
S )
S A
번 호
비 상
조 정
합 뉴스
했 다
힌 다.
▁기 사
▁사 후
▁수 시로
▁인 텔
▁‘ 육아휴직
▁하 더라도
▁여 기
▁지원 ,
▁바 라
▁높 이기
▁6 9
센터 를
▁편 안
▁생산 직
▁전체 를
▁직원들 도
▁효율 성이
▁메 모
▁허 리
▁25 0만원
▁생각 하는
(1 8
▁형태 를
▁사례 를
▁극 대화
▁사이 에서
▁필요하 다고
▁항 공
▁밀집 도를
▁침 해
▁갑 작
▁베 이
▁집단감염 이
제공 =
▁불이익 을
---- ----
▁인터뷰 에서
▁2025년 까지
▁토로 했다.
▁캘 리포니아
▁기저 질환
▁대변 인은
▁가속 화
▁불구 하고
" 라며
· 퇴근
▁ 렌
▁ 짧
▁ 텐
개 를
곳 에서
관 광
급 적
등 록
부 ,
외 부
원 (
자 치단체
적 을
파 크
화 상
▁이 끌
▁기 다
▁중 에는
▁코로나 가
▁한 정
▁보 이지
▁기업 인
▁‘ 업무
▁" 회사
▁유 입
▁있는 데,
▁내 고
▁내 놨다.
▁안 심
▁동 시
▁늘 리는
▁높 였다.
▁S NS
회의 소
▁서울 시는
▁조치 에
▁되 면서
▁효율 이
▁15 0만원
▁심 사
▁유지 하고
▁시장 에
.9 %),
지원 금
▁구글 이
▁돌입 한다.
▁국민 연금
▁떨어 져
▁혁신 을
▁어렵 다는
▁격상 에
▁심각 한
▁이내 에
▁촉 구
▁선호 하는
▁품 질
_ _
’ 에서
▁ 꿈
▁ 러
▁ 칼
▁ 핀
라 스
릭 스
어 진
있 음
즈 는
집 에서
해 질
▁이 로
▁가 는
▁제 정
▁" 그
▁조 절
▁하 던
▁유 일
▁5 8
▁확산 될
▁국 회의
▁이상 은
▁재 미
▁점 에서
▁체 결
▁방역 수
▁직장인 들은
▁노동 자의
▁LG 디
▁트 윈타워
▁생각 보다
▁공공 부문
▁사업장 에
▁세계 적으로
▁플랫폼 을
▁최소화 하고
▁소프트 캠프
▁활성 화를
▁장소 에
▁중앙 재난
▁있었 던
▁폭 증
▁가상 사설망
▁고용보험 법
▁수평 적인
▁샌 프란시스코
( B
w ork
’ 와
▁ 객
▁ 윗
가 스
발 전
사 인
시 킨
작 용
중 에
출 생
판 정을
화 ,
▁수 용
▁위 생
▁3 배
▁" 앞으로
▁다 운
▁고 정
▁도 와
▁감 독
▁현 상이
▁6 6
▁우 리는
▁돌 보는
▁무 급
▁실시 할
▁201 4년
.5 %,
▁고객 상담
▁현재 는
(1 2
(1 7
▁격 차
(3 5
.9 %,
▁곳 에
▁선택 적
▁100 명
▁KT &G
▁외부 인
▁자율 적
▁복귀 를
▁예상 된다.
▁전자 금융
▁환 자가
▁그렇 지
▁NHN 은
▁대법 원
▁조언 했다.
▁수치 다.
' 에서
2 8
~ 10
▁ F
▁ 곤
▁ 맥
▁ 슈
▁ 앵커
갤 럭
데 요.
리 기
부 와
시 픽
일 로
▁사 이트
▁직 급
▁일 ᆞ
▁인 기를
다” 라고
▁5 년
▁차 량
▁금 요일
▁올 려
▁확대 했다.
▁달 한다.
▁무 관
▁관계 없이
▁김 정
▁협 조
▁발생 했다.
▁취 미
▁기준 을
▁30 대
▁근로자 들의
▁구성 원의
▁시장 이
▁연구 원은
▁참여 할
▁건강 과
▁23 일까지
▁감소 했다.
▁토 대로
▁이동 통신
(5 6
▁부족 한
▁덜 어
▁문의 가
지침 을
▁근태 관리
▁이외 에도
om e
▁논란 이
▁쿠 팡
▁묻 는
▁과학 기술
▁탓 에
▁앞장 서
▁월스트리트 저널
▁중앙재난 안전
e s
▁ 땐
▁ 콜
▁ 흔
결 정
공 동
구 글
리 온
링 크
받 지
브 로드
세 에
액 은
지 와
치 지
해 지고
회 계
회 에서
▁사 생활
▁1 천
▁2 명
▁전 기
▁아 모레
▁주 부터
▁내 렸
▁내 에
▁개 방
▁5 G
▁발 맞
▁시행 했다.
▁때 보다
▁차 원의
▁성 격
▁대해 서
▁임직원 에게
▁진행 했다.
▁대응 해
▁역 량
▁과 제
000 원
▁지급 한다.
▁예정 ”이라고
▁공무원 과
▁감염증(코로나19) 이
▁감염증(코로나19) 으로
▁수요 를
.9 %로
프라 이즈
▁대구 시
▁긴 장
▁방문 한
▁단계 로
▁테 마
▁표 현
▁귀 국
▁이제 는
▁공백 이
갤럭 시
( N
l a
l ou
ᅲ ᅲ
▁ ○
▁ 빼
▁ 셀
▁ 싱
▁ 캡
▁ 봤다.
감 한
개 선
군 은
도 에
수 요
이 어
처 는
카 페
합 니다
했 기
협 의회
회 가
히 는
▁있 다”면서
▁사 건
▁것 "
▁한 다”며
육아 기
▁공 모
▁근무 로
▁유 승민
▁발 급
▁원격 ·재택근무
▁분 명
▁예 를
▁높 인
▁활용 하고
▁관리 자
▁물 리적
▁부서 별로
(3 6
.4 %로
▁뉴 딜
▁3월 부터
▁에 너지
▁누 릴
▁누 적
▁다만 ,
▁선정 된
근로 복지
▁분야 에서
▁설문 조사를
▁고민 이
▁지시 했다.
▁자동 으로
▁저출산 ·고
▁철저 한
▁사진 =
▁라이 프
생산 성
▁공직 사회
수도 권
SD S
▁가상사설망 (VPN
브로드 밴
c m
▁ 팩
국 내
리 적인
마 크
바 로
션 을
실 에
액 이
웠 다.
이 사
인 프라
임 직원
점 검
조 치를
지 기
체 계를
터 프라이즈
퍼 시픽
협 력
▁2 ,
▁일 어나
▁한 다"며
▁인 건
▁주 관
▁' 리모트
▁그 간
▁없 음.
▁말 고
▁5 1
▁5 4
▁만 전을
▁보안 이
▁포 기
▁SK 브로드밴
▁솔루션 으로
▁한국 의
▁관리 할
▁처 우
▁이번 이
▁콜센터 를
▁했 던
▁강화 했다.
▁구축 해
▁피 차이
▁24 시간
.6 %),
▁내용 은
▁뉴 노멀
▁고려 한
▁대구 ·경북
▁느 껴
▁시대 를
▁에 어
▁형태 가
▁홈 오피스
라이 언
▁대체 인력
▁엔 지니어
▁테 스트
▁애플 은
시키 고
상공 회의소
▁가능하 다는
▁숙 박
▁자세 한
▁구체 적인
▁특징 이다.
lou d
' ...
( 19
3 일
f n
p en
▁ 빌
▁ 싸
로 지
미 팅
신 도시
어 린
오 후
임 .
장 에
주 기
커 머스
특 히
혁 명
▁이 웃
▁가 급적
▁것 .
▁위 기를
▁‘ 집
▁비 판
▁조 사를
▁연 수
▁모 색
▁않 게
▁않 다는
▁오 랜
▁4 개월
▁발 언
▁지원 금을
▁8 7
▁활용 이
▁점 도
▁대해 선
▁줄 이는
▁사람 의
▁알 아
▁클 럽
▁미국 에서
▁고객 의
▁특히 ,
▁25 %
.2 %),
▁SK텔레콤 이
▁연구 개발
▁E TF
▁살 아
▁엄 청
▁코 리아
▁장소 를
▁앱 을
0년 대
▁들어간 다.
▁측면 에서
▁코로나19(COVID-19 )
▁컨택 센터
▁기획재 정부
D C
t u
▁ f
▁ 낼
▁ 엠
▁ 죽
▁ 쾌
국 가
남 기
리 오
만 이
부 에
사 이트
상 시
선 택
어 요.
위 가
위 에
유 치
장 소
져 야
▁이 노
▁있 다"면서
▁기 타
▁대 도시
▁1 개월
▁직 후
▁일 은
▁‘ 아
▁아 시아
▁내 린
▁소 요
▁5 일까지
▁사용 하고
▁시행 령
▁근로 기준법
▁성 장을
▁세 부
▁솔루션 이다.
▁늘어 났
.5 %로
▁중소기업 이
▁새 롭게
▁참여 하는
▁눈 길
▁엄 격
연구 원
▁전사 적
▁뛰 어
▁육 성
▁마이크로소프트 (M
▁KB S
▁부총 리는
▁괴 롭
▁셋 째
▁매니 저
( 신종
@ fn
o b
~ 12
▁ c
▁ 다.
끼 리
내 고
단 을
데 이트
래 도
명 에서
무 리
보 육
수 의
수 응답
오 고
채 용
으로 서
▁기 기를
▁보 좌
▁공 략
▁주 당
▁출 ·퇴근
다" 라며
▁4 단계
▁생 겨
▁생 긴
▁분 당
▁예 고
▁성 별
▁8 4
▁본 사를
▁반 일
▁포 인트
▁효 성
▁김 지
▁제도 는
▁사람 을
▁솔루션 이
▁조치 로
▁신청 하면
▁규 정을
스크 포
▁노동 자는
▁게 시
▁적용 할
▁협업 도
▁박 정
▁교육 을
▁식 품
▁평가 가
▁시장 에서
▁전문 기업
▁검토 할
하려 고
▁테 이블
▁가상 화
▁라인 웍스
▁계약 직
교육청 은
ww w
▁금감 원은
▁질병 관리
@fn news.com
o p
~ 6
▁ 깔
▁ 색
▁ 칸
▁ 탐
▁ 틀
▁ 홀
▁ 웍스
검 사를
공 유
대 는
란 드
로 도
모 델
미 디어
봐 야
억 달러
장 비
졌 다는
줘 야
지 에서
체 제
최 대
▁이 벤
▁이 밖에
▁기 숙
▁지 표
▁시 리
▁시 에도
▁한 샘
▁정 해진
▁" 최근
▁' 아빠
▁그 만큼
▁말 이
▁확산 되면서
▁현 상
▁마 주
▁근 처
▁집 으로
▁사업 이다.
▁운영 할
▁점 이다.
▁체 험
▁임직원 들이
▁관리 하는
▁직장인 의
▁했 지만
▁잘 못
▁급여 가
▁근로자 들이
.2 %로
(2 4
▁16 만
▁하나 투어
▁비상 상황
서비스 를
▁방문 해
▁돌입 한
▁연차 휴가
▁꼽 힌다.
▁필요하 다는
▁떠 나
▁입장 이다.
▁리더 십
하이 닉
▁롯데면세 점은
▁덕 분에
프로 그램
▁일자 리를
▁인공지능 (AI
▁헬 스
( 상
1 회
P S
P 모
v er
▁ 억
▁ 찬
관 ,
구 가
나 마
도 우
됐 던
머 니
미 나
받 아
세 로
시 스
예 방
우 리는
웨 덴
증 을
촬 영
했 으나
흡 기
▁사 장은
▁지 장이
▁시 점
▁“ 최근
▁방 해
▁다 중
▁주 지
▁하 거나
▁고 충
▁개 설
▁여 름
▁강 화를
▁의 결
▁장 시간
센터 ,
▁차 이
▁대한 항공
▁8 3
▁8 5
▁8 만
▁필요 할
▁정부 서울
▁중소 ·
▁지역 에서
▁역 대
▁과 장
000 만
000 억원
▁산 정
▁회의 에서
▁중소기업 을
▁강화 하는
▁조사 에
▁구축 할
▁삼성 SDS
(1 6
(2 6
▁SK텔레콤 ,
▁상담 원
▁느 낀
▁이전 보다
▁이달 부터
▁단계 적으로
▁D B
▁모습 이다.
▁돈 을
▁넷 플
▁연속 성을
▁개정안 은
사항 을
▁얘기 다.
▁악성 코
▁아모레 퍼시픽
i c
i g
▁ g
▁ 훌
기 존
내 는
대 기업
된 다는
로 의
리 ,
문 서
시 차
실 ,
여 명이
우 고
자 금
재 인
지 수
지 의
했 는데,
▁것 처럼
▁업 데이트
▁정 비
▁경 계가
▁근무 와
▁비 효율
▁원 으로
▁받 으면서
▁집 합
▁집 에서도
▁선 진
▁남 아
▁재 무
▁무 선
▁실시 하기로
▁점 은
▁지역 으로
▁카 드
▁못 했다.
▁회의 가
▁30 만
▁안전 과
▁급여 는
▁19 9
▁목 적
▁조직 의
업계 는
▁분석 이다.
▁이하 의
▁용 이
▁환 자
▁지금 은
▁권장 하고
▁항 상
▁본격 적으로
▁외국 인
▁밀접 접촉
▁프리 미
▁챙 겨
▁연말 까지
▁J P모
▁Q .
▁적절 한
▁급격 히
▁신동 빈
( 월
~ 1
· 여
▁ 까
▁ 맨
▁ 춘
개 로
다 '는
보 가
비 는
삼 성
셧 다운
애 틀
인 치
일 수록
장 애
층 을
트 는
해 ,
향 후
회 는
▁기 부
▁1 ∼
▁일 찍
▁한 은
▁위 탁
▁공 정
▁모 이는
▁생 존
▁사용 하면
▁예 술
▁높 게
▁경우 에도
▁도입 ,
▁이상 인
▁7 월부터
▁확대 한다.
▁줄 이
▁저 희
▁저 출생
만원 의
▁역 량을
▁전환 한
▁회의 ,
▁했 고,
▁답 답
▁가족 의
▁총 괄
▁안전 하고
▁근로자 에게
▁목 적으로
▁이유 가
▁지속 적인
▁제품 은
▁인력 이
▁권고 하고
▁홍 남기
▁내년 부터
▁장려 금을
▁D aaS
30 분
▁취업 규칙
(W SJ
▁불가피 하게
▁소개 했다.
▁신속 하게
▁강남 구
▁넥슨 은
▁마찬가지 로
▁기초 생활
▁전염 병
' 과
3 5
8 9
r o
u re
▁ 루
▁ 좁
▁ 털
▁ ch
같 이
관 을
기 정
대 구
리 한
사 원
사 장은
시 를
유 의
자 원
장 과
장 기
지 않
포 츠
형 수
▁사 상
▁1 월부터
▁전 격
▁일 선
▁일 상이
▁중 간
▁한 계가
▁주 가
▁주 간
▁하 지만,
▁하 기로
▁나 눔
▁유 동
▁실 업
▁발 령
▁발 송
▁대상 을
▁스 피
센터 에서
▁단 점
▁사업 에
▁재 해
▁증가 할
▁들 여
▁제도 의
▁발생 하고
▁솔루션 은
▁프 랑
▁신청 이
▁모두 에게
▁고객 사
▁가족 과
▁투 명
▁속 도를
▁형 성
.4 %),
▁사업장 을
.7 %로
▁규모 는
▁타 격을
▁선정 됐다.
▁급증 하고
▁독 립
▁지시 를
▁시범 운영
▁목표 로
▁미래 에
▁담당 하는
사무 소
▁지방 자치단체
경영자 총
▁키우 고
▁원칙 적으로
▁즐 길
▁적합 한
▁분위 기를
시큐 리티
▁반려 동
▁월스트리트저널 (WSJ
' 도
^ ^
m o
· 육아
▁ 척
공 백
구 매
놓 고
대 의
드 가
렉 스
마 저
실 과
웨 이
인 재
취 업
해 보
▁수 상
▁시 키
▁2 시간
▁2 일까지
▁전 수
▁전 부터
▁보 급
▁코로나19 (신종
▁육아 에
▁부 부가
▁최 형
▁조 성을
▁나 아가
▁구 애
▁도 전
▁실 무
▁확산 하고
▁마 이
▁결 재
▁결 정을
▁6 개
▁불 러
에게 도
▁서비스 다.
▁출근 한
▁출근 해
▁좋 고
▁때문 입니다.
▁SK 하이닉
▁임직원 들에게
▁관리 ,
▁방식 은
▁아니 면
하면서 도
▁디 바이스
▁공간 의
▁필수 적인
▁플 로우
▁향 상을
(2 5
▁손 해
▁막 고
▁인력 의
▁수도권 을
▁소통 이
▁태 스크포
▁자신 이
▁범 위를
▁W ork
▁남녀 고용평등법
▁반응 을
▁넷마블 은
▁취지 다.
▁최우선 으로
▁보좌 진
8 8
E C
M S
i fe
▁ v
가 ,
가 사
가 치
감 도
곳 은
느 라
방 향
성 보호
씨 가
에 스
여 명
포 털
화 한
▁대 선
▁대 안
▁수 면
▁시 ·
에서 만
에서 다.
▁제 고
▁코로나19 와
▁근무 제를
▁주 력
▁조 짐
▁않 고,
▁해 고
▁강 소기업
▁노 하우
▁확진 ...
▁6 7
▁6 시
▁감염 에
▁매 체
▁8 시
▁같 아
▁10 곳
▁입 법
▁초 반
▁못 해
▁대기업 과
▁예정 "이라고
▁총 리는
▁수요 기업
▁식 사를
▁않는 다는
▁사업장 에서
▁전망 이
▁만족 도를
▁감소 한
▁보도 에
▁제조 업체
▁장점 이
▁차지 하는
▁불편 을
▁반영 한
▁공개 했다.
▁외국 계
▁어디서 든
▁밖 에서
▁이루 어
▁간편 하게
장려 금
▁델 타
경영자총 협회
▁ 쿡
▁ 됩니다.
건 으로
구 성
다 시
드 ,
만 에
복 합
분 이
사 내
역 을
일 ,
종 합
퍼 니
하 되
하 자는
행 사
행 을
▁지 연
▁시 중
▁가 고
▁가 량
▁정 한
▁공 지를
▁경 총
▁근무 방식
▁" 전
▁비 정규직
▁나 쁘
▁해 커
▁발 휘
▁어 쩔
▁강 한
▁사용 자의
▁20 일까지
▁만 약
▁바 꾼
▁특 성을
▁직장 을
▁직장 에서
▁반 환
▁확대 에
▁데 이
▁휴 원
▁아니 냐
▁대기업 이
▁응답 한
(1 3
▁교육 ,
▁속 도가
.8 %로
(3 2
▁완 벽
(2 3
▁인사 혁신
▁느 낄
▁정도 가
▁영향 이
▁만큼 ,
▁대부분 이
▁드 라이브
▁판단 했다.
▁부문 에서
▁"코로나19 로
▁이유로 는
▁책임 을
▁목표 를
▁행복 한
▁장애 인
▁택 배
▁R &D
▁얼굴 을
▁최소한 의
▁와이 파이
어린 이집
▁쾌 적
· 이
▁ 걷
▁ 굉
▁ 냉
과 는
관 에
나 가
남 녀
네 트워크
든 지
등 포
방 안을
법 상
좋 은
한 테
▁기 자가
▁지 점
▁것 ”
▁일 각
▁보 지
▁보 통
▁위 주로
▁기업 은행
▁" 아
▁다 가
▁비 자
00 명을
▁연 휴
▁생 길
▁안 에서
▁사용 해
▁미 친
▁회사 와
▁영 어
▁적 이
▁도입 에
▁스 웨덴
▁가능 하게
▁본 인이
▁확대 될
▁복 잡
▁10 인
▁김 모
▁임직원 들은
▁종 업
▁I P
▁회의 나
▁청 구
▁파 견
▁법 무
▁출퇴근 하는
▁학 부모
▁리 스크
▁기술 이
▁언 론
▁충 격
▁질 환
▁접속 이
▁공유 할
▁자유 롭
▁14 일부터
▁설치 해
▁기대 하고
▁나오 지
▁상태 를
▁꼽 혔다.
▁“재택근무 를
시키 기
▁경쟁 력을
▁항 목
▁컨설팅 을
▁고용노동부 에
▁개학 이
▁근무환경 을
▁요청 했다.
▁이메 일을
▁유급 휴가를
▁그래 도
▁많았 고,
▁현대모비스 는
▁중기 부는
▁솔 직
자산 운용
▁워킹 맘
▁굉 장
( -
n y
▁ i
▁ ■
▁ 든
▁ 뽑
▁ 줬
▁ 촬영
개 국
경 북
나 갈
널 리
사 례
우 스
이 든
있 다.
중 인
지 배구조
체 크
췄 다.
트 가
편 집
하 다”며
현 실
▁1 억
▁시 애틀
▁제 2
▁‘ 주
▁주 제로
▁고 도
▁연 합뉴스
▁않 습니다.
▁없 다"고
▁말 을
▁5 만
▁의 향이
▁계 산
▁계 정
▁미 치는
▁동 아
▁밝 혀
▁결 제
▁6 8
▁불 법
▁본 다.
▁재 량
▁운영 해
▁환경 과
▁데 다
▁휴 무
▁휴 식을
만원 에서
▁규 칙
▁했 다”고
▁수준 에
▁적용 하는
▁PC 와
▁본사 에서
▁일본 에서
▁워라밸 이
▁KT ,
▁업계 는
▁비상 대책
▁우리 가
▁높아 졌다.
▁300 명
▁받아 야
▁없어 서
▁어렵 다.
▁상승 했다.
▁현실 적으로
▁부여 하는
▁j h
▁전반 적으로
▁존 중
▁스트레스 를
▁2단계 로
▁갑 질
▁갑 자기
▁아마존 은
▁이야 기를
▁강원 도
▁아이디어 를
▁중소· 벤처기업
3 명
4 명
▁ 술
로 서
물 이
사 장
었 습니다.
자 율
저 출산
정 도
통 계
해 졌
화 하는
▁재택근무 자의
▁기 재
▁사 적
▁2 천
▁직 군
▁것 입니다.
▁일 일
▁한 층
▁보 기
▁위 축
▁‘ 3
▁고 양
▁연 방
▁그 에
▁않 기
▁5 개
▁문 재인
▁것으로 ,
▁영 등포
▁6 만
▁경우 에
▁직장 에
▁발생 으로
▁간 부
▁입 을
▁명 시
▁이번 주
▁대표 적이다.
▁구축 하는
▁총 리
▁속 에
▁추진 하는
▁개발 자
.1 %로
▁합 계
▁만들 고
▁만들 기
▁컨 퍼런스
▁잡 을
▁금지 하고
▁최소화 할
▁키 워
▁안정 적으로
▁야 놀
▁보면 ,
▁그룹 웨어
공간 을
▁부분 을
기간 을
▁상당 수
▁대통령 은
▁자료 에
▁육 박
▁'워라밸 '
▁임대 료
▁단순 히
▁풍 경
▁엔씨소프트 는
▁획 득
▁저렴 한
▁중앙재난안전 대책본부
▁발맞 춰
▁칸 막
▁웍스 모바일
▁기초생활 수급
' 이라는
( F
7 7
S E
b us
· 사회
▁ l
▁ 맘
▁ 쟁
▁ 흥
▁ 냈다.
꼰 대
드 러
랜 서
비 나
시 험
심 은
용 품
일 보
일 의
제 조
조 는
조 를
한 다"며
해 주
했 다가
호 선
호 텔
▁한 계
▁한 다
▁기업 체
▁기업 들을
▁상 생
▁아 기
▁“ 지난
▁부 천
▁근무 혁신
▁" 업무
▁다 자녀
▁내 는
▁모 범
▁소 식
▁4 00만원
▁말 씀
▁생 계
▁많 고
▁동 선
▁동 의를
▁밝 히
▁결 합
▁출근 이
▁9 1
▁입 학
▁크 지
▁부서 장
▁중요 하다.
▁쓰 지
▁생활 을
▁있으 니
▁접속 을
▁구글 ,
▁분석 된다.
▁접촉 자
▁분위기 다.
▁효과 적으로
하거나 ,
▁음 악
▁전자 결재
▁보호 를
▁보험 료
▁긍정 적으로
▁팬데믹 (
▁양립 을
감독 규정
▁나선 다.
en t
▁당연 히
고용노동 청
52 시간
▁궁 금
▁최악 의
▁프리미 엄
bus an
) 까지
· 모바일
▁ =
▁ [
▁ `
각 지
겠 습니다.
계 층
고 속
공 헌
대 학교
드 로
매 일
먼 트
문 에
새 로운
소 에서
쉽 게
인 천
종 일
케 어
▁재택근무 자는
▁재택근무 하도록
▁대 로
▁수 직
▁경 고
▁상 가
▁최 선
▁나 는
▁유 용
▁신 용
▁안 착
▁사용 자는
▁장 비를
▁장 관이
▁근 육
▁단 위
▁올 랐다.
▁7 8
▁사회 에
▁9 7
▁점 유
▁좋 았
▁발생 하면서
▁계획 ”이라고
▁종 로구
▁대응 하고
▁행 동
▁거리두기 에
▁출산 율
▁가족 이
▁커 질
▁폐 지
▁변화 는
▁속 에서도
▁유지 하는
(3 3
▁방침 에
▁손 을
(4 2
▁시대 의
▁2월 부터
▁B 씨는
▁물론 ,
▁면 역
▁방지 에
▁출시 했다.
활동 을
▁전반 에
▁H P
▁인재 를
▁구체 적으로
▁명령 을
▁역학 조사
▁쏟 아
▁산재 보험
▁워라 벨
pen @hankyung.com
www .
mo te
▁굉장 히
( 중
c k
o w
u l
’ ...
▁ 中
▁ 염
▁ ᄏᄏ
경 력
곳 이
된 다”고
류 를
변 화
사 들이
상 이다.
손 해
수 에
스 쿨
우 는
트 로
트 리온
하 지만,
▁수 칙
▁전 액
▁중 시하는
▁정 의
▁공 용
▁근무 하도록
▁" 우리
▁주 주
▁주 차
▁나 름
▁내 일
▁없 습니다.
▁소 멸
▁5 9
▁발 달
▁지원 도
▁확산 된
▁시행 하지
▁미 뤄
▁받 도록
▁영 상을
▁바 꿀
▁남 자
▁차 원
▁성 평등
▁세 금
▁7 2
▁상황 은
▁정부 세종
▁9 일부터
▁변 이
▁사람 도
▁입 력
▁초 ·중
▁관리 에
▁권 리
▁편 하게
▁함께 하는
▁과 도
▁과 정을
▁LG 그룹
▁어려 울
▁물 품
▁콜센터 는
▁대기업 은
▁참 고
▁정보 유출
▁월 평균
▁총 력을
▁보고 를
▁추진 하고
.7 %,
▁하루 를
▁분석 한
▁광 고
▁전년 보다
▁승 인을
▁분산 근무
▁이뤄 지지
▁부분 은
▁상품 을
▁제시 했다.
▁신속 한
▁툴 을
▁배우 자
이즈 미
▁o pen@hankyung.com
▁곧 바로
▁고위험 군
(이 하
▁간접노무 비
▁괴롭 힘
▁최형 진
( U
) '을
1 4
6 명
@ busan
T V
검 사
글 로벌
년 까지
니 얼
되 었
리 테
보 를
세 스
식 으로
예 산
와 는
은 지
전 후
제 의
통 제
펙 스
하 다가
▁이 들의
▁사 장
▁등 교
▁보 맵
▁제 로
▁3 ~4
▁‘ 코로나
▁근무 ,
▁" 지난
▁하 다.
▁고 이즈미
▁모 아
▁국 정
▁바 뀐
▁차 이를
▁올 렸다.
▁정부 와
▁급 등
▁포 털
▁김 효
▁앞 에
▁후 보는
▁시스템 은
▁201 3년
▁전환 할
▁거리두기 ’
▁공무원 의
▁조사 에서
.co.kr )
▁25 0
▁출퇴근 을
▁속 출
▁지속 될
▁우려 도
▁상담 을
▁된 다는
▁누 리
▁높아 진
▁국가 가
▁단계 가
▁코 스
▁출시 한
▁들어갔 습니다.
▁갈 수록
▁필요하 다”고
▁경쟁 력
▁전달 했다.
▁보건 복지
▁보건 당국
▁일·생활 균형
▁성공 적으로
▁원활 하게
▁라이 브
▁편리 하게
▁목소 리
▁롯데지 주는
▁나타나 고
▁방향 으로
▁바람 직
IT X
▁끌어 올
▁컸 다.
시켰 다.
▁다운 로드
▁질병관리 본부
▁정부서울 청사에서
기정 통
@busan .com
' 라는
( P
( 일과
K -
e l
· 소
▁ 류
▁ 숫
▁ 읽
기 획
다 르
리 밍
만 을
본 부는
점 과
키 트
통 합
한 데
현 대
회 식
▁이 승
▁이 원
▁가 중
▁일 한
▁다 하겠다"고
▁나 은
▁실 정
▁소 외
▁감 시
▁감 지
▁5 인
▁생 체
▁안 팎
▁노 마
▁늘 리고
▁스 탠
▁가능 성도
▁매 월
▁사업 장은
▁교 직원
▁평 등
▁포 장
▁체 감
▁좋 지
▁국내 에서
20 1
▁카 톡
▁올해 부터
▁고객 을
▁출산 율은
▁심 화
텔레 워크
▁구성 원이
.8 %,
(3 8
▁이유 를
▁손 쉽게
▁쓰 면
▁연구 소
▁힘 쓰
▁허용 하는
▁비상 이
▁설치 된
▁이전 과
▁기대 된다.
▁중국 의
▁활동 이
▁임산부 와
▁소득 대체
▁3단계 로
▁유치 원
▁70% 가
▁정보통신 기술(I
▁최적 화된
▁프리 랜서
·경 기
▁내놓 은
▁패키 지
▁추구 하는
▁굳 이
▁셀 트리온
▁캡 처
▁효성 ITX
r u
▁ 딸
▁ 뜨
▁ 싫
▁ 옵
▁ 잃
▁ 잭
▁ 푸
계 발
나 요?
는 지
능 력
만 명
미 국
바 이
설 계
안 정
어 가
었 는데
연 장
오 늘
위 치
의 견
인 ,
좌 석
주 와
추 구
하 니
회 ,
▁재택근무 할
▁시 에는
▁다 들
▁주 기
▁' 스마트
▁하 다
▁출 신
▁실 효
▁여 부는
▁확산 과
▁확산 되는
▁의 식
▁20 대
▁집 을
▁추 적
▁가능 할
▁8 2
▁서비스 에
▁복 지를
▁활용 을
▁점 포
▁사람 과
▁초 부터
만원 씩
▁결과 는
▁명 에
▁되 도록
▁지급 하고
▁했 다"고
▁직원들 과
▁강화 한다.
▁수준 인
명이 었다.
▁심 리
▁필수 인력
▁19 일부터
.4 %,
▁밀 폐
▁예방 에
(4 5
업무 를
▁또한 ,
▁업체 는
▁공유 하는
▁지침 이
▁이전 에
▁사례 도
▁성장 할
▁돌아 갈
▁버 스
▁3년 으로
▁"재택근무 를
▁바이러스 가
▁잠 시
▁잠 정
▁가입 자
▁한화 생
▁화면 을
▁'코로나19 '
▁여건 이
▁옮 겨
▁기울 이고
▁“앞으로 도
▁고객상담 센터
▁저출산·고 령사회
4 세
7 5
e w
k m
m a
· 일
▁ 갔
▁ 뿌
▁ 졸
▁ 켜
간 다.
개 정
나 .
단 신도시
당 한
매 체
명 과
민 기자
상 품
연 봉
운 전
입 니다
장 으로
져 서
조 금
지 고,
컴 퍼니
폐 쇄
함 이
해 지는
향 을
회 견
▁대 화를
▁수 령
▁1 .
▁1 .5
▁2 개월
▁상 용
▁“ 전
▁부 탁
▁근무 는
▁근무 의
▁" 현재
▁연 내
▁모 양
▁발 견
▁강 행
▁사용 하지
▁거 치
▁미 디어
▁근 속
▁동 선이
▁바 이오
▁추 이를
▁6 2
▁기자 회견
▁같 다”고
▁세 무
▁할 인
▁좋 음.
▁계획 이라고
▁검 증
라우 저
▁대비 한
▁노동 시장
▁대기업 에
▁일부 는
▁네 ,
▁강화 할
▁공무원 ,
▁파 수
▁적용 된다.
▁결정 한
▁협업 이
▁부서 는
▁11 일까지
▁우려 에
▁아니라 ,
▁낮 았다.
▁질 을
업계 가
(4 4
▁계속 해서
▁허용 했다.
▁산업 혁명
▁금지 했다.
▁이전 부터
▁지적 이다.
▁아빠 가
▁버 전
▁의견 도
▁소프트웨어 를
▁임산부 ,
▁피해 가
위원회 는
▁잠 재
▁공격 이
▁특성 에
▁얻 고
▁분할 사용
(V DI
▁부정 적
▁자기 계발
▁O T
▁수원 시
▁원격접속 을
li fe
▁횟 수를
▁선별 진료
▁최저 임금
▁헌 법
▁눈길 을
▁박정 호
▁김효 신
( 복
+ 3
- C
R M
▁ 꼬
▁ 냈
▁ 쏠
▁ 엇
▁ ...
▁ 첨단
공 업
기 계
됨 .
드 포인트
만 2
받 았다.
번 에
선 수
수 원
수 행
이 ,
이 던
이 상
짜 리
케 이
▁이 것
▁재택근무 "
▁사 각지
▁1 /
▁전 담
▁가 게
▁일 으
▁인 턴
▁3 주
▁부 대
▁' 코로나
▁' 육아휴직
▁' 비대면
▁하 드
▁그 린
▁그 의
▁소 형
▁4 일까지
하기 는
▁원격 수업
▁집 이
▁적 어도
▁우 대
... '
▁정부 원격근무
▁무 조건
▁사회 공헌
▁증가 했다고
▁들 고
▁앞 당
▁지역 별
▁시스템 과
▁시스템 으로
▁계획 "이라고
▁직장인 들
▁과 기정통
▁나타 난
▁절 차를
▁정보 보호
▁대표 가
▁연장 을
▁연장 할
▁강화 에
▁강화 해
▁커 지면서
관리 를
생활 을
▁기능 도
▁곳 도
.3 %가
▁18 세
(4 1
(4 3
▁된 다고
▁에 듀
▁준비 가
▁지적 도
▁/ 사진=
▁위기 경
.0 %),
▁패 턴
▁재확산 으로
▁규정 이
▁제외하고 는
▁편의 성을
▁있음 을
▁빨 라
▁있는데 요.
▁호소 하는
ar k
▁슬 랙
▁살펴 보면
▁초과 근무
▁가이드라인 을
▁잦 은
▁빅 데이터
) 보다
i ce
m s
t n
▁ 센
▁ 융
거 든
곳 의
금 은
나 운
되 도록
들 어
라 마
로 를
만 3
망 과
맥 스
민 간
분 야
상 거래
세 요.
스 터
실 이
약 품
었 다고
이 다
집 중
철 도
판 을
한 다”며
해 튼
화 와
화 해
효 과
▁있 거나
▁한 컴
▁보 전
▁인 용
▁직원 ,
▁자 랑
▁자 부
▁3 주간
▁경 계
▁‘ 이
▁육아 와
▁“ 우리
▁부 회
▁업무 방식
▁" 기업
▁주 1회
▁하 니
▁나 무
▁출 발
▁출 하
▁내 세
▁구 독
▁도 서관
▁여 직원
▁소 진
▁5 00
▁5 년간
▁어 제
▁분 쟁
▁많 지
▁장 치
▁장 점을
시간 으로
▁동 종
▁8 9
▁교 사는
▁필요 성을
▁할 지
▁무 게
▁서울 과
▁평 생
▁제도 도
▁후 지
▁맞 은
▁입 장을
▁배 터
▁방역 에
▁생산 라인
▁대비 하기
▁전환 이
▁회의 는
▁열 화상
▁생각 한다.
▁수요 도
.8 %에
(3 4
(3 7
▁이유 다.
▁예방 하기
▁삼성전 자가
▁현대 ·기
▁에 이
▁인력 은
▁건물 에
▁예상 했다.
▁부산 시
▁개정 안을
▁스트 리밍
▁자제 하고
▁먹 고
▁떠 올
▁실적 을
▁접근 할
▁동료 들과
▁모델 을
▁둘 러
▁원칙 으로
▁질문 에는
▁병행 할
▁충분 한
하이 브리드
▁난 임
▁드러 났다.
▁끝나 도
진흥 원
지방 고용노동청
▁성남 시
▁훌 륭
▁초·중 ·고
( 주)
) .
= 김
? ?
s h
t t
~ 9
▁ ·
▁ 日
▁ 꼴
▁ 년
▁ 앤
게 이트
구 ,
구 의
기 와
더 라
령 을
링 네트
면 적
분 산
사 도
소 음
스 와
여 개
영 기자
인 다.
장 치
중 한
지 교
지 며
층 에
▁수 단
▁1 조
▁1 일까지
▁2 명이
▁전 력
▁일 이다.
▁보 낼
▁정 례
▁3 일부터
▁아 나운
▁부 상
▁근무 지를
▁원 래
▁개 개
▁없 기
▁4 배
▁생 겼
▁강 의를
▁마 무리
▁사용 률은
▁문 자
▁만 성
▁늘 릴
▁확진 판정을
▁6 1
▁감염 자가
▁교 외
▁세 미나
▁건 축
▁좋 겠
▁좋 을
▁줄 고
▁취 득
▁알 파
▁진행 된
▁초 점을
▁처 분
▁방식 에
▁신청 은
▁들어 가는
▁되 기
▁생산 성과
▁아이 들을
▁양 천
▁했 는데
▁예정 인
▁법 제
▁공간 으로
▁본사 가
▁보고 서를
▁중요 하게
(2 1
.6 %,
.3 %로
다면 ,
▁다음 주
업계 도
▁제품 이
▁현대 건설
▁접속 해
▁구글 의
▁비상 대응
▁방문 을
▁B alance
▁로 이터
oo n
산업 단지
▁부분 이
▁아직 도
▁착용 을
▁6월 까지
▁A씨 의
▁의미 다.
▁스트레스 가
▁편의 점
it y
▁경력단절 을
▁카메라 를
▁특화 구역
▁을 지로
▁상업 시설
▁간단 한
▁맨 해튼
▁합계 출산
손해 보험
거든 요.
) ·
1 00
C T)
S L
e e
i d
o l
▁ ᆞ
▁ 왕
감 은
계 열
나 는
나 다
들 로
렀 다.
레 니얼
메 신저
면 접
명 까지
물 품
받 침
분 석
세 권
어 지는
억 원의
여 서
연 합
작 업
진 은
체 험
▁이 르
▁재택근무 자가
▁시 달
▁전 부
▁공 사
▁기업 당
▁경 감
▁경 향이
▁상 사가
▁‘ 그
▁‘ 뉴
▁“ 현재
▁주 시
▁주 4일
▁하 며,
▁나 섰
▁원 고
▁그 나마
▁모 성보호
▁소 정
▁위해 선
▁확산 방
▁원격 제어
▁시행 된다.
시간 에
▁추 납
▁증 상을
▁8 일까지
▁세 일
▁상황 에서도
▁판 정
▁서울 의
▁들 었다.
▁SK 그룹은
▁앞 둔
▁지역 을
▁입 증
만원 까지
▁I M
▁방식 도
▁못 할
▁전환 해
▁전환 하는
▁회의 와
▁콜센터 가
▁정보 보안
▁구축 에
▁출산 을
▁법 원
▁법 정
▁공간 과
▁뒤 에도
.2 %에
an d
(2 2
▁포함 됐다.
▁인사 팀
(4 6
▁건강 한
정보 를
▁공유 하고
▁우리 의
▁정상 적인
▁찾 기
소프트 웨어
▁여부 에
▁엔 터프라이즈
▁시차 출근
▁방법 은
▁정착 을
▁s k
▁먹 는
▁씨 티
▁예산 을
at ion
▁풍 부
▁주문 했다.
(G VPN
▁롯데면세 점
착한 기업
▁소셜 미디어
( H
) '를
2 1년
4 6
ᄒ ᄒ
▁ 뚜
▁ 폴
강 도
경 찰
급 을
놀 로지
됐 다는
디 스크
레 이는
리 면서
백 화점
부 동산
비 와
세 다.
씨 의
영 화
유 통
있 고
주 에
직 을
청 이
최 고
팀 즈
판 매
활 용
▁이 익
▁이 지
▁대 거
▁2 .0
▁가 산
▁것 보다
▁제 3
▁‘ 비대면
▁“ (
▁부 작용
▁신 세계
▁구 청
▁모 호
▁말 하는
▁노 르
▁우 울
▁대상 자는
▁같 다"고
▁사업 이
▁김 민
▁저 소득
▁간 격을
▁거리 를
▁각 국
▁한국 경영자총협회
▁결과 다.
▁전체 가
▁LG 상
▁두 레이
▁물 어
▁개인 별
▁순 간
▁순 다르
▁사내 근로복지
▁부서 에
▁지난달 부터
▁확인 하고
▁손 소독
보험 법
▁규모 를
업체 인
▁사실 이
▁장기화 되면서
▁키 보드
▁분야 의
▁300 만
▁3년 간
▁여러 분
▁부문 은
▁구성원 들의
▁T F
▁컴퓨터 를
▁상승 한
▁넘어 섰다.
▁31 일부터
(6 6
▁특별 한
da y
▁7월 까지
▁라인 플러스
▁2년 까지
투자 증권
▁목소 리를
▁뛰 어난
▁수원 사업장
▁KB 국민
▁아무 래도
▁보유 한
▁겨 냥
▁써 야
▁납 부
▁초등 학생
EC D
▁최형진 :
( 비대면
) ’을
4 5
S B
v e
~ 30
▁ 끈
▁ 맺
▁ 뭔
▁ 봄
▁ se
▁ 갤럭시
감 과
개 사를
공 립
과 장은
관 련
된 다고
률 도
마 자
마 켓
만 한
메 일
면 ,
사 로
소 에
시 행
어 지고
여 건
였 습니다.
이 엠
인 식
자 .
줄 이
중 이다.
짐 에
컨 설팅
플 래
화 했다.
화 하고
▁재택근무 용
▁대 국민
▁수 시
▁시 기에
▁시 점을
▁전 인
▁전 보다
▁일 대
▁제 일
▁근무 하게
▁" (
▁비 싼
▁비 치
▁나 의
▁원 천
▁원 하면
▁신 조
▁신 체
▁그 림
▁내 외
▁않 음
▁오 르
▁확산 할
하기 가
▁마 감
▁마 곡
▁의 자
▁거 듭
▁때 마다
▁미 칠
▁늘 렸다.
▁결 론
▁또 ,
▁사업 부
▁진 입
▁본 인의
▁시간 도
▁올 인원
▁서비스 도
▁외 근
▁무 려
▁관련 ,
▁SK 건설
▁후 속
▁취 재
▁각 광
▁각 자
▁이어 가
▁신청 했다.
▁전환 하고
▁지급 할
▁대표 이
▁청 약
▁삼성 생
▁열 람
▁커 진
▁커 리어
스트 는
▁19 8
사업 체
▁구성 해
▁완 성
▁24 일까지
▁담 았다.
▁글 을
▁참여 한
▁눈 치를
▁호 흡기
▁전망 된다.
▁접속 하는
▁높아 질
▁가정 에서
▁준비 하고
(5 8
컴퓨 팅
▁대체 로
▁메신저 로
▁해결 할
▁대책 이
▁중앙 부처
▁엔 드포인트
▁일주일 간
▁협력 업체
▁친 구
▁씨 의
▁화상 으로
▁전반 적인
▁번째 로
▁맡 길
▁좋아 요
▁층 간
▁창의 적인
▁최적 의
▁영구 적으로
▁사항 을
▁LS 그룹
▁사유 로
▁보고서 에
▁o h
▁탄력 적으로
▁마찬가지 다.
▁움직임 이
추구 협의회
▁엇 갈
( Z
( 사진
( 최대
h n
▁ 꺾
▁ 밑
▁ 탁
▁ 셧다운
갑 질
건 ,
내 부
노 미
다 음
되 거나
모 든
방 식을
부 제
서 치
시 와
여 금
오 전
이 너
졌 습니다.
지 사
프 리
하 루
해 지면서
훈 련
▁재택근무 시
▁재택근무 에서
▁기 억
▁사 정에
▁지 수
▁시 가
▁가 시
▁코로나 에
▁정 세
▁자 격
▁3 일까지
▁“ 지금
▁부 과
▁부 품
▁근무 한다.
▁다 닐
▁' 아
▁조 처
▁원 장은
▁고 립
▁내 일부터
▁모 르는
▁없 고,
▁없 다”며
▁국 경
▁의 왕
▁노 인
▁예 비
시간 은
▁선 발
▁감염 증(
▁도입 된
▁차 관은
▁하는 데,
▁7 6
▁이후 에
▁이후 의
▁증가 로
▁증가 에
▁실시 하고,
▁9 월부터
▁점 진
▁이용 을
▁이용 이
▁이용 자는
▁각 자의
▁알 게
▁이어 가고
▁유연 성을
▁대응 하는
▁편 히
▁자녀 의
▁요 건
▁아니 지만
▁회의 실
▁대기업 들은
▁개인 이
▁작 동
▁15 0만
▁마련 할
▁근로자 를
.2 %,
▁구성 원을
▁11 번
▁개발 해
▁선택 하는
▁담 긴
▁충 남
▁업계 의
▁고려 하면
▁번 갈
문화 가
▁허용 할
▁분석 이
▁비상 경제
▁23 일부터
▁정상 화
▁높아 지는
본부 장은
▁돌봄 이
▁판매 가
▁야 간
▁“코로나19 가
▁처리 하는
▁필요하 다"고
▁의미 를
▁달라 진
▁포스코 가
▁극복 을
▁지방 공무원
▁입장 에서
사진 제공=
▁밖 에도
스( TF
▁‘워라밸 ’
▁아무 리
▁바꾸 는
▁명확 한
▁명확 히
▁다수 의
▁업무환경 을
▁괜찮 은
▁감염증 )
▁멀 티
▁다녀 온
▁잡코리아 가
▁자발 적으로
▁전자금융 감독규정
▁곤 란
▁찬 성
e mote
f f
o t
y tn
” 며
▁ 샤
▁ 옥
▁ 틈
▁ 니다.
▁ 친화
권 의
급 이
라 면서
리 바
립 니다.
받 는다.
보 너스
소 비
소 한
시 장은
신 이
안 에
에 너지
우 한
위 생
장 도
주 ,
지 구
큐 브
킴 벌
학 습
한 킴벌
해 진다.
해 달라
희 롱
희 기자
▁사 립
▁지 주
▁수 석
▁1 개
▁일 도
▁인 지
▁“ 기업
▁최 장
▁' 3
▁' 심각
▁조 달
▁나 아
▁육아휴직 의
▁내 근
▁통 증
▁도 는
▁실 패
▁없 다
▁지원 받을
▁어 깨
▁안 보고
▁마 인
▁원격 회의
▁거 제
▁노 래
▁분 기
▁동 영상
▁바 꿨
▁사무 용
▁대상 에
▁단 기
▁운 전
▁출근 ,
▁출근 해야
▁7 7
▁돌 려
▁무 인
▁활용 하도록
▁제공 하기
▁김 경
▁김 수
▁시스템 의
▁신종 코로나
▁검 단신도시
▁요 인
▁미국 과
▁시작 해
▁예정 입니다.
▁출산 전후
▁K -
관리 ,
▁15 %
사업 부
▁평가 다.
제도 가
.1 %,
.1 %에
▁포함 된
▁세계 에서
▁인사 관리
▁KT 가
▁조직 문화를
▁애 니
▁정책 에
들에게 는
▁절반 으로
▁자유 로움
yu n
▁네이버 ,
▁떨어 질
▁예상 되는
▁해결 하기
▁전자 상거래
▁중앙 방역
▁고민 하고
▁G C
▁부문 의
▁머 무는
위원회 를
▁폭 으로
▁40 대
▁요구 하는
▁웹 사이트
▁입장 에서는
▁시설 을
▁쉬 는
▁편리 한
▁부정 적인
▁끌 고
▁제주 항공
▁고령 자
중앙 화
▁사업주 가
▁사업주 에게
▁혹 시
▁실태 조사
▁징 계
과학 기술
▁윈 도우
▁"앞으로 도
▁과학기술 정보통신
▁가상사설망(VPN )
▁마이크로소프트(M S
▁인공지능(AI )
▁태스크포 스(TF
▁정보통신기술(I CT)
▁현대·기 아차
9 5
O O
U +
e a
p s
▁ ,
▁ 넣
▁ 떡
▁ 짓
▁ 컬
▁ 펜
▁ 꼰대
▁ 링네트
가 의
가 입
가 포
공 제
구 나
국 제
권 에
금 이
되 던
되 더라도
반 기에
스 에
실 한
양 립
이 지를
임 대
적 이지
전 력
청 년
측 은
치 료
특 별
하 시
했 거나
▁수 백
▁1 호
▁전 원이
▁일 하면
▁일 종의
▁한 글
▁보 면서
▁자 사의
▁공 실
▁기업 문화를
▁‘ 홈
▁아 끼
▁주 중
▁관 측
▁조 용
▁연 일
▁소 음
▁발 행
▁확산 하는
▁의 존
▁의 해
▁의 혹
▁20 만
▁받 기
▁적 었다.
▁남 은
▁특 파
▁올 랐
▁필요 로
▁서비스 업
▁환경 의
▁원격근무 로
▁활용 하면
▁제공 된다.
▁김 현
▁입 고
▁초 래
▁신청 해야
▁과 제가
은행 ,
▁LG 그룹은
▁회의 에
▁있어 서다.
▁파 이
▁기준 이
▁마련 에
▁마련 됐다.
사업 을
▁팀 장은
제도 는
▁SK텔레콤 과
▁100 만
▁착 신
▁고려 할
▁오피스 텔
▁빠 져
▁호 응
▁성과 가
▁규모 로
▁업체 에
▁비용 이
▁절반 씩
▁방문 객
▁이하 로
(5 0
oo m
▁대면 회의
▁앞으로 는
▁연결 하는
▁기본 적인
레이 드
▁이뤄 지고
▁유연근무제 가
▁구성원 들이
달러 (약
▁뉴욕 타임
ye ong
▁풀 어
▁농 협
▁잇따 르고
▁쉬 운
▁의사 결정
▁실험 을
▁메시 지를
▁중기 부
▁자연 스럽게
▁바란 다"고
▁니 혼
▁휴대 전화
▁모르 겠
▁편안 한
▁LG디 스플레이
▁일ᆞ 생활
▁쿠팡 은
▁척 추
펙스 추구협의회
( K
· 보안
▁ 낯
▁ 섞
▁ 펄
▁ 힐
가 에
검 토
고 령
국 ,
까 요?
라 리
빌 리지
사 랑
소 연
스 토
시 터
예 술
위 드
일 리
졌 다고
중 견기업
코 노미
트 라
트 윈타워
협 의
후 군
▁이 래
▁재택근무 '
▁재택근무 ’
▁수 업을
▁시 상
▁2 일부터
▁전 까지
▁직 전
▁정 하고
▁자 본
▁자 치
▁3 분기
▁‘ 전
▁아 버
▁" 원격근무
▁비 조치
▁원 ,
▁서 관
▁서 형수
▁않 음.
▁임 차
▁발 간
▁어 머니
▁현 금
▁시행 으로
▁20 %를
▁받 으
▁집 값
▁6 일부터
▁불 리는
▁성 희롱
▁8 일부터
▁진 료
▁직장 갑질
▁재 구매
▁확대 ,
▁확대 되고
▁환경 으로
▁서울 ·경기
▁원격근무 는
▁보안 솔루션
▁증가 하면서
▁9 5
▁체 계가
▁지난해 부터
▁앞 에서
▁제도 로
▁진행 됐다.
▁행 위
▁되 길
▁지급 한
▁지급 해야
▁물 리
▁콜센터 의
▁다양 하게
▁고객 이
▁열 악
▁감염증(코로나19) 의
▁생각 해
▁리 포트
▁세계 적인
▁생활 이
▁정책 이
▁다음 으로
▁삼성전 자,
▁타 고
▁에 너
▁절반 은
▁노트북 ,
▁제한 하고
▁17 개
▁인프라 가
▁토 스
▁아빠 는
▁떨어 지는
▁노력 하겠다"고
▁행정 안전
▁긴급 사태
▁조정 할
▁공격 을
▁차단 을
▁블 루
가족 친화
▁한화 그룹
▁반영 해
▁힘들 어
▁지정 된
▁차별 을
▁끊 임
▁당국 은
▁봐 야
▁변호 사
▁확실 히
▁웨 비나
▁IB M
▁로그 인
▁방역수 칙
▁인건 비
경력 단절
▁김효신 :
( L
( 가상
1 명
2 명
D P
E R
L D
h w
t er
· 전
게 이자
득 이
른 다.
메 시
메 이션
모 두
무 를
문 이
스 페이스
실 장은
심 이
액 도
요 ,
우 수
움 을
자 다.
제 ’를
지 어
청 ,
▁이 게
▁이 모
▁이 씨
▁기 혼
▁수 렴
▁시 절
▁인 권
▁3 천
▁‘ 포스트
▁“ 향후
▁" 정부
▁주 52시간
▁' 한
▁원 의
▁원 할
▁고 통
▁그 것
▁그 럼
▁구 로
▁도 모
▁않 다고
▁5 7
▁발 병
▁어 떠
▁마 사
▁마 치고
▁원격 업무
▁거 론
▁20 30
▁회사 원
▁영 양
▁적 어
환경 을
▁경우 를
▁스 토
▁대한 상공회의소
▁사업 체
▁진 출
러스 트
▁서비스 의
▁7 1
▁돌 볼
▁제공 한
▁김 용
▁줄 줄이
▁사람 만
▁간 주
▁임직원 과
▁알 림
▁종 이
▁종 일
▁이어 갈
▁이어 지는
▁클 래
▁노동 부는
▁두 드러
▁구축 했다.
▁월 요일
노동 자
▁출산 과
▁법 인
▁수요 에
▁급여 도
▁변화 와
.9 %였다.
▁개선 에
▁확진자 로
▁고려 하고
▁대구 지역
▁규모 별로
▁시대 가
▁타 입
▁방안 이
▁임신 ·출산
▁E &
▁인력 에
▁별 다른
▁선정 해
▁준비 를
▁로 봇
▁아빠 의
▁자체 를
▁급증 한
▁페이스북 ,
▁해외 에서
▁자동 화
▁잠 실
▁시범 적으로
▁중단 하고
▁분리 해
▁언제 든
▁육아휴직급여 는
(6 2
▁소득 이
▁유출 을
00여 명
▁W SJ
▁전략 을
▁입주 한
▁갖춰 져
▁빈 집
▁구미 사업장
▁바란 다”고
▁단말 기
▁교대 근무
▁가족돌봄 휴가
29 7
홈쇼핑 은
▁뒷 받침
▁훈 시
▁구애 받지
▁동아 닷컴
-C loud
▁아나운 서
( 코로나19)
* *
/ /
2 3
2 B
8 5
: //
I E
S ,
a ct
u m
· 4
· LG
▁ 꼼
▁ 며
▁ 빛
▁ 턱
▁ 펴
경 험
님 이
됐 지만
두 로
루 는
리 며
보 장
스 레
안 이
엔 지니어
용 으로
위 원은
장 학
제 약
지 속
직 은
차 가
청 에
체 제를
취 재
해 를
▁기 아차
▁1 .0
▁2 층
▁일 괄
▁중 "이라고
▁인 적
▁인 기가
▁위 기가
▁업 그
▁자 문
▁공 통
▁공 항
▁기업 ,
▁아 쉬
▁부 장
▁다 이
▁비 전
▁최 태원
▁주 한
▁주 가가
▁' 업무
▁나 설
▁나 서는
▁유 발
▁구 비
▁없 지만
▁임 의
▁생 방송
▁지원 하기로
▁마 친
▁노 사가
▁20 일부터
▁장 단
▁회사 도
▁차 등
▁단 ,
▁8 6
▁같 습니다.
▁통해 서
▁교 대로
▁외 교
▁10 개
▁10 분
▁체 류
▁김 성
▁김 씨는
▁지난해 에는
▁사람 들의
▁간 소
▁계획 입니다.
▁한국 가스
▁검 체
▁신청 하는
▁권 리를
▁편 이다.
▁행 사는
▁되 었
은행 과
.5 %가
▁지급 을
▁콜센터 에
▁대기업 들이
▁프로 모
▁디 스플레이
▁파 격
▁구축 이
▁응답 자는
▁25 일까지
▁적용 한다.
▁일본 은
▁장기 간
▁추진 할
▁사업장 이
.6 %에
▁내용 이다.
▁KT 도
▁합 산
▁합 리적인
▁업체 인
▁긴 밀
er o
▁누 군
▁찾 고
▁투자 하는
▁효과 적인
▁최소화 하는
시설 을
▁나오 면서
▁202 1
(5 5
▁보인 다"고
▁예상 치
억원 ,
▁판매 량이
▁보호 하기
▁사옥 을
▁임금 이
▁됐 다"고
▁표 시
▁이뤄 질
▁방법 으로
▁지시 가
▁현실 화
▁폭 넓
▁보험 사
▁가구 의
▁씨 가
▁가능하 다고
▁철저 하게
▁맡 은
▁모임 을
▁인근 에
▁하겠 다고
000여 명
▁설문조사 에서
▁오늘 부터
▁프로젝트 를
▁호소 했다.
▁녹 취
▁영업이익 은
직장 인
▁주민 등록
▁면접 수당
▁티 맥스
▁2022년 부터
▁불만 이
▁블룸버그 는
▁금융당국 은
▁y ou
▁국방 부
▁엘 리
(상 한
▁나쁘 지
▁나무 기술
가포 르
게이자 이
( 전
5 일
9 0
A G
C P
G B
N K
n am
w C
~ 오후
· 주
· 생활
’ 이라고
▁ 낭
▁ 쉴
▁ 웰
▁ 뱅크
▁ and
경 기
국 장은
기 반
기 금을
단 의
동 조합
드 에
러 나
러 다
력 과
마 이
망 이
바 이오
밖 에도
발 적
법 에
상 도
상 에
수 로
스 테
신 을
실 로
운 동
유 지
정 부는
제 '를
중 국
출 장
컨 대
해 요
현 황
호 를
호 기자
▁이 준
▁이 르는
▁수 영
▁1 주
▁시 기를
▁전 월
▁가 정을
▁제 1
▁제 이
▁제 재
▁“ ‘
▁다 우
▁다 하겠다”고
▁관 점에서
▁조 합
▁유 증상
▁따 뜻
▁서 면
▁구 는
▁여 겨
▁소 방
적으로 는
▁마 을
▁노 린
▁시행 된
▁시행 해왔다.
▁바 닥
▁높 고
▁매 각
▁교 류
▁교 체
▁올 린
▁확대 로
▁달 에
▁달 부터
▁무 슨
▁서울 ,
▁실시 해
▁제도 적
▁솔루션 과
▁취 할
▁프 레
▁시스템 도
▁워 케이션
▁이어 지면서
하면 ,
▁금융 투자
▁생산 하는
▁설명 했습니다.
▁노동 시간
▁LG 트윈타워
▁시작 한다.
▁중소기업 중앙
▁청 주
▁연장 한다.
▁공무원 들이
▁구축 하고
이스 팅
▁클라우드 를
▁출퇴근 에
▁문제 에
▁본사 에
▁보고 서는
▁유지 하기로
(3 1
▁곳 으로
▁추진 된다.
▁막 는
▁정도 의
▁전국 적으로
▁제한 이
▁잡 아
▁이미 지
▁현장 의
근로 시간
▁공공기관 은
▁자체 적으로
▁돌아 오
▁메신저 를
▁치 열
들과 의
▁브 라우저
▁줄어 드는
▁"재택근무 가
▁“재택근무 가
▁기회 로
▁이뤄 지는
▁위기 상황
▁노동자 들의
▁전화 로
▁몰 려
달러 로
▁차질 을
▁파악 됐다.
▁않을 까
▁동참 하고
▁서버 에
▁3분의 1
▁반응 이
▁의무화 했다.
▁라이 선
세계 적
▁골 라
▁뜻 이다.
▁편리 하고
▁뉴스 룸
거리 두기
▁시차출퇴근 제
▁CN N
재단 은
▁88 .4%가
▁헤 드
▁헤 이스팅
▁간담 회
▁통계청 이
▁재판 부는
▁강릉 시
▁기저질환 자
▁좁 은
▁스피 커
▁노마 드
▁모양 새
▁하드 웨어
▁뚜 렷
) ’를
, 000
7 2
? ...
H ome
· 수
· 관리
· 돌봄
· 공공기관
▁ .
▁ r
▁ 컴
▁ 텅
▁ 들이
▁ on
▁ 컴퓨팅
거 운
근 태
끄 는
단 은
동 료
됐 고,
드 린
란 지교
림 픽
베 이터
부 로
비 아
소 ,
시 대
심 사
재 판
정 상
직 자
진 을
진 이
차 례
참 여
카 드는
통 상
판 교
표 준
▁이 광
▁이 밖에도
▁기 침
▁지 능
▁시 내
▁가 스
▁기업 들에
▁아 닐
▁“ 다
▁부 각
▁근무 하던
▁" 집
▁" 특히
▁조 건을
▁유 료
▁유 리
기업 으로
▁없 게
▁없 다"며
▁4 00
▁5 %
▁안 타
▁거 세
▁분 담
▁때 가
▁추 이에
▁대상 자
▁스 튜
▁증 설
... “
▁단 지는
▁8 1
▁기자 입니다.
▁필요 시
▁세 워
▁환경 에서도
▁좋 습니다.
▁거리 가
▁프 린
▁입 국
▁입 은
▁배 울
▁방역 지침
▁권 유
▁아이 들이
은행 도
▁공무원 을
기관 의
▁열 리는
▁적용 한
▁PC ,
▁플 랜
▁기능 과
▁곳 곳에서
▁중요 하다고
▁기술 과
▁담 배
.3 %,
.7 %에
▁착 수
▁번 에
▁다음 날
▁걸 렸다.
▁잡 고
▁대부분 은
▁기록 한
▁성장 세를
▁이동 을
▁판단 이
▁치 료를
▁0 세
▁자리 에서
▁연결 된
▁고민 을
▁50 대
▁됐 다"며
▁노동자 들이
▁네트워크 를
▁넘어 선
▁사이버 보험
▁콘 퍼런스
▁상대 방
▁출장 ,
▁마음 이
▁받았 다고
▁밀집 도
코리아 는
▁자가격 리를
▁보건 소
▁성공 적인
인데 요.
▁H R
▁진단 검사를
▁홈페이지 에서
▁느끼 고
▁매뉴얼 을
스플 레이는
▁맛 있
▁지키 기
▁기여 할
▁부총 리
·· ·
(Work -
(R &D
▁급속 히
데스크 톱
▁홀 로
▁이벤 트
▁선진 국
▁털 어
▁종업 원
▁팬데믹( 세계적
선수 범
▁후지 쓰
플래 닛
▁니혼 게이자이
( 앱
7 명
@ ytn
A S
E SG
P )
R )
· 2
· 휴
· 운영
가 요?
갔 다.
건 의
금 지
네 이버
들 ,
들 이다.
때 문에
마 을
명 섭
목 을
미 칼
밀 리
법 은
비 에
시 각
아 한
였 고,
위 험
점 )
정 은
지 상
질 의
퀘 어
크 루
▁이 통
▁사 회의
▁대 민
▁지 지
▁가 깝
▁일 생활균형
▁한 창
▁정 서
▁자 칫
▁공 연
▁공 영
▁3 교대
▁상 사의
▁아 베
▁부 재
▁" 어
▁방 산
▁주 된
▁' 그
▁조 로
▁조 심
▁나 빠
▁원 씩
▁원 인
▁유 흥
▁그 리
▁내 내
▁여 론
▁소 리
▁4 시간
▁안 면
▁사용 했다.
▁많 음.
▁증 대
▁근로 복지
▁금 전
▁서비스 와
▁출근 과
▁확대 하기로
▁운영 한다고
▁외 주
라인 웍스
▁급 감
▁보안 에
▁9 시부터
▁점 수를
▁좋 다
▁저 조
▁사람 들을
▁간 격
▁취 하고
▁진행 되고
▁I DC
▁△ 재택근무
▁방역 과
▁편 한
▁되 고,
▁대비 하고
▁아이 와
.5 %에
.5 %는
▁했 지만,
▁강화 한
▁투 자가
▁심 지어
▁마련 하고
▁급여 ,
▁부서 가
▁민 감한
▁복지 ,
▁복지 포인트
▁고려 하지
▁하나 가
▁광 역
▁영업 을
▁전국 의
서비스 (GVPN
▁정상 출근
▁B NK
▁토 크
▁이전 의
▁현장 에
▁네이버 와
▁장기화 하면서
▁판단 에
▁분야 에
▁노력 이
▁300 만원
▁위치 해
▁중앙 대책본부
▁21 일부터
▁채용 을
▁받아 들
▁나눠 서
▁소프트웨어 (S
▁됐 다고
▁200 만
▁LG유플러스 도
▁소비 자가
▁인구 가
▁취업 포털
▁먹 을
▁규정 하고
▁보험 료를
▁장점 으로
▁불과 하다.
▁31 일까지
▁근무자 들의
▁늘었 다고
▁얻 을
▁80% 를
▁유급 휴가
▁늦 게
▁1주일 에
▁퍼 블
▁압 도
▁캐 나다
▁잦 아
▁체온 을
스타 트업
▁솔 선수범
▁블룸버그 통신
▁똑 같이
▁보수 적인
▁실질 적인
▁감안 해
대학 원
▁이탈 리아
▁자영업 자
== ==
▁이끌 어
▁협업도 구
▁한은 은
▁미래에 셋
▁면역 력이
▁특파 원
/ 사진=
3 명으로
@ Home
H IE
o k
s u
▁ X
▁ 깜
▁ 던
▁ 엉
▁ 옷
▁ ye
격 탄
과 정
년 을
대 행
도 도
도 의
되 기도
된 다"고
량 도
료 는
미 래
배 달
배 치
보 기
성 적
성 평등
시 민
액 의
양 육
업 ,
장 에서
재 생
적 일
조 가
조 사업체
죠 ?
초 등학교
카 이
했 다면
호 사
▁이 천
▁재택근무 제도
▁대 인
▁지 내
▁지 양
▁지 란지교
▁수 십
▁수 정
▁수 펙스추구협의회
▁전 북
▁전 원을
▁등 )
▁일 어
▁일 상을
▁중 시
▁중 이라고
▁한 산
▁인 생
▁상 무는
▁아 들
▁“ 올해
▁업무 수행
▁" 비대면
▁방 어
▁' 제
▁하 라고
▁출 범
▁유 한킴벌
▁서 재
▁신 제품
▁그 쳤
▁구 제
▁해 주
▁여 전
▁소 폭
▁감 정
▁5 배
▁어 도
▁안 경
▁국 립
▁국 면
▁국 토
▁마 시
▁의 뢰
▁적 발
▁스 크
▁가능 성에
▁따라 ,
▁본 청
▁시간 ,
▁직장 이
▁서비스 로
▁상황 과
▁운영 하기로
▁급 변
▁서울 형
▁접 어
▁화 이트
▁변 동
▁김 포
▁지역 은
▁취 지로
▁맞 물
▁맞 이
▁프 라
▁국내 에서도
▁진행 된다.
▁진행 되는
▁△ 업무
▁201 2년
▁전환 한다.
▁지급 된다.
▁메 뉴
▁고객 과
▁청 송
▁연장 한다고
▁공무원 들의
▁삼성 은
는데 요.
(1 만
▁변화 의
▁보고 가
▁기존 에는
▁곳 을
▁폐쇄 한
▁개선 이
.4 %에
▁휴직 자
▁우려 를
▁100 %로
▁질 이
▁빠 르고
▁만들 었다.
▁성과 관리
▁성과 평가
▁규모 에
▁정도 다.
▁절반 에
▁별 관
▁효과 도
시설 이
▁백 화점
▁음 식을
▁202 3년
▁건물 에서
oo k
▁문서 중앙화
▁방지 와
▁위험 에
▁0 시
▁/ 김
명) 에
▁머 무
▁방법 이
▁모습 .
▁착용 ,
▁벌 써
▁주목 을
▁삼성전자 와
▁점검 하고
▁2만 명을
▁한화 시스템
(S NS
▁전반 으로
▁촉 발
▁능 력을
▁가격 은
▁가격 이
▁대통령 이
00만원 을
▁지정 해
▁바뀌 고
▁선보 였다.
▁가사 서비스
▁제출 한
▁세종 시
▁정기 적으로
▁시차출퇴근 제,
▁붙 어
▁전산 센터
▁탑 승
고용평등 과
▁통보 를
▁서초 구
▁‘20 20년
▁언급 했다.
▁위메프 는
▁국무 총
▁이재 갑
▁선임 기자
▁그만 두
▁유사 한
▁윗 사람
▁싱 가포르
▁SK브로드밴 드
시차 출퇴근
▁中 企
▁1/ 3
▁에듀 윌
LD @Home
엔지니어 링
▁모양새 다.
▁니혼게이자이 신문
HIE LD@Home
2 00
E H
a g
a p
▁ 꽃
▁ 혈
▁ 텔레워크
가 ?
고 는
고 령사회
곳 으로
광 역
국 회
권 이
녹 십
놓 은
다 면서
락 을
락 커
레 이션
린 더
마 이크로소프트
모 금
보 수
본 사
상 ,
시 티
식 은
억 원이
여 명의
음 에도
자 재
장 관
점 심
제 에
지 청
지 원을
층 ,
콘 텐츠
투 데이
트 ,
표 를
푸 드
해 져
▁이 거
▁이 겨
▁이 현
▁이 들을
▁사 외
▁지 목
▁수 월
▁전 남
▁직 격탄
▁가 벼
▁가 질
▁일 고
▁일 제
▁중 견
▁인 쇄
▁인 수
▁인 접
▁제 가
▁기업 이다.
▁‘ 한
▁‘ 디지털
▁“ 확진
▁업무 도
▁다 할
▁주 소
▁' 전
▁출 석
▁원 에서
▁육아휴직 과
▁유 의
▁신 천
▁않 지만
▁해 주는
▁오 다
다” 라며
▁감 면
▁4 년
▁5 20
▁지원 은
▁확산 한
▁마 치
▁예 의
▁예 컨대
▁만 남
▁늘 린
▁확진 된
환경 이
▁불 평등
▁스 포츠
▁대한 상의
▁8 월부터
▁사무실 의
▁반 대로
▁무 단
▁건 수는
▁보안 시스템
▁맞 춘
▁이어 졌다.
▁초 대
▁기간 보다
▁배 정
▁과 제를
▁회의 도
▁어려 웠
▁응 원
▁예정 된
▁새 벽
▁기준 )
▁응답 도
▁가족 을
▁피 부
▁출퇴근 제를
▁학 원
▁넘 었다.
▁부서 를
▁속 도로
▁구성 된
.8 %가
▁11 시
▁완 화를
▁일본 ,
.9 %는
회사 에
▁제외 된다.
▁개발 을
▁민 주당
▁담 겼다.
▁SK텔레콤 의
▁손 실을
▁우려 로
▁유연근무 를
▁하나 인
▁성과 에
▁업체 가
▁현대 자동차
▁강조 하고
페이스 락커
▁공유 오피스
▁좋은 기업
▁찾 을
▁홈 쇼핑
라이 프
▁전년 대비
▁B BC
▁가정 이
▁준비 하는
시설 ,
▁백 악
▁공공기관 에
▁드 는
▁내년 까지
▁알려 진
▁치 아
▁단계 적
▁노력 하고
▁0 .9
▁50% 를
▁자신 을
▁됐 습니다.
▁스트 레
▁미만 의
▁인천 시
▁전사 적으로
▁재확산 하면서
▁현실 이다.
▁폭 발
▁추세 를
▁향상 에
▁차질 없이
le x
▁웹 캠
▁불안 감을
▁한화 솔루션
▁나머 지는
▁검사 에서
▁맡 고
▁해소 하기
▁계약 을
ᄏᄏ ᄏᄏ
▁아마존 ,
▁하겠 다”고
테크 노
▁체계 적인
▁조금 씩
▁즐 겁
▁일시 적으로
▁금융권 에
▁바꾸 고
▁느낌 이
▁LS 타워
▁수평 적
▁120 만원
▁신경 을
▁길어 지면서
▁정확 한
▁역학 조사를
▁지난주 부터
▁화장 실
▁브리핑 에서
▁인사담당 자
▁썼 다.
-------- --------
▁짧 은
▁대선 주
▁만성 질환
▁정세 균
▁컬 러
▁꼼 꼼
▁며 칠
AG O
EH AGO
" 며
% 나
1 만
2 회
3 2
F H
T T
W )
i .co.kr
j e
j h
o c
p l
· 김
▁ 굿
▁ 뇌
▁ 밸
▁ 벽
▁ 쌍
감 에
건 물
국 적
군 이
기 본
도 시에
동 기
라 운
렇 게
마 일
말 까지
밀 번호
복 을
상 태
서 구
서 에
세 는
소 는
스 탠
아 요
았 던
연 수
인 기자
제 ’
주 를
처 가
커 뮤니
타 치
트 릭
팬 데믹
편 이
함 께
해 당
했 다"면서
확 실
▁이 석
▁이 수
▁이 마트
▁있 다’고
▁기 밀
▁기 분
▁대 외
▁시 공
▁가 파
▁중 대본
▁보 너
▁제 거
▁상 고
▁‘ 불
▁‘ 제
▁‘ 심각
▁“ 대
▁“ 사무실
▁부 합
▁업무 시간
▁원 까지
▁유 선
00 원
▁연 초
▁그 가
▁도 로
▁모 를
▁개 리는
▁없 으면
▁소 식을
▁5 천
▁생 명
▁마 비
▁시행 하면서
▁많 습니다.
▁집 은
▁선 물
▁6 월부터
▁경우 엔
▁감염 된
▁스 테
▁단 독
▁단 일
▁8 개
▁8 시간
▁S SL
▁7 시
▁확대 한
▁확대 ...
▁복 지는
▁운영 한
▁무 너
▁무 역
▁건 수가
▁원격근무 의
▁10 일까지
▁체 육
▁솔루션 ,
▁맞 지
▁L I
▁L ife
▁한국 수
▁한국 에서
▁알 바
▁배 제
▁관리 하고
▁처 벌
▁명 은
▁명 절
▁행 안
▁재택 을
▁아이 템
▁두 려
▁정보 가
▁디 자
▁현재 의
▁출산 장려
▁크 기
▁허 가
▁준 하는
▁피 할
▁생각 하고
▁생각 하면
▁문제 도
▁마련 하는
▁사내 복지
.2 %는
(3 9
▁시장 조사업체
▁장기 적인
▁폐쇄 했다.
▁비율 도
▁지속 할
▁선택 이
▁우려 해
▁16 개
▁하루 에
▁규모 다.
▁허용 한
감염 병
▁임신 기
▁만족 도는
▁된 다”고
▁인력 만
▁누 가
▁접촉 자로
▁17 일부터
▁수도권 에서
▁공공기관 의
▁복귀 한
▁분야 는
성과 관리
▁돌아 가는
▁싶 어
▁상태 로
▁상태 에서
▁부산 지역
▁장려 하고
▁22 일까지
▁50% 가
▁조성 하는
▁혁신 적인
▁수행 하고
▁보도 자료
▁기본 적으로
▁있었 지만
▁인식 을
@han i.co.kr
▁경기도 가
금융 권
▁조정 하는
10 년
▁패 러다
▁않았 지만
▁많아 서
정책 과
in @etnews.com
▁작업 이
▁책임 이
▁상당 한
▁바우처 를
▁실적 이
▁가능하 며,
▁k im
▁양육 에
▁2년 간
▁어린이집 에
가정 양립
▁돕 기
▁엄마 의
▁병행 하는
▁뜻 하는
it al
▁지켜 야
▁가사 노동
▁걱정 이
▁일시 적인
▁무상 으로
▁1명 꼴
▁이틀 간
▁b alance
▁많았 고
데이 타
▁지나 면
▁사항 은
▁복무 관리
▁여유 가
▁SK이노베이션 은
▁금감 원
99 인
▁멈 추
▁애플리케이션 (앱
▁전통 적인
▁사후 지급
__ __
~12 개월
▁탐 지
▁넷플 릭스
▁조짐 을
▁일각 에서는
▁최선 의
▁부회 장은
▁현대건설 기계
▁번갈 아
▁끊임 없이
▁일제 히
% 포인트
( h
3 월
6 2
6 4
9 @ajunews.com
M )
e c
p ark
~ 7
· 게임
· 카카오
▁ 챗
가 .
건 에
공 급
군 ,
근 속
꺼 번에
드 리
드 백
리 즘
매 김
모 니터
무 역
문 은
방 지
배 우
비 도
빨 리
사 이
사 에서
수 민기자
승 진
양 한
업 종
에 듀
여 가
웍 스는
재 무
적 이라고
종 사
체 육
총 괄
추 진
치 게
타 운
파 파
플 렉스
환 자
▁이 건
▁이 혼
▁대 답
▁지 휘
▁수 많은
에서 부터
▁전 공
▁것 이라
▁한 꺼번에
▁위 성
▁정 유
▁정 명섭
▁공 장을
▁기업 ·
▁기업 이나
▁경 로
▁‘ 줌
▁‘ 리모트
▁코로나19 는
▁“ 어
▁근무 자가
▁근무 자를
▁" '
▁" 대
▁다 행
▁주 가는
▁고 급
▁육아휴직 ,
▁신 선
기업 들이
▁도 중
▁개 입
▁소 모
▁4 00명
▁5 분의
▁지원 하고,
▁확산 세를
▁강 도
▁마 이크
▁의 사를
▁노 후
▁만 한
▁확진 자의
▁6 시까지
▁불 거
▁증 명
▁올 리
▁서비스 ,
▁복 수응답
▁외 신
▁이후 부터
▁10 만원
▁관련 주
▁김 진
▁후 에
▁솔루션 인
▁종 교
▁진행 될
▁사태 의
▁관리 자가
▁방식 과
▁대응 이
▁자녀 돌봄
▁규 제를
▁게 다가
▁물 품을
▁양 극
▁있어 요.
▁예정 이라고
▁심 의
.2 %가
▁리 모
사업 장을
▁IT 업계
▁유지 한다.
▁평가 하는
▁갖 췄다.
▁시장 조사
▁확인 하는
▁워라밸 빌리지
.3 %는
▁글 이
▁휴가 가
▁정책 의
기술 )
▁힘 써
▁집중 적으로
(4 9
▁카카오 ,
▁건강 보험
▁시대 ,
▁업체 들이
▁현대 카드
▁타 이
▁자율 적인
▁있을 지
▁산업 용
▁산업 의
▁접촉 이
▁제한 을
▁이전 에는
▁드 라마
(5 1
▁확보 하기
▁연봉 ,
▁해결 해야
▁자리 매김
▁50% 로
▁긴급 돌봄
▁희망 자를
▁악 용
▁격상 된
▁않았 던
도시 공사
▁LG전 자가
▁근무시간 이
▁경력 직
▁영상 통화
▁점검 을
▁j ms
(6 1
계획 을
▁보내 고
▁달라 "고
협회 는
▁축 하
▁회식 ·
▁서버 를
▁직원에게 는
▁홈페 이지를
▁혜택 이
▁트렌드 를
교육청 ,
▁그래 픽
▁연속 성
.0% 로
▁북 미
▁택 시
기준 을
▁슬 기
▁방향 을
▁천 안
▁탈 취
만5 000
▁이슈 가
▁이직 을
▁남편 이
▁늘리 기로
▁보유 하고
▁휴대 폰
▁GS 리테
▁부당 한
▁협약 을
▁쇼핑 몰
▁중순 부터
▁돌보 기
▁LG디 스플레이는
공동 모금
▁'리모트 뷰
▁다중 이용
▁JP모 건
▁시· 도
▁목소리 도
▁실정 이다.
▁정부원격근무 서비스(GVPN
▁배터 리
▁개개 인의
▁바꿨 다.
▁중앙방역 대책본부
▁스튜 디오
▁가벼 운
▁jms 9@ajunews.com
( 가
2 2
4 7
8 7
9 %
9 명
= 뉴스1
A I
B I
m ent
· 가사
▁ z
▁ 낙
▁ 섭
▁ ᅲᅲ
고 가
교 대로
달 아
돼 도
드 대
범 위
보 상
본 다.
부 족
업 에
영 리
이 기도
임 에도
자 력
저 축
지 게
차 별
청 의
층 은
행 복
▁이 경
▁이 보다
▁지 상
▁지 향
▁시 큐
▁2 .
▁일 하
▁일 하면서
▁위 로
▁위 기에
▁정 작
▁3 대
▁기업 에는
▁상 의
▁‘ 1
▁‘ 자
▁‘ 언택트
▁‘ 매우
▁“ 집
▁“ 업무
▁“ 원격근무
▁" 주
▁" 고객
▁" 확진
▁주 인
▁관 행
▁하 소연
▁회 장의
▁유 망
▁유 지를
▁그 중
▁도 장을
▁개 통
▁없 다면
면서 도
▁해 왔다.
▁5 000
▁생 태
▁현 판
▁강 구
▁의 한
▁시행 이
▁때 와
▁많 다
▁동 선을
▁대상 에서
▁스 케
▁스 페
▁스 페이스
센터 에
▁차 이는
▁매 입
▁매 칭
▁사업 의
▁교 환
▁하는 지
▁상황 으로
▁정부 도
▁이후 에는
▁포 항
▁제공 한다고
▁관계 를
▁9 개월
▁김 대
▁김 동
▁지난해 보다
▁이용 자가
▁이용 하면
▁각 급
▁들어 갈
▁과 장은
▁전환 에
▁중소기업 과
▁했 다"며
▁거리두기 '
▁일부 개정
▁공무원 에게
▁파 일을
▁월 요
▁기준 에
▁총 무
▁30 일부터
▁적용 했다.
▁수요 일
▁화상회의 로
▁변화 하는
▁식 이다.
▁기능 은
.9 %가
▁추진 해
▁부모 님
▁100 인
▁1년 이
▁애 초
▁삶 과
▁하나 다.
(4 7
▁첫 날
▁비용 은
▁광 명
▁데이터 에
▁노트북 으로
▁설치 하는
▁물론 이고
근로 제
▁사례 는
▁승 소
▁공공기관 이
▁내부 망
(C E
▁고민 하는
▁받아 들이
▁볼 보
▁200 8년
▁머 니
▁워크 숍
시장 의
시장 에서
대책 본부는
▁거주 지
▁보장 하는
▁넘어 서
▁군 대
▁사이버 보안
▁블 로그
▁불편 함을
▁본격 적인
▁업종 별
▁불안 감이
▁안내 하고
▁극복 할
▁백신 을
▁사진 제공=
▁참석 한
▁트렌드 로
▁VPN 을
▁경북 도
▁소개 한다.
▁평소 보다
▁대법 관
▁뉴스 1
▁설정 할
▁개인정보 를
li ne
▁이메일 로
▁봐 도
느냐 는
하우 스
▁자산 운용
▁똑 같은
▁정확 히
▁듣 고
네트 웍스
▁지속가능 한
▁마지막 으로
▁액 세스
▁펼 쳐
▁습 관
ir tu
▁방역수 칙을
유치 원
▁깔 끔
▁시리 즈
▁넷플 릭
▁실업 급여
▁프랑 스
▁경총 은
▁아니냐 는
▁쾌적 한
▁힘쓰 고
(VDI )
▁대표이 사는
▁업그 레이드
irtu al
4 %
C )
W S
a re
g o
u e
~ 지상
· 정
▁ *
▁ ”
▁ 곽
▁ 셔
▁ 쇼
▁ 흘
▁ 벤처기업
▁ lee
간 에
간 다는
강 의
객 이
공 항
과 컴퓨터
교 사
내 용
년 이
노 총
됐 고
뒀 다.
라 떼
랩 은
미 를
법 률
부 ·
부 부
빌 리티
선 에서
설 턴
수 칙을
씨 도
어 비스
엄 마
었 지만
영 역
유 아
율 도
작 업을
저 히
적 ,
제 일
줬 다.
직 무
추 진단
케 미칼
편 의
함 ,
화 로
희 망
▁이 정
▁이 들도
▁이 코노미
으로 의
▁1 단계
▁전 과
▁전 례
▁일 회
▁중 ”이라고
▁보 며
▁보 입니다.
▁직원 으로
▁3 000
▁아 쉽
▁“ 주
▁“ 고객
▁“ 우리는
▁부 적
▁" 재택
▁" 사무실
▁비 어
▁' 원격근무
▁조 회
▁출 장은
▁회 식을
▁구 인
▁모 은
▁않 거나
▁개 시
▁소 파
▁4 월부터
▁말 했습니다.
▁생 성
▁때 ,
▁가능 성
▁특 화된
▁단 속
▁단 행
▁근로 계약
▁매 력
▁시간 대
▁세 탁
▁운영 체제
▁접 목
▁사회 복지
▁보안 의
▁증가 율은
▁제공 ,
▁관계 자
▁데 일리
▁후 에는
▁취 임
▁한국 전력
▁알 렸다.
▁알 아서
▁당 일
▁이어 진
▁진행 해
▁편 입
▁클 릭
▁아이 들
▁P wC
▁있어 도
▁효율 성과
▁공무원 에
▁출산 한
▁트 랜
▁총 력
▁커 졌다.
▁마련 해야
▁사내 식당
▁근로자 에
▁근로자 와
▁IT (
▁IT 인프라
.4 %는
▁선택 근무
▁휴직 자가
▁인사 평가
▁우려 되는
▁복지 제도
▁조직 을
▁조직 이
▁전망 도
▁제품 이다.
▁프로그램 이
▁강조 하는
▁비용 으로
▁비상 근무
▁산업 재
▁제한 하는
▁전년 도
▁준비 해
▁용 역
▁이동 이
▁인터넷 을
▁떨어 뜨
▁보인 다”고
▁페이스북 이
▁연봉 과
▁해결 하는
▁야 외
▁관심 도
▁채용 할
▁태 어난
▁어렵 게
▁1만 2
▁이뤄 진
▁자제 ,
위원회 에
▁모습 이
▁많아 졌
▁인구 정책
▁군 포
▁미래 를
▁차단 하기
▁상당 수가
▁의미 가
▁논의 가
▁구매 할
▁2만 2
▁근무환경 이
da in@etnews.com
▁불가피 할
▁h j
상황 을
들에 겐
▁엄마 가
▁뜻 을
▁제기 했다.
▁자가격리 에
▁입주 해
여성 가족
▁유치 원과
▁하락 했다.
▁장려금 은
▁뛰 었다.
.0% ,
▁북 한
▁이외 에
▁초기 부터
▁최고경영자(CEO )가
▁넓 은
▁영업이익 이
▁캠페 인을
▁콘텐츠 를
▁돌아가 며
▁팀장 급
▁나누 어
▁채널 을
▁석 유
78 명을
▁생기 지
▁이사 장은
▁소송 을
▁빅 테크
▁재계 에
▁급속 도로
▁IB K
▁근본 적으로
▁근본 적인
▁약속 했다.
▁순환근무 제를
▁반려동 물
▁법무 법인
▁과도 한
▁졸 업
▁동종 업계
▁확산방 지를
▁세일 즈
▁층간 소음
▁oh dain@etnews.com
▁감염증( 코로나
▁GC 녹십
▁엘리 베이터
(R&D )
▁오다 인기자
커뮤니 케이션
▁챗 봇
3 개
9 년
P I
a d
g h
u r
y ou
· 3
· 외
▁ 싼
▁ 죄
감 정
경 기도
기 '
나 고
노 트북
눈 에
늦 게
다 니
데 없는
드 와
레 인
발 의
방 을
보 지
사 들은
서 ,
소 가
안 은
았 습니다.
여 행
연 령
연 한
영 상회의
원 식
위 의
이 랑
자 마자
조 원을
중 공업
지 아
지 사는
토 스트
팀 은
퍼 스
평 소
평 정
포 럼
학 자
합 의
행 위
▁이 들에게
▁기 념
▁사 측
▁수 를
▁2 억
▁전 시
▁전 에는
▁가 림
▁일 평균
▁정 시
▁자 릿
▁3 명이
▁기업 은행은
▁“ 여
▁“ 공무원
▁부 하
▁부 득이
▁업무 협약
▁업무 공백
▁주 3일
▁' 주
▁관 내
▁조 선
▁조 속
▁원 주
▁고 성
▁유 산
기업 을
▁그 때
까지 도
▁도 보
▁도 출
▁개 혁
▁없 으니
▁해 양
▁해 리스
▁오 류
▁여 자
▁4 천
▁4 50
▁말 이다.
▁지원 책
▁안 양
▁20 분
▁만 만
▁미 비
▁동 네
▁동 물
▁집 과
▁적 정
▁이상 ,
▁재 산
▁확대 가
▁확대 하고,
▁운영 이
▁외 식
▁사회 가
▁증가 는
▁제공 하기로
▁체 중
▁발생 하면
▁간 식
▁임직원 들을
▁남성 육아휴직
▁한국 판
▁종 종
▁초 까지
▁배 상
▁금융 기관
▁과 제로
▁요 금
▁응 대
▁지급 하기로
▁했 고
▁대기업 을
▁연장 하고
▁공무원 들은
▁구축 한
▁피 드백
▁생각 할
▁15 일까지
▁출퇴근 이
▁출퇴근 제
▁적용 된
▁PC 가
▁사내 에
사회 복지
▁문화 ,
▁근로자 도
▁변화 로
▁변화 하고
▁목 요일
회사 인
▁이유 에서다.
▁개선 하고
▁인사 ·
▁합 류
▁충 전
▁18 0
▁대구 에
▁하나 도
▁하나 금융
문화 센터
▁걸 림
▁타 격
▁분석 해
▁임신 과
▁전국 에서
육아휴직 보너스
▁지침 은
▁쉽 고
위원 장은
(5 2
(5 4
▁급증 하면서
▁판단 해
▁쓸 수
▁끝 에
▁코 어
▁브 이엠
▁버 즈
▁겪 은
공간 ,
▁보도 합니다.
▁환 영
▁여러 가지
레이 닝
▁임산부 나
▁희망 자
▁철 회
▁이뤄 졌다.
▁민간 부문
▁전면 적인
▁LG전 자도
기간 이
▁군 은
▁목표 다.
▁29 일까지
▁고용노동부 의
▁출장 도
▁마음 을
▁돈 이
▁탄 소
▁불가능 하다.
▁방송 을
▁좋아 하는
▁대유행 으로
▁다음달 부터
▁제기 됐다.
it e
▁언택트 (비대면
여성 정책
ch a
▁시민 들이
▁단체 협약
▁제주 도
▁불이익 이
▁본부 장은
▁빈 번
▁전산 망
▁터 치
▁영역 을
니까 ?
▁넓 히
▁범위 에서
▁있다 며
▁몸 을
▁니 즈
▁거점 오피스
▁조건 으로
▁캘 린더
▁제안 했다.
▁남양유업 은
▁낮추 기
▁압박 을
일) 부터
▁근무형태 를
▁떠오 르고
유연근무 제
▁금융감독 원은
▁핀 테크
▁KT&G 는
▁주관 하는
▁소요 되는
모델 링
▁기숙 사
▁생체 인증
▁‘뉴 노멀
▁점진 적으로
리바 바
▁출산전후 휴가
▁아끼 지
▁그럼 에도
▁직격탄 을
▁예의 주시
=뉴스1 )
▁머니 투데이
( 일
( www.
/ 뉴스1
1 19
3 1
8 4
8 명으로
j in
· 구
· 부산
’ 라고
” 이라면서
▁ ’
▁ →
▁ 몫
▁ 첨
▁ 톡
▁ 벤처
가 격
가 동
가 로
공 기업
됐 기
드 라이브
따 라
러 는
리 게
리 로
받 게
분 기에
비 즈니스
상 으로
수 ,
수 입
수 칙
신 한
실 적
아 무
여 명을
예 정
용 역
원 히
을 수록
일 로부터
임 이
작 권
즈 ,
추 홀
층 의
치 면
하 실
하 진
하 다"며
홀 딩
화 장
화 재
▁이 젠
▁이 사는
▁기 계
▁수 험
▁1 000명
▁시 에
▁시 켜
▁전 개
▁전 역
▁일 하게
▁보 게
▁보 였
▁인 상을
▁제 목
▁정 하지
▁기업 들에게
▁‘ 재택
▁“ 정부
▁근무 자의
▁근무 제도
▁" 사회적
▁" 올해
▁" 지금
▁다 르게
▁비 영리
▁주 총
▁나 가는
▁원 인으로
▁고 심
▁유 아
00 억원
▁연 출
▁도 장
▁4 000
▁4 분기
▁생 기는
▁확산 은
▁확산 의
▁확산 세에
하기 에
▁국 공립
▁강 민
▁의 도
▁사용 에
▁미 루
▁장 착
▁동 반
▁선 배
▁바 이든
▁적 게
▁도입 은
▁남 는
▁S R
▁교 차
▁서비스 인
▁서비스 형
▁출근 길
▁할 당
▁정부 ,
▁달 아
▁제공 되는
▁9 3
▁9 9
▁때문 으로
하지 는
▁휴 교
▁사람 에게
▁발생 하자
▁솔루션 의
▁취 급
▁남성 인
▁종 류
▁처 리가
▁들어 서
▁요 가
▁노동 법
▁산 단
▁산 업계
▁게 이트
▁아이 의
▁전체 적으로
▁중소기업 들이
▁했 다”며
▁많은 데
▁기준 은
▁허 브
▁채 우
하겠 다"며
▁수준 에서
▁적용 될
▁마련 을
▁본사 의
▁문화 에
▁교육 부
▁격 차를
.8 %는
▁팀 별로
▁기능 으로
▁경제 부
회사 가
▁중요 성이
▁담 고
▁세계 적
▁손 실
.6 %가
▁100 %를
▁업계 에서는
▁고려 하는
▁하나 는
▁참여 했다.
▁균형 이
▁건강 관리
▁걸 렸
▁광 산
▁컨 설턴
▁산업 이
▁절반 을
서비스 (SNS
▁금지 ,
▁금지 하는
▁금지 된다.
▁분위기 ,
or m
▁공급 에
▁소통 할
▁용 도로
▁공공기관 과
▁연봉 을
▁단계 를
▁단축 근무
▁꼽 은
▁조성 하기
공간 에
▁수행 에
▁수행 하는
▁환 기
▁여부 와
▁“재택근무 는
▁격상 됨에
수당 은
대책 을
▁공동 으로
▁않았 다는
▁LG유플러스 가
▁몰 리는
▁생산성 은
▁장점 이다.
▁A씨 와
▁의미 한다.
▁파악 하고
)’ 이
▁알서포트 의
▁업종 은
▁업종 별로는
▁취약 계층
되어 야
▁눈치 안
00여 명을
▁참석 해
▁행복 을
▁해소 된
▁얻 는
▁원칙 을
▁제시 한
▁보여 주는
▁답변 을
▁14일 간
▁진단 했다.
▁지자체 가
am s
인구 구조
▁재택· 원격
▁시차출퇴근 제를
▁미팅 을
▁최우 수
▁견 디
▁메일 ,
▁2016년 부터
▁돌아가 면서
▁꺼 리는
▁커피 를
▁근거 로
▁혼란 을
▁권한 을
▁기사 제
▁캘리포니아 주
▁기다 리고
▁객 관
▁콜 라
▁고충 을
▁대한항공 은
▁사내근로복지 기금
(Z oom
▁힐 링
▁E& S
▁훈시 규정
▁라이선 스
( 00
+ 2
5 %
5 명
6 1
6 명으로
8 명
9 4
A F
d o
s o
t act
· 유
· 휴가
▁ 딜
▁ 런
▁ 으
▁ 흡
경 남
곳 ,
과 장
군 의
기 만
낸 셜
넥 스
년 대
담 을
대 문
대 에서
동 원
되 었다.
디 스플레이
량 의
리 브
만 7
매 업
명 한
밀 집
바 이트
방 문
배 에
범 죄
베 스트
보 조
사 ·
사 회의
생 님
서 와
시 온
옵 니다.
원 자력
음 ,
이 치
점 ),
정 부가
졌 던
증 후군
지 .
직 의
처 음
클 라이
티 넷
팀 장은
회 에
▁기 할
▁지 수는
▁시 선
▁가 계
▁일 해야
▁일 해도
▁중 으로
▁중 에서
▁한 강
▁인 트라
▁인 크루
▁정 하는
▁기업 에게
▁기업 들과
▁상 세
▁“ 남
▁“ 한
▁업무 ·
▁방 통
▁다 섯
▁비 디오
▁최 상
▁주 부
▁' 위
▁' 클라우드
▁' 매우
▁' 육아기
▁하 위
▁나 가고
▁육아휴직 제도
▁유 엔
▁유 진
▁유 휴
▁서 구
▁신 작
▁그 게
▁내 면
▁내 지
▁구 두
▁소 유
▁감 수
▁4 일부터
▁지원 했다.
▁지원 된다.
▁어 색
▁강 도가
▁거 창
▁노 멀
▁시행 과
▁미 치지
▁많 다는
▁선 에서
▁추 경
▁감염 예방
▁도입 하기로
▁스 토리
▁스 마일
▁특 고
▁증 진
... ‘
▁성 수
▁금 액
▁시간 대를
▁시간 선택
▁교 사가
▁사무실 은
▁7 9
▁정부 에
▁외 에는
▁돌 봐야
▁원격근무 ,
▁사회 를
▁증가 율이
▁포 트
▁들 려
▁김 태
▁제도 와
▁임직원 도
▁거리 에
▁한국 은
▁한국 경제
▁알 았
▁종 전
▁방역 관리
▁편 의를
▁요 인으로
은행 이
▁지급 했다.
▁지급 하지
▁했 다는
▁개인 용
▁네 오
▁구축 과
▁열 었다.
▁채 워
▁C E
▁PC 나
▁뒤 ,
▁뒤 로
▁문화 와
▁19 7
▁리 서치
▁리 모델링
생활 이
▁넘 은
▁플 러스
▁해당 한다.
▁갖 는
▁기술 로
▁폐쇄 됐다.
.1 %가
▁개선 해
▁개선 하기
▁기반 을
▁낮 춰
▁내용 도
▁KT 의
▁1년 에
▁복지 도
▁연구 에
▁연구 진은
▁휴가 ,
▁창 립
(4 8
▁카카오 워크
▁프로그램 과
▁걸 린
▁방안 으로
▁자율 성을
▁만족 감을
▁광 범위
▁형태 다.
▁감소 로
▁선정 한
▁기록 을
▁수도권 과
▁공급 하는
▁소통 과
▁소통 의
▁N TT
시스템 ,
지역 에
▁확보 할
▁알려 져
▁해결 을
▁노력 하겠다”고
고용 보험법
▁계열사 들도
▁보호 할
▁자리 에
(I T)
▁G VPN
▁혼 합
▁50 만
▁됐 다는
▁됐 다”며
▁트위터 가
▁인구 구조
▁스타 일
▁추세 가
▁권장 했다.
▁권장 하는
▁차지 하고
▁극복 하기
▁받았 습니다.
▁h s
▁입장 에선
▁침 체
▁돕 는다.
▁36 0
▁2017년 부터
▁원활 히
방역 을
▁선보 이고
▁꾸준 한
▁장애 가
▁늦 추
▁기업문화 가
▁가치 가
▁90% 가
▁초기 에는
▁느낌 을
▁중이 던
▁중이 며,
뱅크 는
▁여건 에
▁SK그룹 의
▁머물 러
▁접종 을
▁불만 을
보건 소
▁창원 시
▁급격 한
▁정리 해
▁방역당국 은
▁듣 는
책임 자
▁없애 고
▁프로세 스
▁간담 회를
▁나타났 습니다.
▁조항 은
▁위원 장은
▁“직원 들이
▁훈 련
▁유일 한
▁국회의 원
~10 년
es k
▁이노 비즈
ig ital
▁자유롭 고
▁밀폐 된
▁강행 규정
▁둘러 싼
▁훌륭 한
tt ps
▁시가 총
▁신종코로나 바이러스
▁펄 어비스
▁비조치 의견
▁이씨 에
▁스토 리지
·4 분기
▁다우 데이타
▁이광 엽
▁프린 터
아한 형
▁기사제 보
▁인트라 넷
ttps ://
( 유
( PC
1 ,
5 5
I SA
e j
· 의
’ 이다.
” 는
▁ 엑스
가 드
가 며
각 을
개 ,
거 점
건 이
격 리
관 에서
관 계를
금 ,
급 의
기 지
기 까지
너 무
대 기
동 에서
등 급
란 히
로 만
론 을
리 의
먹 는
미 지
박 스
백 신
백 여
보 며
복 무
부 에서
소 문
스 파
실 은
어 촌
연 히
워 라
월 )
음 식
음 에
음 이
인 턴
인 원을
임 금을
입 어
잖 아
절 차
정 으로
추 가
취 약
클 리
트 와
하 긴
하 세요
해 외
환 자가
▁이 민
▁지 사
▁1 위를
▁1 ~3
▁1 000여
▁1 .5단계
▁시 스코
▁2 .5
▁2 교대
▁전 경
▁직 속
▁가 을
▁일 률
▁한 라
▁한 쪽
▁보 냈다.
▁자 원을
▁공 장이
▁3 .
▁상 임
▁“ 비대면
▁“ 국내
▁“ 특히
▁부 양
▁부 진
▁부 장은
▁부 사장은
▁업무 처
▁업무 량이
▁다 름
▁최 하
▁' 비
▁관 해
▁유 예
00 인
▁해 수
▁여 부가
▁안 수민기자
▁현 장을
▁사용 ,
▁사용 하기
▁문 항
▁시행 하며
▁만 이다.
▁미 혼
▁장 난
▁집 행
▁바 라는
▁높 지
▁설 비
환경 에
▁또 다시
▁불 확실
▁도입 으로
▁직장 과
▁사무실 ,
▁재 유행
▁출근 해서
▁7 세
▁7 명이
▁확대 된
▁달 라고
▁무 리가
▁급 성장
▁원격근무 제
▁활용 ,
▁활용 한다.
▁증가 해
▁제공 하고,
▁10 대
▁들 었
▁휴 양
▁입 양
▁A .
▁들어 선
▁들어 서는
▁역 세권
▁못 했던
▁시작 할
▁시작 했습니다.
▁두 번째
▁했 을
▁네 덜
▁연장 한
▁파 티
▁조사 는
▁구축 ,
기관 은
▁출산 ,
▁크 다는
▁법 이
▁클라우드 에
그룹 의
▁적용 하고
▁적용 되는
▁결정 하는
▁학 사
▁리 클라이
▁유지 하기
▁유지 해야
▁최소 화를
▁공공 행정
▁확인 해
▁기술 력을
▁개발 에
▁민 주
▁포함 된다.
▁지속 해서
▁선택 한
▁휴직 이
▁손 에
▁우려 했다.
▁기반 이
▁쓰 기
▁생활 에
▁막 상
▁막 을
▁밀 레니얼
▁휴가 와
▁정책 은
기술 을
▁매출 을
▁참여 해
▁제품 으로
▁타 당
▁자율 출퇴근
▁27 일까지
▁살 고
▁제한 된
▁잡 플래닛
▁홍 원식
▁통신 업계
▁승 무원
▁수도권 의
시설 과
▁오후 부터
▁네이버 가
▁떨어 졌
▁우선 적으로
▁급증 하는
▁확보 를
▁확보 해
▁예상 보다
▁싶 다는
▁페이스북 의
▁돌봄 을
▁활동 에
▁3개월 씩
▁선제 적인
일( 8
▁트위터 ,
▁2018년 부터
▁국회 는
▁공동 체
▁s un
▁s ma
▁컴퓨터 가
▁길 이
▁연기 했다.
▁넘어 섰
▁그렇 다고
▁담당 자
▁파악 해
▁분리 하는
▁논의 하고
▁서울시 가
▁2만 7
▁재택근무제 ’를
▁달라 질
▁학교 에
▁‘재택근무 ’
▁k ej
코리아 ,
▁침 투
▁몇 몇
~3 4세
▁하겠 다"고
(7 0
▁답변 은
▁VPN (가상
▁의사 결
▁조금 이라도
▁부부 의
▁이틀 은
▁주변 에
▁갖추 지
▁야근 을
▁명확 하게
▁바람 이
▁횟 수
▁면접 수당을
▁탄력 근무
▁“육아휴직 을
▁SK이노베이션 ,
▁휴게 시간
▁나누 는
▁개념 이
▁시각 )
▁리모트 뷰
▁구직 자
고용노동 부
▁높았 고,
▁근거 가
▁우리나라 의
▁"직원 들이
▁벌어 지고
▁프로세 스를
▁태블릿 PC
▁사흘 간
▁펼 치고
(T e
▁베이 비
▁렌 털
▁텐 센트
▁촉구 했다.
▁에어 컨
▁집합 교육
▁JP모 간
▁대안 으로
▁칸막 이
▁염 두
▁상용 직
▁OT P
(복 수응답
▁노르 웨
▁겨냥 한
hn @etnews.com
▁예비 후
▁호응 을
▁어떠 한
▁낭 비
▁털어 놨다.
▁근로복지 공단
▁국토 교통
▁시간선택 제
▁리클라이 너
▁sma hn@etnews.com
& C
' 이라고
( 자
L ife
O 는
T E
T X
a c
h o
i al
~ 15
· 인
· 업무
· 육아휴직
· 인천
▁ 깃
▁ 멘
▁ 엑
▁ 줘
▁ 짐
▁ 휘
▁ news
▁ 널리
간 담
감 사
것 도
결 제
공 격
교 회
국 제도
까 요.
라 리스
량 과
르 지
리 카
린 빌딩
마 케팅
명 령
배 송
베 이스
보 전
보 증
산 을
산 타워
상 승
서 가
소 송
수 업을
스 포츠
어 로
에 너
여 야
오 프
움 이
음 성
임 원
임 산부
자 고
중 심
증 상이
지 나
질 을
청 소
체 이스
체 제로
코 올
터 미
팀 장
해 준다.
해 달라고
현 기자
회 와
근무 시간
▁이 례
▁기 피
▁사 건을
▁대 학생
▁지 문
▁지 시에
▁수 학
▁전 쟁
▁전 제로
▁가 끔
▁일 일이
▁중 에서는
▁중 장기
▁한 때
▁한 전
▁한 눈에
▁보 조
▁정 체
▁정 할
▁공 부
▁3 층
▁‘ 다
▁‘ 도
▁‘ 육아
▁아 프
▁부 응
▁부 지급
▁업무 처리
▁" 콜센터
▁" 출퇴근
▁" 우리는
▁다 각
▁다 하고
▁다 루는
▁비 싸
▁주 어
▁주 춤
▁주 기적으로
▁' 엠
▁' 아이
▁' 포스트
▁조 를
▁조 화
▁하 려면
▁나 지
▁고 강도
▁유 상
▁연 습
▁신 도
▁통 화를
▁도 구를
▁해 명
▁임 용
▁4 대
▁4 ~5
▁생 생
▁지원 과
▁지원 한다는
▁어 떨
▁안 보
▁강 연
▁사용 횟
▁분 주
▁예 배
▁미 추홀
▁많 고,
▁장 병
▁회사 들이
▁동 거
▁선 거
▁선 포
▁감염 자
▁도입 과
▁단 기간
▁S BS
▁시간 의
▁교 수가
▁올 리는
▁반 발
▁출근 하고,
▁7 ~8
▁상황 "이라며
▁운영 ,
▁외 의
▁무 시
▁서울 대
▁서울 지방고용노동청
▁원격근무 와
▁화 학
▁보안 성을
▁보안 관리
▁10 만5
▁김 은지
▁줄 이고,
▁저 축
▁사람 들도
▁후 생
▁임직원 에
▁시스템 ,
▁한국 농
▁한국 산업
▁한국 도로
▁알 리고
▁알 리바바
▁처 분을
▁명 으로
▁직장인 도
▁못 하면
▁되 었다.
▁노동 부
▁나타 냈다.
▁이날 까지
▁대표 적
▁메 일을
▁크 리에
▁커 지는
▁피 싱
▁30 만원
▁C U
그룹 이
▁심 사를
▁PC 로
▁PC 에서
▁결정 은
▁추가 적인
ne ss
▁박 영
▁교육 청
▁부서 마다
▁속 도
▁속 한
▁팀 장이
▁곳 이다.
▁곳 곳에
▁발표 하고
▁민 감
▁부모 는
▁포함 하는
.4 %였다.
▁인사 노무
▁상담 사가
▁합 성
▁합 리적
▁애 널리
▁휴가 도
▁대구 경북
▁힘 입어
▁참여 가
▁호 평
▁카카오 도
▁강조 한
▁자율 좌석
▁있을 까.
서비스 업
▁노트북 과
▁정상 적으로
▁잡 혀
▁전년 동기
▁B CP
▁인프라 와
▁평균 보다
▁기대 한다"고
▁쉽 다.
▁국가 적
▁성장 한
▁로 페
(5 3
▁떨어 졌다.
▁직접 적인
▁건물 이
▁일반 적인
▁확보 가
▁확보 하고
▁면 제
▁독 서
▁단축 제
▁계열사 에
▁계열사 인
▁0 .8
▁꼽 히는
▁/ 사진제공=
공간 으로
▁G -Cloud
▁수행 이
▁사옥 에서
▁됐 다”고
▁퇴근 하는
▁사이 즈
▁정착 될
▁아직 은
▁패 소
▁길 게
▁길 을
on a
▁규정 에
▁저출산 고령사회
▁범 죄
▁가구 를
▁불과 한
▁블 라인
▁육아휴직급여 의
▁불편 한
▁종합 적으로
▁웹 엑스
▁특별 히
▁한화 그룹은
▁받았 고,
▁공개 한
▁기관 이
▁직무 에
▁나서 야
▁어린이집 을
▁잇따 르
▁설문조사 에
▁골 자로
건설 은
▁즐 기는
▁신속 히
▁개정안 이
▁대법 원은
▁세종 =
▁현행 법상
▁O S
▁O ECD
▁없었 던
▁e -
▁책상 과
공단 은
스러 워
▁사고 가
▁연계 한
▁소독 을
▁내놓 고
▁특수 고용
▁사유 가
▁덕 분
▁좌석 을
▁티 몬
▁재직 자
▁보고서 에서
▁2022년 까지
▁배경 을
▁경영진 의
▁현대차 그룹
▁공약 을
▁인센티브 를
▁2개 조로
▁나타났 다고
▁브리핑 을
SK 텔레콤
▁있으나 ,
▁즉각 적인
·출산 휴가
▁가족친화인증 기업
▁핀 란드
▁앞장서 고
라이언 트
▁엄격 한
▁매니저 는
▁잘못 된
▁악성코 드
▁시중 은행
▁인사혁신 처는
▁영등포 구
▁코스 닥
K- 비대면
▁인턴 기자
▁풍부 한
▁이지 은
▁한글 과컴퓨터
▁임의 로
▁폭넓 게
▁따뜻 한
시각 )
▁신천 지
▁IT( 정보
▁조속 히
▁고성 능
▁걸림 돌
아무 개
▁산단 공
아한형 제
% 에서
( work
- 2
1 65
3 7
I C
M C
a ss
j i
· 교육
· 회식
▁ ~
▁ 랩
▁ 젠
▁ 줘야
강 화
개 혁
건 스탠
겠 지만,
공 원
관 의
금 과
노 위
농 협
단 축
동 의
럼 프
루 미
리 면
리 얼
만 6
만 간
만 여
면 에
물 류
바 이에
배 상
법 이
분 위기
션 이
스 런
스 피
습 니
시 면
실 히
심 에서
아 니
애 플
어 는
어 를
연 속
연 차
유 숙
자 ·
저 작권
점 도
점 의
정 의
정 치
증 명
지 인
크 로
탄 력
트 위터
플 라이언
할 지
▁사 장이
▁대 대
▁대 두
▁대 여
▁지 니
▁지 도
▁지 인
▁지 참
▁1 대
▁1 시
▁1 .8
▁시 나
▁시 사
▁시 술
▁시 코
▁시 도가
▁가 득
▁것 들이
▁중 에서도
▁한 다면
▁한 다”면서
▁인 사를
▁위 에
▁위 함
▁공 적
▁상 반기에
▁‘ 오피스
▁‘ 스마트
▁‘ 육아기
▁아 님
▁아 웃
▁“ 재택
▁“ 집에서
▁근무 했던
▁" 1
▁" 상
▁" 공무원
▁" 임직원
▁비 결
▁비 례
▁주 장이
▁' 고
▁' 워크
▁육아휴직 자를
▁유 기
▁연 관
▁구 ·
▁도 교육청
▁모 건스탠
▁않 으면서
▁여 건을
▁감 축
▁4 주
▁4 회
▁4 .5%
▁어 울
▁마 쳤다.
▁사용 량이
▁원격 지원
▁시행 하게
▁시행 하도록
▁20 %는
▁높 다는
▁불 리한
▁도입 하지
▁스 위
▁가능 하고,
▁가능 해진
▁단 점을
직원 들의
▁진 심
▁세 상
▁세 액
▁직장 문화
▁7 일부터
▁상황 도
▁환경 ,
▁건 의
▁이후 로
▁보안 성과
▁점 에
▁SK 가
▁휴 일
▁후 원
▁발생 ...
▁최근 에
▁한국 여성정책
▁국내 에
▁초 기에
▁초 고속
▁관리 ·
▁편 이
▁삼 가
▁자녀 와
▁역 삼
▁카 리브
▁요 건을
▁요 소를
▁두 지
▁지급 해
▁지급 되는
▁네 트
▁고객 들이
▁고객 에게
▁연장 하는
▁연장 근로
▁조사 해
▁조사 결과
▁구축 비
▁답 했습니다.
▁크 리스
▁가족 들의
▁생각 에
▁폐 렴
▁안전 에
▁본사 는
▁문화 도
▁19 로
▁박 상
▁플 렉스
▁롯데 홈쇼핑은
▁식 으로
▁유지 해
▁11 일부터
▁경제 정책
▁워라밸 (일과
▁개발 과
▁포함 돼
▁사업장 ,
▁담 아
▁쓰 도록
▁생활 방역
▁조직 별로
▁애 로
▁업계 도
▁번 거
▁질 의
▁빠 진
▁집중 도가
▁눈 을
▁건강 에
▁하루 는
▁정도 를
들에게 도
▁타 임
▁된 다"고
▁에 그
▁에 이스
▁데이터 가
▁데이터 센터
▁권고 한
▁별 개로
▁( 영상
▁이미 지를
▁B 2B
▁감소 할
▁인프라 웨어
▁이하 인
▁가정 용
▁의무 가
근로 자의
▁국가 장학
▁용 품
▁공공기관 ,
▁떨어 지고
▁페이스북 에
▁대체 하는
▁순환 재택근무
▁코 니
▁장소 와
▁전자 투
▁계열사 로
명) 의
▁줄어 서
▁수행 한다.
▁"재택근무 로
▁않아 서
▁아직 까지
▁패 밀리
▁늘어난 다.
▁자제 하도록
▁생산성 에
▁뉴욕 주
▁영상 편집
▁주목 받는
▁경쟁 이
▁울산 시는
▁블 랙
▁협력 해
▁잇 달아
▁재택근무제 는
▁극복 에
▁h u
▁종사 하는
▁인원 만
▁의료 비
▁축 적
▁좀 처럼
조치 가
▁탄 탄
사업장 에
▁NHN ,
▁키우 기
~3 5
▁카페 에서
▁보완 해
▁교통 비
▁선보 일
.5%) 이
▁제약 이
at e
▁정보통신 업
▁고령 화
▁가동 을
▁< 앵커
▁모집 한다.
▁입사 한
▁특수 한
▁횟 수가
▁신입 사
공공 부문
▁후보 자가
▁매출액 은
▁남편 의
▁MS 는
▁휴게 실
▁깊 은
▁상한 액도
▁패키 지를
▁겨 우
▁낳 고
▁선언 했다.
▁낮추 는
▁흐름 을
▁지출 이
▁중소벤처기업 부는
▁국무 회의에서
▁촉진 하기
▁빚 어
▁조항 을
▁히 타치
▁갑작 스러운
▁베이 징
▁안심 하고
▁조절 할
▁격차 가
▁무관 하게
▁총괄 은
▁인사혁신 처
▁솔직 히
▁줬 다.
▁고도 화
▁기재 부
▁흥 미
▁경고 했다.
▁정부세종 청사에서
통합 당
▁인용 해
▁LG상 사는
▁'심각 '
▁토스 랩
▁한국가스 공사
▁어도 비
▁부합 하는
라떼 파파
▁세일즈 포
▁언택트(비대면 )
▁눈치안 보고
▁스마일 게이트
▁<앵커 >
% 의
( 인
, 5
2 .
4 3
5 9
5 000
7 명으로
8 %
M Z세대
h e
h an
h er
m un
r om
· 야
ᅮ ᅮ
▁ &
▁ 듀
▁ 섬
▁ 섹
▁ 텍
▁ ᄒᄒ
검 진
구 축
기 나
긴 다.
나 가고
노 조
단 한
대 ,
대 전
도 서관
동 ,
동 이
등 의
려 야
만 8
매 출
배 가
선 영기자
성 수
세 정
알 토
없 고
오 던
완 전
용 산타워
유 로
이 티브
인 포
일 용
잡 을
제 품을
졌 다”고
준 비
지 기도
충 북
충 전
친 다.
통 을
트 니스
패 드
평 생
폴 리오
필 드
했 다”면서
회 장
근무 가
▁이 때
▁이 영
▁이 진
▁이 커머스
으로 도
▁지 불
▁수 칙을
▁1 m
▁가 로
▁일 ,
▁중 지
▁한 수
▁제 고를
▁정 했다.
▁자 원
▁공 익
▁상 급
▁‘ 가
▁‘ 원격근무
▁‘ 경력단절
▁아 까
▁아 름
▁“ 근무
▁“ 포스트
▁부 착
▁업무 성과
▁" 아이
▁비 대
▁비 수도권
▁주 어진
▁' 무
▁' 집
▁' 디지털
▁' 팀즈
▁연 금
기업 ,
기업 에
까지 로
▁구 인구
▁구 상이다.
▁실 직
▁않 더라도
▁없 으며
▁해 왔
▁해 마다
▁여 력이
▁5 월부터
▁지원 대상
▁강 서구
▁마 리
▁마 켓
▁의 지를
▁거 라고
▁분 들이
▁때 부터
▁회사 .
▁근 접
▁동 원
▁동 작
▁동 국제
▁늘 자
▁바 쁜
▁높 이를
▁추 락
▁가능 하고
▁남 부
▁차 원으로
▁차 라리
▁성 인
▁성 장이
▁기자 의
▁필요 하면
▁직장 맘
▁직장 으로
▁7 천
▁보안 ,
▁증가 세를
▁증가 함에
▁포 럼
▁10 여
▁들 을
▁고용 주가
▁앞 세
▁협 의를
▁사람 들과
▁발생 함에
▁지역 감염
▁솔루션 에
▁프 라이
▁시스템 이다.
▁워 터
▁한국 ,
▁한국 인터넷
▁당 기
▁관리 자는
▁유연 하고
▁결과 로
▁신청 서를
▁편 견
▁미국 ,
▁노동 조합
▁201 1년
.5 %였다.
▁시작 됐다.
▁연장 해
▁월 간
▁답 이
는데 도
▁15 만9
▁PC 방
▁수요 는
▁결정 했다고
▁협업 에
▁박 모
▁부서 에서
▁일본 에서는
▁갖 게
▁않는 다”고
▁추진 하기로
▁기술 적
▁이유 에
▁사업장 과
▁인사 상
▁부담 도
.7 %가
▁합 쳐
▁외부 로
▁연구 를
news @heraldcorp.com
▁대구 시는
▁예방 과
업계 의
지원 ,
▁제품 의
▁프로그램 도
▁않고 도
해서 ’
▁비용 의
▁만족 하는
▁전국 민
▁E N
▁투자 은행
▁14 0
▁선정 됐다고
▁가정 에
▁기대 한다”고
▁공급 이
▁국가 의
▁음 주
지역 의
▁분야 별
▁쓸 데없는
▁면 밀
▁연차 사용
▁노력 해야
▁연결 해
▁그룹 사
▁조성 에
▁혁신 과
(I M)
▁수행 을
▁M BC
▁처리 하고
▁임금 의
▁어렵 고
▁지금 도
▁표 결
▁이뤄 진다.
▁어린 이
▁3일 간
▁200 9년
▁민간 기업의
▁조정 하고
▁패 널
▁공동 주택
▁인구 의
▁근무시간 과
▁40 시간
▁요구 를
이었 지만
▁핵심 이다.
▁가구 에
▁콘 센트
▁부여 해
▁9월 까지
▁알서포트 ,
일(현지 시각)
▁학교 의
·중 소기업
▁‘재택근무 를
▁취소 하고
▁실천 하는
▁눈치 가
▁양육 하는
▁회식 도
▁80% ,
▁트렌드 에
▁능 력이
▁반응 도
▁엄마 는
▁무엇 을
▁무엇 인지
▁임원 회의에서
스( N
▁바뀌 어야
▁홈페이지 에
▁선보 인다.
▁이틀 만
연구소 는
▁44 일
▁위협 을
▁단순 한
▁1주일 간
▁데스크 탑
▁원격접속 이
▁보이 면서
▁연계 해
▁소독 제
▁사라 져
▁나가 겠다"고
▁아침 에
▁끝나 고
▁구분 해
▁당국 의
▁유행 이
▁수출 입
▁한부모 가족
▁몸 이
lee @etnews.com
▁해제 된
▁탓 이다.
▁1000 명을
▁낮아 질
▁겨 울
▁충북 도
▁등장 했다.
▁집안 일을
▁금융당국 이
▁자회사 인
▁'20 20년
▁혼란 이
▁멈 춰
▁증권 사
▁나왔 습니다.
데스크 탑
만으로 도
▁250만원 으로
▁도와 주는
▁100명 당
▁흔 들
la ce
▁처우 를
▁연구개발 (R&D)
▁엄청 난
▁코리아 빌딩
▁마이크로소프트(M S)
▁SK하이닉 스
▁SK하이닉 스는
구성 원
▁발휘 할
▁완벽 한
▁재량 에
▁야놀 자는
▁아기 띠
(중 대본
▁기자회견 을
▁세무 회계
▁과기정통 부는
민간 기업
▁직장갑질 119
▁열악 한
▁on line
▁소프트웨어(S W)
▁지란지교 시큐리티
▁한산 한
▁스크 린
▁디자 이너
▁다중이용 시설
▁섭 취
▁셔 틀
▁가림 막
▁수험 생
▁구인구 직
▁동국제 강
▁online news@heraldcorp.com
1 %
4 4
8 1
@ ob
A )
D )
F C
M R
O S
p e
s .co.kr)
· 가
· 목
· 보험
· 복지
· 생활균형
’ 인
▁ 값
▁ 딩
▁ 쳐
▁ 펀
▁ 혀
▁ ju
▁ 링크
개 가
경 쟁
국 은
기 사
기 인
나 ?
나 라는
냐 는
네 시아
노 사
대 상이
됐 으며,
로 워
리 츠
마 음
마 이크로
말 을
무 선
방 은
스 위
스 톱
식 에서
실 태
심 한
애 기자
었 고,
엔 터프라이즈
연 결
요 타
우 울
원 ·
위 협
으 론
의 약품
이 하
이 지만,
있 어
자 료를
재 가
전 화를
절 벽
조 에
지 하
지 수는
지 먼트
직 종
진 기자
짐 .
차 는
창 고
커 피
특 정
팀 이
해 볼
했 으면
▁이 곳
▁이 종
▁이 창
▁이 끄는
▁재택근무 (
▁사 기
▁사 안
▁대 용
▁지 배구조
▁수 수
▁2 위
▁등 ),
▁직 면
▁일 방
▁일 하고,
▁일 하던
▁중 반
▁한 상
▁한 해서
▁위 주의
▁제 15
▁자 꾸
▁공 기
▁3 번
▁3 조
▁3 .0
▁경 비
▁경 직
▁‘ 출퇴근
▁‘ 일과
▁‘ 스마트워크
▁육아 가
▁아 는
▁“ 아이
▁“ 한국
▁업무 생산
▁근무 자는
▁근무 성적
▁" 내
▁" 당
▁" 여
▁" 한
▁비 밀번호
▁주 까지
▁' 줌
▁' 홈
▁' 기업
▁조 리
▁조 만간
▁하 에
▁하 다가
▁나 옵니다.
▁유 대
▁유 효
00 명이
▁서 명
▁신 분
▁신 사업
까지 만
▁내 장
▁구 리
▁모 른
▁모 으
▁여 기는
▁소 관
▁말 합니다.
▁5 명이
▁확산 ...
▁안 돼
▁국 산
▁사용 도
▁거 실
▁시행 세
▁시행 되는
▁받 자
▁늘 며
▁영 유아
▁영 원히
▁바 짝
▁적 고
▁추 산
▁증 빙
▁단 원
▁사업 자
▁금 천
▁본 회의
▁세 웠다.
▁세 우고
▁반 등
▁반 출
▁재 조정
▁상황 인
▁운영 된다.
▁달 에는
▁외 로움
▁환경 노동
▁무 작
▁평 상시
▁이후 ,
▁좋 겠다"고
▁고용 주
▁김 기
▁김 영
▁김 준
▁한국 에
▁한국 감정
▁온 종일
▁배 출
▁A WS
▁관리 와
▁행 동을
▁금융 보안
▁요 인이
▁올해 도
▁산 후
▁아이 디
▁아이 들과
은행 의
▁전체 에
▁했 으며,
▁대기업 에서
▁개인 적
▁개인 적인
▁모두 의
▁대표 와
▁대표 이사
▁대표 발의
▁청 원
기관 을
▁답 했고,
▁열 풍
▁12 월부터
▁트 럼프
▁수준 은
▁25 0만
▁법 령
▁피 곤
▁마련 돼
▁문화 로
▁문화 의
▁근로자 들은
▁19 6
기자 >
▁박 지
▁교육 과
▁식 료
▁해당 하지
▁팀 을
▁스마트 오피스
▁발표 할
▁워라밸 일자리
▁개발 ,
▁포함 )
▁쓰 게
▁13 %
▁복지 와
▁연구 원
▁16 0
▁정책 과
▁대구 와
▁집중 이
▁제품 에
▁업체 들은
▁강조 했습니다.
▁타 워
▁살 면서
▁높아 지면서
▁잡 았다.
▁홈 트
▁B 씨
▁설치 ,
▁의무 적
▁최소화 해
시스템 과
▁인터넷 이
스코 리아
▁확보 된
▁판단 을
급여 를
▁돌아 온
▁돌아 올
▁돌봄 교
▁면 에서
▁노력 에
▁출시 했다고
연구 원은
▁판매 량은
▁야 후
▁중앙 일보
▁보도 입니다.
▁50 인
▁처리 해야
▁D L
▁경기도 ,
▁날 짜
▁워크 스페이스
▁최초 의
▁노동자 도
▁s u
경제 적
▁공격 에
▁근무시간 에
▁추세 에
▁ESG 펀드
▁그렇 다면
▁요구 가
이었 습니다.
▁점검 해
▁게임 을
▁불편 이
(6 9
인력 의
▁컨설팅 은
▁취약 점을
▁취소 했다.
▁동참 해
▁양육 을
▁나서 기로
▁늘었 고,
▁모델 은
▁통계 에
▁반응 은
▁원활 하지
▁역할 이
▁의심 되는
▁영국 의
▁경북 도는
▁바뀌 는
▁제출 하면
▁제출 받은
▁건설 업
▁금융회사 의
▁개최 했다.
▁야근 이
▁아내 가
▁< 기자>
▁드러 나
▁창의 성을
▁보이 지만
▁지나 치게
▁운동 을
▁나라 를
▁끝나 면
▁LS 용산타워
▁챙 기
▁37 .5
▁신입 사원
▁임신부 와
▁밥 이
▁지키 는
▁가능해 진다.
▁탄력 적
▁실태 를
▁저하 를
▁가져 올
진흥 원(
▁멀 리
▁늘리 고,
▁깊 이
▁나누 고
▁징 계를
▁정해 지지
▁노출 될
▁더존비즈온 은
▁일자 리가
▁민원 인
▁익숙 한
▁노조 는
▁분위 기도
▁활발 히
▁흐름 에
▁'20 19년
▁변호 사는
▁캠페인 에
▁트래픽 이
▁성능 을
▁편성 해
▁곤 두
▁라이프 스타
▁인건 비를
▁엠 오피스
▁게시 판
▁반려동 물을
▁노하우 를
▁칸막 이를
▁이원 화
▁스탠 퍼
▁효성ITX 는
▁싫 어
▁꼴 찌
▁앤 드
▁끈 다.
▁마인 드
▁낯 선
▁자치 구
▁에너 지를
·휴 게
▁퍼블 릭
▁z ero
사회복지 공동모금
▁sun ny
▁염두 에
▁한국도로 공사
@ob s.co.kr)
@obs.co.kr) >
1 일
2 7
@ yeong
a k
b le
i z
m e
w on
· 사
· 인사
’ 다.
▁ 를
가 기
개 사가
공 학
과 ,
과 거
권 과
권 은
그 래
금 으로
급 한
나 무
대 회
돈 을
동 일
동 으로
됐 다”고
드 라스
들 로부터
디 자인
라 .
력 원자력
리 핀
매 니
면 을
면 허
문 제
바 른
법 으로
별 ,
봤 습니다.
브 리핑
석 을
성 의
수 와
시 효
시 했다.
실 제
앤 쇼핑
었 다는
여 대
예 고
울 산
원 하는
윤 주
의 무
이 미지
저 녁
적 이라는
제 작
주 민
티 는
파 일
팩 트
하 길
학 기
함 과
항 을
회 도
▁이 르면
▁재택근무 자에
▁기 관은
▁기 점으로
▁수 사
▁전 무는
▁중 점
▁코로나 ’
▁한 데
▁한 미
▁보 관
▁보 직
▁정 규
▁자 제를
▁공 고
▁공 무
▁공 존
▁3 가지
▁기업 지원
▁경 신
▁‘ 모
▁‘ 필수
▁육아 의
▁“ 사회적
▁업무 망
▁근무 하지
▁근무 체제를
▁" 워라밸
▁비 자를
▁최 다
▁주 체
▁' 오피스
▁' 필수
▁조 율
▁조 기에
▁하 한
▁나 도
▁나 다.
▁원 이
▁고 집
▁육아휴직 ·출산휴가
▁유 로
▁서 서
▁서 소문
▁신 혼
기업 인
▁내 수
▁않 다”고
▁개 의
▁없 던
▁해 본
▁5 00만원
▁강 일용
▁의 문
▁사용 해야
▁사용 률이
▁시행 되면서
▁회사 인
▁영 통
▁높 음
▁추 석
▁우 아한형제
▁불 분
▁특 유의
▁매 번
▁8 0만
▁S DP
▁올 리고
▁올 림픽
▁세 트
▁사무실 도
▁재 취업
▁재 검토
▁7 4
▁7 만
▁7 명
▁확대 와
▁확대 되는
▁확대 한다는
▁환경 은
▁환경 상은
▁판 명
▁급 식
▁건 전
▁사회 적으로
▁포 괄
▁관계 사
▁10 시부터
▁9 6
▁SK 는
▁SK (주)
▁고용 유지
되는 데
▁데 는
▁줄 인
▁이용 하고
▁이용 자의
▁협 력을
▁제도 화
▁발생 에
▁계획 도
▁종 로
▁이어 ,
▁이어 간다.
▁늘어 남
▁△ 일
▁방역 작업을
▁과 로
▁미국 은
▁양 평
▁중소기업 들은
▁정보 시스템
▁온라인 을
▁디 스크
▁연장 될
기관 이
▁출산 율이
▁허 락
▁법 안을
▁30 인
그룹 통화
▁적용 을
▁심 한
▁심 리적
▁추가 해
▁협업 할
▁화상회의 와
▁박 원
▁박 차를
▁리 드
▁보고 는
▁구성 됐다.
▁11 5
▁갖 출
▁시장 도
▁확인 된
▁스마트 워킹
▁않는 다고
▁장기 근속
▁형 식
▁형 식으로
▁폐쇄 하는
▁지속 되면서
▁손 잡
▁1년 의
▁측 의
▁삶 이
▁집중 도
▁집중 하기
▁호 환
▁호 황
▁마스크 와
▁업체 의
▁걸 리는
▁현대 엔지니어링
▁현대 중공업
▁그러 다
▁허용 하겠다고
▁분석 도
▁비용 절
▁임신 한
▁누 리고
▁방문 자
▁( 서울
▁경영 을
▁홈 앤쇼핑
▁기대 할
▁준비 할
▁성장 하고
▁로 스쿨
▁이동 하는
▁드 물
▁국민 이
▁우선 순
▁확보 ,
▁중국 에서
▁끝 내
▁단계 에
▁출시 를
▁300 여명이
▁조성 된다.
▁기본 으로
▁"재택근무 는
▁임금 감소
▁분산 해
▁분산 근무를
▁D X
▁트위터 의
▁머 신
▁날 이
▁부분 적으로
▁조정 했다.
▁자가 진단
▁유연근무제 는
▁일상 의
▁노동자 들은
▁s h
▁전화 나
▁않았 지만,
▁컴퓨터 로
▁많아 지면서
▁은행 은
▁몰 라
▁일정 에
▁일정 한
▁1회 로
▁사용자 와
▁착용 하고
▁보험 회사
▁29 일부터
▁미래 통합당
▁차단 하고
▁장점 은
▁울산 시
▁논의 를
▁논의 했다.
)’ 가
▁4월 까지
▁통상임금 에
▁고용노동부 와
▁개학 을
▁출장 과
▁안내 를
▁스마트워크 를
상황 이
▁종사 자가
▁기관 의
▁인상 된다.
▁인원 도
▁이내 의
▁준수 해야
▁전원 합의
▁돕 고
▁6개월 간
▁동기 보다
▁하겠 다는
▁송 도
▁라이 트
▁보여 준다.
▁영화 .
▁밖 에서도
▁밀접 한
▁부정 수급
▁예산 이
▁두기 를
▁가사 근로자
자녀 돌봄
at ure
▁복직 을
▁벗 어난
(20 21
▁넥슨 도
▁2015년 부터
▁택 했다.
▁정보통신 (IT)
▁자세 로
▁e un
▁얼마 든지
▁갖춰 진
▁여행 을
▁책상 에
▁붙 여
▁이른 다.
▁‘코로나19 ’
▁모집 한다고
▁U SB
▁실리콘 밸
▁사라 진
▁2회 로
▁나가 겠다”고
▁내놓 았다.
▁괜찮 음
▁끊 김
▁당국 이
▁120 만
▁회계 법인
▁상담사 들의
▁매출액 이
▁놀 아
▁청와대 는
▁J T
▁출산휴가 와
▁샌 드
▁완료 했다.
▁특허 청은
▁발굴 해
▁낮추 고
▁탑재 했다.
▁방역당국 의
▁쪽 으로
▁상업 용
▁CNBC 에
기구 인
▁독려 하고
▁y j
센트 럴
▁믿 고
신청 을
▁실질 적으로
(주 심
▁업무지 구
▁롯데쇼핑 은
▁갈등 이
▁옆 에
기능 을
▁테크 놀로지
구청 장은
전환 형
▁품질 을
▁유일 하게
▁내렸 습니다.
▁높인 다.
▁뛰어 넘
▁삼성SDS 는
▁까 다
▁춘 절
▁루 틴
▁들여 다
해보 상
▁같아 요.
남녀 고용평등법
▁복잡 한
▁중앙재난안전대책본부 (중대본
▁기초생활수급 비를
▁모범 적으로
고속 도로
ul @asiae.co.kr
▁주주 총
▁보맵 은
▁코스 피
▁셀트리온 그룹은
▁한화생 명은
▁위기경 보
▁떠올 랐다.
▁로이터 통신
▁소정 근로
▁IM F
day 72
▁관측 이
▁턱 없이
▁파격 적인
nam .com
▁웰 스파
▁스트레 칭
▁폭발 적으로
▁2만2 297
▁포트 폴리오
▁네덜 란드
▁IT(정보 기술)
바이에 린
▁시나 리오
▁15만9 15
▁zero @ajunews.com
▁sunny day72
@yeong nam.com
드라스 체크
▁전원합의 체
( 김
( 콜센터
( 외부
. go
2 5년
3 .
3 000
8 2
8 3
@ mun
C M
G 넥스
H O
H R
P T
R I
T 를
V D
d w
l y
s @hankyung.com
· 확
· 지배구조
” 라면서
▁ Y
▁ 벨
▁ 라고
▁ ri
・ 재택근무
가 와
가 량이
개 학
경 정
계 에
과 에
관 과
구 요
그 러
기 념
나 ,
나 도
나 가는
넷 마블
년 째
뉴 딜
담 배
대 사
동 호
됐 다"고
됐 지만,
된 다"며
들 고
듯 이
르 타
목 민
박 한
반 의
받 았
방 에
변 경
보 단
브 랜드
생 을
서 류
서 의
선 기자
스 티
시 에서
식 사
어 ,
얼 굴
엔 (약
역 과
역 량
연 기
원 기자
위 안
의 사
인 상
인 에
일 까.
재 를
전 에
제 이
지 주
직 접
창 의
출 입
층 과
층 에서
트 의
티 이미지
페 이
하 였
해 지
해 지면
화 ·
▁이 기
▁기 금
▁기 후
▁사 과
▁대 행
▁대 리는
▁대 학교
▁수 납
▁수 여
▁1 세
▁1 순
▁시 도를
▁전 무
▁직 업을
▁가 면
▁일 하다
▁중 고
▁중 장
▁코로나 '
▁한 두
▁보 강
▁보 일
▁인 원에
▁제 4차
▁자 극
▁3 사
▁3 시간
▁3 교대로
▁‘ 남
▁‘ 하이브리드
▁육아 ,
▁“ 콜센터
▁“ 신종
▁“ 임직원
▁근무 하면
▁다 를
▁주 최
▁' 자
▁' 언택트
▁' 스마트워크
▁조 명
▁하 오
▁하 향
▁하 라는
▁나 눈
▁나 이
▁원 룸
▁육아휴직 도
▁따 져
▁연 예
▁그 럴
▁그 다음
▁내 릴
▁통 일
▁모 의
이라 서
면서 ,
면서 비스
▁오 염
▁소 식이
▁5 00만
▁생 애
▁확산 되기
하기 만
▁현 상을
▁현 저히
▁강 세를
▁마 쳤
▁의 욕
▁의 지가
▁사용 한다.
▁노 는
▁20 ~30
▁미 흡
▁미 쳤다.
▁받 고,
▁받 으며
▁집 이나
▁높 다고
▁더 블
▁6 년
▁6 0만원
▁사무 소
▁경우 에만
▁도입 하기
▁가능 하며
▁특 단의
▁차 세대
▁근로 조건
▁매 장을
직원 의
▁8 시부터
▁사업 도
▁사업 주는
▁시간 제
▁세 션
▁직장 생활
▁재 발
▁출근 한다.
▁상황 "이라고
▁정부 에서
▁급 히
▁화 요일
▁보안 과
▁제공 을
▁제공 해야
▁제공 하며
▁9 4
▁9 79
▁점 수는
▁체 제가
▁변 하고
▁고용 을
▁고용 형태
▁김 해
▁맞 돌봄
▁계획 에
▁계획 은
▁당 황
20 19년
▁A R
▁사태 는
▁검 찰
▁결과 도
▁신청 하지
▁대응 책
▁대응 방향
▁삼 일
▁재택 으로
▁역 사
▁역 설
▁금융 사가
▁과 감
▁되 돌
▁아니 고
▁아니 라고
▁아니 라는
▁대비 해야
▁산 책
▁LG 는
▁대기업 인
▁개인 과
▁비대면 ·
▁강화 와
▁출산 율을
▁크 고
▁열 지
▁허 리를
▁12 만
▁12 일(현지시간)
▁준 수를
▁총 동원
▁커 짐에
▁공간 은
▁C on
▁문제 와
▁수요 일을
▁결정 이
▁결정 했다”고
▁문화 는
▁화상회의 가
ne t
사업 자
▁플 레이
▁평가 는
▁평가 한
▁기능 ,
▁않는 다"고
▁중요 하다"고
제도 와
▁기술 에
▁향 해
▁워라밸 에
▁개발 하고
▁개선 과
▁전문 가는
▁합 격
▁합 리
▁업계 가
▁고려 해야
▁오피스 ,
▁오피스 는
▁삶 에
▁18 일까지
▁힘 듬
▁느 슨
▁참여 기업
▁균형 에
▁카카오 게임
▁제품 과
▁제품 인
▁영향 에
▁걸 릴
▁최고 경영
▁구글 과
▁허용 하기로
▁비용 과
▁권고 를
▁대부분 을
▁검토 하는
▁설치 하고
▁선정 했다.
▁효과 에
▁26 .2%
▁음 료
▁지적 을
▁인터넷 에
▁복귀 하는
▁복귀 하지
위원 장
▁장기화 할
▁확보 한
▁판단 할
▁분야 를
본부 장
▁대체 할
▁메신저 와
▁문서 보안
▁노력 하는
▁안정 화
▁계열사 와
▁보호 하는
▁장려 하는
▁연결 이
▁조성 해
▁3년 의
▁지금 의
▁모바일 로
▁부분 에
▁애플 ,
▁T 타워
위원회 가
▁벌 금
▁그렇 다.
▁목표 가
▁차단 하는
보고 서
▁꾸 미
▁불편 함이
▁5월 까지
▁안내 했다.
▁팬데믹 으로
▁마음 으로
▁실천 하고
상황 에
▁동참 하기
▁이내 로
▁참석 했다.
대표 는
▁모델 로
▁찾아 야
▁돼 서
▁돼 야
▁능 률이
교육청 이
▁질문 을
인증 을
▁쉬 워
▁문의 는
▁송 파
▁보여 준
▁와 중에
▁골 드
▁제기 된다.
▁보완 할
▁층 을
▁바뀌 었다.
▁선보 인
▁두기 가
▁공식 화
▁건설 사
am p
▁끌 었다.
▁주변 의
▁임시 로
▁아내 의
▁커뮤니케이션 을
▁수립 해
▁관련해 서는
▁사고 를
▁재개 했다.
▁주문 한
▁판교 에
▁양성 평등
▁3개 조로
▁48 .2%
▁시험 을
▁일환 이다.
▁다르 다.
▁후보 자는
▁디자인 ,
▁깨 고
▁끼 고
계약 을
▁대출 을
▁롯데지주 가
▁당연 한
▁구직 자들에게
▁생기 면
▁높아졌 다는
▁서류 를
▁팀즈 를
수준 을
▁완전 한
▁유도 하는
▁실질 적
▁달성 할
▁충족 한
▁와이 파
▁n ature
▁워싱턴 주
▁복리후생 ,
▁윈 도
▁이스트 시큐리티
▁바라 보는
▁메모 리
▁촉구 하는
▁러 시아
▁슈 퍼
▁흔 히
▁귀국 한
▁공모 전
▁‘집 콕
▁발언 을
▁4단계 로
억달러 (약
▁결합 한
드로 이드
▁수직 적인
▁소멸 시효
▁정부세종 청사
▁보건복지 부
▁꼬 집
▁문자 메시
▁합계출산 율은
계열 사
▁탁 월
내부 망
▁샤 워
▁통증 이
▁뉴욕타임 스(N
hw a.com
▁프로모 션
▁긴밀 한
▁헤이스팅 스
▁안타 까
▁여론 조사
▁일어 날
▁유한킴벌 리는
▁좋은기업 지배구조
▁즐겁 게
▁‘심각 ’
·가사 노동
▁IBK 기업
▁kej @dt.co.kr
▁박영 선
▁EN M
▁근무성적 평정
.go .kr
@mun hwa.com
' 인
( 환경
) 인
1 000
2 %
5 4
9 6
B )
N H
R E
R P
S W
U S
e b
h j
m in
~ 39
~ 17
▁ Z
▁ 곡
▁ 굴
▁ 닐
▁ 벤
▁ 족
▁ 칭
▁ 에서
갤 러
겠 다.
계 속
관 계가
국 에
군 에
까 봐
나 와
나 우
노 버
닉 스
단 ,
단 에
답 게
당 이
대 와
됐 으며
된 다
드 홈
들 께
라 ,
라 질
리 고,
릭 터
만 으로는
명 →
목 으로
미 가
민 영
배 포
부 품
불 필요한
사 히
사 이버
선 영
스 토리
슬 랙
시 도
시 청
시 에도
양 유업
업 이
없 음
였 지만
위 ,
으 려고
인 들이
있 음.
잔 디
전 시
점 이다.
제 '
주 거
지 서
캐 피
클 래
클 럽
테 고
테 인
평 양
하 신
활 성
회 관
▁이 러
▁있 겠지만
▁재택근무 에도
▁재택근무 ’는
▁재택근무 자에게
▁기 각
▁기 분이
▁사 법
▁대 고객
▁지 킬
▁수 반
▁수 습
▁1 이
▁시 너
▁시 킬
▁2 m
▁2 조
▁2 자녀
▁가 기
▁가 서
▁가 성
▁가 야
▁것 인
▁일 만
▁일 명
▁일 해
▁일 하며
▁중 증
▁한 숨
▁위 하고
▁제 휴
▁정 년
▁공 채
▁3 시
▁3 학년
▁경 보
▁상 주
▁상 징
▁‘ 반
▁‘ 워크
▁아 르
▁아 파
▁“ 내
▁“ 신
▁부 인
▁부 터
▁부 부는
▁근무 도
▁" 최
▁" 중소기업
▁" 향후
▁" 모든
▁비 난
▁비 말
▁비 추
▁주 에
▁주 제
▁' 대
▁' 오
▁하 려
▁하 청
▁하 려고
▁원 하지
▁원 거리
▁고 속
▁고 인
▁오 가는
▁오 디오
▁4 시
▁4 만5
▁말 로
▁5 대
▁5 50
▁지원 되는
▁확산 ,
▁확산 되자
▁안 좋
▁국 책
▁현 안
▁현 상은
▁의 향
▁사용 료
▁원격 진료
▁시행 은
▁만 날
▁필 리핀
▁근 데
▁집 의
▁집 콕
▁영 종
▁불 이
▁사무 처
▁사무 총
▁도입 해야
▁스 카이
센터 와
▁특 이
... 코로나
... 육아휴직
직원 을
직원 이
▁성 형
▁8 명
▁S A
▁금 액을
▁필요 하지
▁세 분
▁재 고
▁재 생
▁출근 했다.
▁출근 하도록
▁7 개
▁상황 ”이라고
▁운영 했다.
▁운영 하며
▁무 기
▁무 제한
▁원격근무 하는
▁화 제가
.com /
▁제공 했다.
보다 도
▁체 납
▁김 상
▁데 도
▁협 동조합
▁후 ,
▁워 낙
▁조치 하고
▁관리 자의
▁처 리를
▁방역 조치
▁대응 책을
▁삼 아
▁행 위를
▁들어 오는
▁규 제로
▁규 제가
▁재택 ,
▁과 연
▁게 재
▁두 는
▁두 산
▁지급 기업
▁다양 성을
▁다양 하다.
▁절 실
▁있어 ,
▁개인 위생
▁여성 들이
▁프로 토
▁효율 성에
▁청 취
▁월 세
하겠 다”며
▁트 리
▁수준 이었다.
▁법 적으로
▁피 하기
▁피 트니스
▁클라우드 ,
그룹 ,
▁문제 다.
▁잘 하는
▁잘 되어
▁PC 는
▁결정 에
▁추가 경정
▁급여 의
▁협업 과
▁변화 된
▁박 종
▁목 록
▁부서 의
▁유지 한
▁11 만
▁평가 에
▁갖 췄
.9 %에
▁중요 하다”고
▁추진 했다.
▁향 한
▁폐쇄 된
▁포함 되지
▁휴직 ,
▁SK텔레콤 도
▁손 으로
.6 %였다.
▁100 여
.3 %에
▁충 당
▁충 돌
▁연구 결과
▁16 일까지
▁휴가 는
▁정책 으로
▁18 만
▁빠 르
▁하나 를
(4 시간)
▁프로그램 에
▁업체 들의
▁허용 하고
▁허용 한다.
▁비용 ,
▁비용 도
▁권고 하는
▁형태 에
▁경영 정보
▁잡 는
▁홈 피스
▁감소 에
▁금지 한다.
▁기록 해
▁기록 하며
▁사례 다.
▁승 용
▁수도권 에
▁기대 했다.
▁공급 망
▁소통 하는
▁로 컬
▁지적 한다.
▁인터넷 용
▁복귀 가
▁네이버 도
▁나오 면
▁급증 에
▁확보 하는
▁싶 을
▁페이스북 과
▁페이스북 도
▁연봉 도
▁상태 가
▁독 자
▁코 엑스
억원 에
▁노력 할
▁장소 가
▁안정 적
▁위험 성이
▁버 튼
명) 과
공간 이
▁21 .2
▁환 자는
▁50 명
▁어렵 다고
▁D S
▁200 만원
▁200 1년
▁조정 해
▁애플 의
▁애플 이
▁출입 이
▁거주 지를
▁LG유플러스 ,
▁"코로나19 가
▁어디 에서
▁소비 가
▁소비 자들이
▁일정 이
▁벌 이고
▁미래 가
▁차단 한다.
▁파악 할
▁핵심 은
▁분리 된
▁j i
▁완화 해
▁본격 화된
▁알서포트 가
▁재택근무제 가
▁"이 런
▁학교 는
▁극복 하는
▁여파 에
▁마음 대로
▁집계 한
▁밀집 된
▁반영 된
▁전반 의
▁기관 에
▁3단계 에
▁“이 런
▁전날 부터
▁라인 은
▁가까 워
▁전용 면적
▁늘었 다
▁어린이집 ,
▁좋아 서
▁준수 할
▁유럽 과
▁얻 었다.
▁대유행 이
▁의심 증상이
▁골 프
▁밖 으로
▁평소 와
▁구조 조정
▁일시 적
▁세종 청사
▁시민 들의
▁자기 개발
▁세대 의
▁강력 하게
▁호소 하고
▁e 메
▁나타나 는
▁구체 적
▁드러 냈다.
▁최적 화
▁장비 와
▁올라 가
▁수익 률
▁현대모비스 가
▁d or
직장 맘
▁봉 사
▁캐 릭터
▁중이 거나
▁만족도 와
▁대중교통 을
▁팔 로
▁머물 고
▁중소·중견기업 이
!! !
교대 조
달라 "고
▁예외 적으로
▁리모트 미팅
▁통보 했다.
▁패키 지는
▁특허 청
▁떨어진 다는
▁전후 로
▁활발 하게
▁절차 가
▁조례 안
▁확실 한
~20 19년
▁웨 스트
▁대리 점
▁주재 로
▁추정 되는
▁화장 품
▁물류 창고
▁조항 이
▁케 어
▁사흘 은
▁맞추 는
▁상호 작용
▁겹 치는
▁딱 히
▁달러 (약
▁이름 을
▁작용 할
베이 도
현장 에서
▁인도 네시아
▁여기 서
▁텐 데
라스 틱
▁무급 휴직
▁성격 이
▁엄격 하게
▁헬스 케어
▁과장 급
마저 도
▁v s
남녀 고용평등과
▁야놀 자
▁웍스모바일 은
▁쟁 점
▁음악 을
▁점유 율
▁3~4 월
(복 수
▁손소독 제
▁애니 웨어
임대 주택
▁마사 지
▁주한 미
▁간소 화
▁주민등록 을
▁서면 으로
▁헤드 셋
▁공영 쇼핑
▁미래에셋 증권
▁촉발 된
▁LI G넥스
▁리모 트워크
▁정부원격근무서비스(GVPN )를
▁제목 의
▁노르웨 지아
▁후생 노동
▁코니 바이에린
▁탄탄 한
인포 섹
▁면밀 히
▁(서울 =뉴스1)
▁sunnyday72 @dt.co.kr
티이미지 뱅크
▁nature an
( J
( 경
( 재택근무
( 기업
( 원격
( BC
( 서울
( 부산
( 사장
( 오전
1 %)
2 만
3 4
7 4
7 %)
D B
G )
P M
T M
k g
o ne
u t
w an
· 신
· 실
· 태
· 기업
· 금융
▁ 칠
▁ 콤
▁ 퓨
▁ 핑
▁ 센트럴
감 치
개 편
결 혼
공 직
과 도
국 의
국 제공
균 열
냐 ?
네 시온
년 차
농 촌
뉴 욕
달 라는
돌 았다.
둘 러
드 림
드 립니다.
들 끼리
랜 섬웨어
렌 즈
령 이
로 선
리 더
물 인터넷
밀 레니얼
반 을
배 ,
변 이
복 귀
봉 쇄
불 이
비 로
소 리
소 시
수 선
스 커
었 을
연 대
연 습
오 롱
와 이
요 즘
이 게
이 더
이 면서
자 간
자 들을
졌 고,
즈 가
증 이
지 자체
진 의
청 에서
층 이
카 고
카 르타
탄 소
터 디
토 니아
투 스
파 수
피 해
하 느라
학 회
해 주고
했 었다.
형 으로
후 통
▁이 룰
▁이 스
▁이 형
▁있 기를
으로 만
▁재택근무 ’를
▁대 만
▁대 조
▁지 분
▁지 장을
▁지 사장은
▁1 은
▁1 명,
▁전 업
▁전 직
▁전 형
▁전 액을
▁가 비아
▁확 립
▁한 동안
▁보 냈
▁위 드
▁직원 인
▁정 무
▁자 카르타
육아 를
▁공 인
▁3 사는
▁경 과
▁상 여금
▁‘ 미
▁‘ 비
▁‘ 인
▁‘ 가족
▁‘ 아이
▁‘ 비상
▁‘ 라인웍스
▁아 우
▁“ 사
▁“ 상
▁업무 시스템
▁업무 망에
▁" 가
▁" 오늘
▁비 서
▁비 우
▁' S
▁' 가
▁' 다
▁' 재택
▁관 찰
▁관 할
▁하 여
▁원 심을
▁고 육
▁유 관
▁유 력
▁유 모
00 개
▁연 가
▁신 생
▁내 걸
▁내 기
▁구 민
▁구 속
▁도 약
▁실 감
▁개 정을
▁4 ,
▁4 분의
▁4 ~12개월
▁말 할
▁5 부
▁5 시
▁5 시까지
▁생 중
▁지원 책을
▁안 고
▁안 정을
▁계 층
▁사용 하던
▁시행 하고,
▁시행 키로
▁만 점
▁때 만
▁미 용
▁회사 ,
▁받 으면
co m
▁선 순환
▁영 수
▁높 이고,
▁확진 환자가
▁6 ,
▁불 고
▁불 어
▁도입 하면
▁스 루
▁가능 합니다.
▁남 겨
▁남 짓
센터 는
▁운 행
▁8 주
▁8 명이
▁같 아서
▁사업 으로
▁시간 적
▁시간 대에
▁교 사의
▁필요 해
▁재 차
▁출근 하게
▁상황 에도
▁상황 에서는
▁운영 도
▁외 모
▁서울 에
▁화 성
▁사회 관계
▁증가 세가
▁휴 네시온
▁앞 선
▁사람 인이
▁발생 한다.
▁발생 하기
▁각 별
▁알 코올
▁당 신
▁온 전히
▁기간 에는
▁함 .
▁관리 도
▁신청 해
▁△ 개인
▁대응 과
▁대응 은
▁명 만
▁재택 이
▁못 하게
.5 일
▁응 시
▁거리두기 ’를
▁여성 과
▁여성 들의
▁정보 에
▁모두 를
▁메 르
▁강화 하기
기관 과
기관 으로
▁15 만
▁약 간
▁문제 점을
▁본사 로
생활 과
▁롯데 는
▁해당 된다.
▁구성 된다.
▁확인 한
▁개발 하는
▁지속 되고
▁세계 에
▁손 님
▁100 만원
▁낮 다.
▁쓰 레
▁KT 와
▁13 0
▁충 격을
▁조직 과
▁조직 에
▁밀 키트
▁질 적
▁대구 에서
업계 에서
▁집중 력
▁집중 하는
▁집중 하고
▁집중 력이
▁매출 도
▁눈 앞
▁균형 )을
▁호 칭
▁계속 할
▁카카오 의
▁동안 은
▁성과 금
▁방안 ,
▁책 정
▁된 다”며
▁컨 소시
▁E RP
▁산업 단
▁형태 는
▁노트북 이
▁높아 져
▁투자 에
▁감소 ,
▁금지 하기로
▁분위기 는
▁효과 는
▁아빠 들이
지역 추진단
▁내부 에
▁내부 에서
▁병 원에
▁나오 기
▁인증 제
▁돌봄 ·가사노동
▁순환 근무를
▁방지 하는
▁장소 로
▁개정 으로
▁0 .4
▁/ 박
▁연결 돼
▁겪 으면서
▁50% 까지
▁대책 으로
▁중앙 행정
▁여러 분의
▁사옥 에
레이 크
▁처리 했다.
▁임금 은
▁철 학
▁격상 되면서
▁사이 의
▁지시 하는
▁미만 으로
▁조정 ,
▁자제 해
▁모습 으로
▁많아 진
달러 를
▁일주일 씩
▁A씨 에게
▁항 소
▁꾸 려
▁논의 할
개발 기구
▁부여 하고
▁게임 사
▁만들어 야
▁차지 한
▁2만 명
사무 직
▁불안 한
~2 000
자로 서
▁회식 ,
00여 명이
▁사진 은
▁늘었 지만
▁시설 에
▁하겠 습니다.
▁무엇 인가
▁가족친화 제도를
▁좌 우
▁체계 적으로
▁뜻 한다.
it h
▁입주 민
▁입주 사
(8 6
▁편리 하다.
▁층 에서
▁지켜 지지
▁주장 도
▁소상공 인의
▁1명 당
▁스마트폰 ,
▁스마트폰 을
▁배우 자가
▁줌 시터
(20 20년
▁익 명
▁아동 의
적이 며
▁아내 는
▁줄어들 고
▁KB 금융
▁측면 도
▁측면 이
▁품 목
주시 립
▁d ew
▁탈 출
..." 재택근무
▁여건 상
▁60 세
▁60 cm
유연 한
▁삭 제
▁대전 시
▁다르 지만
▁지키 고
▁머물 렀다.
te le
▁시행해 왔
▁진정 한
▁3만 명을
▁경찰 은
▁암호 화된
▁길어 진
▁통근 버스
▁영아 수당
▁영아 수당을
달라 ”고
▁신뢰 를
▁노출 을
▁w ork
▁더존비즈온 의
▁노무 비
▁‘20 19년
▁노사 정
▁줄어든 다.
▁배송 도
▁노조 가
▁정신 건강
▁탑재 해
▁정확 하게
▁접수 된
▁바꿔 야
▁잔 디
▁띄 는
▁중소벤처기업 부
▁추정 된다.
kim @heraldcorp.com
▁신한은행 ,
▁출연 해
▁국방 부는
▁요소 가
▁회원 사
▁법안 이
▁유명 한
▁유명 하다.
▁자발 적
▁시급 한
▁금융감독 원
▁저출산·고 령
협력 개발기구
▁'리모트 미팅
▁SK브로드밴 드는
▁김지 선기자
▁하나투어 는
ver @etnews.com
·여 가
▁시키 는
▁밝혀 졌다.
▁소식 에
▁자부 심을
분산 근무
면접 수당
▁‘그 렇
▁시차출근 제를
(사진 )
▁운전 면허
▁클래 스
지속 가능
(상한 액
스테 이트
▁“다 만
▁의뢰 해
ag e
▁만성질환 자
▁생명 보험
▁한국수 력원자력
▁대법관 )는
▁이코노미 스트는
▁모은 다.
어촌 공사
▁VPN(가상 사설망
(자 부담
국제도 시
▁신도 림
▁특수고용 직
▁세액 공제
▁워터 마크
▁한해서 만
▁모으 고
▁식료 품
(외부 망
▁ri ver@etnews.com
▁삼일 회계
amp ;
▁아르 바이트
▁추가경정 예산
▁컨소시 엄
▁dew kim@heraldcorp.com
( 남
( 부
( 내부망
1 개
4 월
5 G
6 일
7 %
9 8
9 세
; ;
W ork
e st
h ye
o i
p lace
s k
t op
· 하
· 기술
· 원격
” (
▁ 됨
▁ 롭
▁ ..
▁ al
▁ 됨.
간 접
감 지
건 축
구 에서
기 록
나 게
내 역
넷 은
니 ,
니 는
대 고
데 도
됐 을
되 지는
례 를
리 던
리 스트
림 의
말 로
민 지
배 나
버 렸
법 ,
법 ’
비 율
상 우
생 명
생 물
서 트
서 류를
소 벤처기업
손 보
수 정
슈 퍼
스 프
스 에서
실 도
안 내
알 서포트
어 붙
억 위안
언 스
었 다
여 부를
오 지
워 터
원 칙
유 를
전 용
접 근
졌 다
졌 지만
주 화
주 시는
중 간
찌 감치
창 원
채 움
처 에
촉 진
치 가
커 넥
퍼 브
포 메이션
하 네
해 지자
호 가
회 선
회 선을
다. ..
▁이 럴
▁이 송
▁이 다.
▁이 곳에서
▁있 다”는
▁재택근무 한다.
▁사 정이
▁지 구
▁지 친
▁지 수가
▁수 강
▁1 심
▁1 .6
▁1 ·2
▁시 ᆞ
▁2 .2
▁전 일(8
▁등 급
▁직 책
▁가 점을
▁가 트너
▁것 에서
▁것 인가
▁일 찌감치
▁중 학교
▁인 스타
▁위 기관
▁제 언
▁제 조사
▁제 70
▁정 당
▁정 밀
▁공 장은
▁3 종
▁경 리
▁경 상
▁경 보가
▁‘ 원격
▁‘ 성과
▁‘ 남성
▁아 낄
▁“ 수
▁“ 현
▁“ 출산
▁“ 기존
▁“ 오늘
▁부 러
▁업무 량
▁근무 해야
▁근무 하며
▁" 다
▁" 이는
▁" 출근
▁" 국내
▁비 필수
▁주 저
▁주 의를
▁주 어지는
▁주 5일
▁' 2
▁' 브
▁' 해
▁' K-비대면
▁조 립
▁조 회가
▁하 늘
▁하 자
▁나 흘
▁출 력
▁원 내
▁원 )를
▁고 백
▁고 개를
▁육아휴직 통계
▁유 니
▁유 학생
00 명에
▁서 피스
▁연 기로
▁신 문은
▁그 녀
▁내 야
▁도 래
▁도 교육청은
▁모 자
▁않 기로
▁없 는데
▁오 지
▁오 해
▁여 주시
▁감 당
▁감 동
▁임 원은
▁위해 ,
▁4 년까지
▁말 도
▁5 ∼
▁5 급
▁발 빠
하기 를
▁안 되
▁강 하게
▁마 드라스체크
▁계 정을
▁사용 은
▁사용 하도록
▁사용 자를
▁원격 수업을
▁20 년
▁20 여
▁만 난
▁많 기
▁많 을
▁장 면
▁회사 에서는
▁늘 렸
▁영 세
▁영 입
▁바 베이도
▁적 잖
▁높 기
▁높 고,
▁6 년까지
▁경우 라면
▁감염 경
▁도입 한다고
▁도입 했다고
... 전
▁단 점이
▁근로 를
▁성 취
▁8 .7%
▁S SD
▁사업 계획
▁금 요
▁본 점이
▁올 바른
▁필요 에
▁반 입
▁재 단
▁7 ,
▁7 명은
▁확대 해야
▁확대 되면서
▁무 더
▁판 토
▁서울 에서
▁원격근무 자
▁화 두
▁증가 가
▁실시 를
▁실시 하게
▁포 상
▁포 착
▁10 세
▁9 8
▁9 개
▁점 수가
▁변 환
▁좋 습니다
▁때문 이라는
▁SK (주
▁SK 인포섹
▁김 종
▁김 철
▁줄 였다.
▁중소 ᆞ
▁저 는
▁제도 에
▁사람 에
▁최근 엔
▁맞 고
▁남성 들의
▁계획 하고
▁한국 MS
▁한국 무역
▁입 소
▁입 지
▁초 봉
▁기간 과
▁I n
▁방역 지침을
▁방역 물품
▁삼 고
▁규 칙을
▁재택 과
▁금융 사의
▁금융 위원회는
▁되 기도
▁산 하기
▁전환 은
▁아이 돌봄
▁LG U+
▁나타 날
▁시작 하는
▁P L
▁했 다면
▁했 으며
▁거리두기 로
▁대기업 들도
▁예정 "이라며
▁것이 며
▁것이 며,
▁정보 의
▁정보 화
▁프로 북
▁대표 의
▁고객 들의
▁강화 하기로
▁구축 하고,
기관 ,
노동 조합
▁허 리가
▁감염증(코로나19) 에
▁12 일까지
▁가족 관계
▁25 .5%,
▁생각 하지
▁15 분
▁C 씨는
▁출퇴근 과
▁투 자는
▁마련 된
▁급여 와
▁뒤 에
▁뒤 늦게
▁근로자 들을
▁학 기
▁교육 은
사업 에
▁플 라스틱
▁IT ·모바일
▁롯데 그룹은
▁롯데 케미칼
▁식 탁
▁유지 하면서
▁구성 원은
▁평가 도
(3 월
▁경제 에
▁경제 매체
▁적극 적
▁확인 ,
▁제외 됐다.
▁제외 하면
▁발표 를
▁워라밸 은
▁형 평
▁개발 했다.
▁폐쇄 에
.1 %를
▁부모 를
▁선택 을
▁등이 었다.
▁사업장 으로
▁전문 직
▁손 님이
▁우려 하는
▁우려 하고
▁복지 혜택
▁외부 에서도
▁밀 려
▁번 아웃
업계 에서는
▁균형 )
▁카카오 가
▁동안 의
▁건강 이
▁프로그램 ,
▁프로그램 으로
▁정도 는
▁정도 만
▁걸 맞
▁첫 해
▁방안 에
▁분석 됐다.
▁누 워
▁노트북 은
교육 을
▁제한 ,
▁제한 돼
▁제한 적으로
▁감소 를
▁설치 할
▁설치 하지
▁토 끼
▁이전 에도
▁의무 를
근로 제를
시설 에
▁아닌 ,
▁성장 과
▁성장 했다.
▁성장 하는
▁드 리
▁나오 자
▁인증 마크
▁보인 다고
▁판단 하는
▁엄 두
▁엄 중
▁돌아 왔
▁싶 어도
▁면 적을
▁코 너
▁코 오롱
▁단축 을
▁판매 하는
▁장려 하기
▁3개월 은
▁연결 되는
▁겪 을
▁위치 정보
▁50% ,
공간 의
▁우수 사례
▁고민 해야
▁G TX
▁있었 습니다.
▁있었 는데
▁있었 는데,
▁사옥 이
▁바이러스 의
▁“재택근무 로
▁나눠 쓸
▁기회 도
▁임산부 를
▁D RM
▁통상 적인
▁시차 를
▁사이 에서는
▁국회 에
▁s t
위원회 에서
▁많아 지고
▁잠 잠
▁현실 이
▁가입 한
▁공격 은
in .com
▁필요하 다”며
▁뉴욕 주는
▁청년 들이
▁요구 했다.
▁요구 하고
이었 지만,
▁주목 된다.
▁삼성전자 에
▁도시 락을
▁점검 한
)’ 로
(6 3
▁30% 가
▁30% 를
▁친 절
▁1월 로
▁업종 의
▁출장 이나
협회 ,
다"면서 도
▁여파 가
▁팬데믹 이
▁돈 은
▁h ttps://
▁공개 시스템
▁경기 ,
▁인상 하고,
▁업무용 (내부망
▁동참 을
▁화면 에
▁침 실
▁늘었 다는
▁점심 시간을
▁이메 일과
하다 며
▁유럽 ,
▁W EHAGO
▁스타트업 이
)' 이
▁모임 ,
▁원칙 이다.
▁베 이스
▁제시 하는
000여 명이
▁문의 하면
▁진단 을
▁진단 키트
▁골 반
카드 를
여성 의
▁구조 조
▁하락 한
▁이렇 다
▁뛰 어나
리스 토
▁배우 는
▁늦 은
▁이외 의
연구소 가
▁지역사회 에
▁위협 에
▁개최 한
@k yeong
▁신설 해
▁종식 된
적이 어서
▁공장 에서
"... 재택근무
▁녹 음
▁개인정보 보호
▁매뉴얼 에
.7%) 이
▁수익 을
▁35 ~39
▁학생 들은
▁d ong
타임 데스크탑
▁명령 했다.
▁중이 며
▁회복 을
▁저커버그 는
▁통제 하고
▁상담사 들이
▁다르 지
▁12개월 이
비용 을
▁기여 하고
▁에스 지
▁에스 케이
▁실리콘밸리 의
aaS )
▁연동 해
▁팀원 들과
▁경영진 이
▁배려 하는
▁t o
▁t ru
▁편집 국
▁분류 해
▁교수 =
▁3회 로
▁CNBC 는
▁쏟 고
▁인간 관계
▁띄 어
(O ECD
▁줄었 다고
▁돌파 했다.
▁효율적 이라는
▁협의 해
▁연락 을
▁물류 센터
▁공포 가
79 %
▁트래픽 을
76 65
▁자리잡 을
▁떠오 른
프레 시
▁기한 을
▁갑작 스럽게
▁국민연금 공단
▁칼 퇴
▁이로 써
▁체결 했다고
▁대해서 만
▁테스트 를
▁비판 이
▁이벤 트를
▁시리 얼
▁199 0년대
▁용이 한
▁유동 인구
▁전수 조사
▁손해 배상
▁입법 예고
▁"아 직
▁존중 하는
▁기초생활수급 비
·사회 ·지배구조
제조 업
▁정의 당
·소 상공
▁옵 션을
▁뿌 리
▁헌법 재판
▁위기경 보가
▁융 합
▁자부 심
▁왕 복
▁폴 라리스
▁마감 했다.
▁의왕 연구소
ff ice
▁김수 영
▁현대·기아차 는
▁물리 적으로
▁유증상 자
▁지능 형
(Work- Life
▁잦아 들
▁깜 짝
테크노 밸리
배우 자
▁전공 의
▁슬기 롭게
▁스케 줄
▁볼보 자동차
▁산업재 해보상
▁자릿 수
▁네오 위
청소 년
터미 널
▁해명 했다.
▁크리에 이티브
her e
▁펀 드는
▁스탠퍼 드대
▁naturean @dt.co.kr
국제공 항
▁생중 계
▁전일(8 시간)
▁인스타 그램
▁제70 조
@kyeong in.com
& A
& amp;
( 고
) 나
) 씨도
/ 사진제공=
2 개
3 65
6 개
6 개월
C I
N A
S O
X A
a b
k ly
l l
l an
m oon
o @hankyung.com
s @donga.com
v ice
· 아
· 조
· 지원
· 원격근무
· IT
· 과학
· 현대
▁ ↑
▁ 샘
▁ 틸
▁ re
감 ,
강 도가
거 리가
겠 느냐
경 철
고 요.
기 영
기 기를
남 취재
넥 슨
단 지,
대 유행
됐 다”며
되 지만
등 학생
디 아
라 시
랫 동안
레 이터
려 운
력 도
만 4
맞 돌봄
반 도체
발 생
발 표
버 린
벤 션
부 대
불 가
블 록
서 부
서 피스
서 린빌딩
세 이
셔 서
수 령
수 산부
스 모
스 퀘어
스 포메이션
신 기
쓰 고
알 리오
어 져
연 계
연 맹
연 합뉴스
였 고
오 면
온 다.
외 국
운 드
으 니까
으 려는
으 려면
음 료
이 므로
인 증(
일 수
일 기자
있 다
자 본
작 년
장 학생
장 소를
재 료
재 해
전 이
전 (CE
조 사는
주 도
즈 마
즈 헬
지 던
지 연
지 거나
진 행
쪽 에
쪽 으로
청 와대
총 리
취 소
치 기
카 톡
통 화를
투 명
피 파이
하 에
항 에
현 아
현 정
협 동조합
화 하기
회 로
▁이 격
▁이 사회
▁있 더라도
▁재택근무 /
▁재택근무 한
▁재택근무 자들이
▁기 사는
▁기 기에
▁사 장,
▁대 량
▁대 목
▁대 안을
▁수 술
▁수 위를
▁1 곳
▁1 을
▁1 19
▁1 .2
▁1 .3
▁시 까지
▁시 점에
▁시 카고
▁2 심
▁2 심은
▁2 .9%는
▁확 고
▁확 신
▁일 수를
▁중 대한
▁보 태
▁보 장을
▁인 류
▁인 문
▁정 량
▁공 사는
▁공 지가
▁공 문을
▁3 곳
▁3 억
▁3 000여
▁기업 에서는
▁기업 규모
▁경 계를
▁‘ S
▁‘ 나
▁‘ 무
▁‘ 신
▁‘ 어
▁‘ 클라우드
▁아 리스토
▁“ 2
▁“ 더
▁“ 직장
▁“ 임신
▁업무 시간이
▁근무 방식을
▁" 근무
▁" 이를
▁" 서울
▁" 클라우드
▁" 기존
▁방 과
▁다 닌
▁다 리
▁다 리를
▁다 국적
▁' 미
▁' 착한
▁관 공
▁관 저
▁조 작
▁조 화를
▁하 든
▁하 버
▁하 기도
▁나 가지
▁나 경철
▁고 생
▁고 등학교
▁육아휴직 수당
▁유 례
▁유 포
▁유 목민
▁서 부
▁서 둘러
▁연 평균
▁신 중
▁내 각
▁구 부
▁도 요타
▁모 빌리티
▁개 를
▁없 더라도
▁소 지가
▁소 수의
▁소 중한
▁감 점
▁4 .
▁5 ~10년
▁생 일
▁지원 해야
▁지원 한다고
▁확산 하기
▁안 동
▁안 드로이드
▁국 세
▁사용 하게
▁거 절
▁거 대한
▁문 책
▁시행 될
▁시행 해야
▁시행 되고
▁미 쳤
▁동 탄
▁영 화를
▁적 당
▁결 코
▁6 000명
▁6 ~9
▁우 버
▁또 다른
▁사무 관
▁감염 으로
▁감염 관리
▁남 동
... 코로나19
▁매 매
직원 들이
▁기자 ]
▁같 다"며
▁시간 당
▁시간 으로
▁교 원
▁올 린다.
▁7 개월
▁정부 부처
▁복 수
▁복 장
회의 ,
▁판 로
▁급 락
▁급 하게
▁사회 는
▁사회 에서
▁증가 ,
▁증가 하고,
▁포 토
▁관계 부처
▁10 개월
▁점 으로
▁좋 지만
▁때문 ”이라고
▁관련 이
▁이용 자를
▁제도 ,
▁제도 인
▁발생 했을
▁간 호
▁취 지에
▁남성 보다
▁한국 거래
▁국내 기업
▁입 원
▁입 점
이나 ,
▁초 유의
▁A ny
▁A PI
▁관리 직
▁방역 조치를
▁대응 방안을
▁명 백
▁재택 ・
▁이번 엔
▁과 반
▁못 한다.
▁되 자
▁요 양
▁요 일
▁아니 지만,
▁미국 에서는
▁게 이
▁아이 폰
▁회의 록
▁시작 한다고
▁지급 ,
▁지급 하고,
▁지급 하도록
▁P 씨는
▁물 리적인
▁양 질의
▁중소기업 에서
▁콜센터 와
▁것이 고,
▁대표 ,
▁비대면 (
▁디 렉
▁강화 하고,
▁공무원 들에게
▁공무원 연금
▁삼성 ·LG
▁작 품
▁출산 ·육아
▁채 무
하겠 다.
하겠 습니다.
▁응답 자가
▁트 도
▁공간 ,
▁공간 도
▁생각 했다.
▁30 ~
▁30 세
▁C loud
▁폐 기
▁마련 ,
▁마련 된다.
▁사내 에서
▁결정 하고
▁협업 ,
▁박 탈
▁교육 이
사업 이
▁넘 는다.
▁부서 와
▁식 권
▁유지 보수
▁공공 장소
▁경제 위기
▁경제 협력개발기구
회사 무
▁추진 하겠다고
▁부모 육아휴직
▁개선 할
▁방침 이
▁방침 ”이라고
▁휴직 에
▁인사 고
▁인사 처
.6 %는
▁쓰 던
▁상담 사의
▁부담 은
▁1년 을
▁1년 으로
▁외부 에
▁측 에
▁업계 에선
▁창 조
▁정책 들을
▁없이 도
▁참여 자
▁계속 될
지원 대상
▁디지털 화
▁프로그램 인
▁시대 에도
%가 량
▁업체 를
▁걸 음
▁강조 한다.
▁허용 해
▁책 을
▁비용 부담
▁비상 조치
▁컨 트
▁권고 에
▁누 리는
▁노트북 에
▁살 피
▁플랫폼 인
▁제한 하고,
▁투자 할
▁잡 담
▁잡 았
▁잡 은
▁금지 하고,
▁토 플
▁돌입 한다고
▁선정 할
▁기록 하고
근로 자가
▁공급 을
▁백 업
▁N A
▁N C
▁로 드
▁로 스
▁이동 식
스코 스모
▁키 보
▁급증 하자
▁확보 해야
▁면 세
▁끝 날
▁활동 도
▁설문 에
▁방지 하고
▁코 칭
▁단축 은
연구 원이
▁장소 ,
▁장소 의
▁0 .5
▁버 리고
▁연결 을
▁관심 과
▁위치 가
▁위치 추
▁그룹 의
▁대책 에
▁3년 까지
(I T
▁각각 의
▁있었 다”고
▁있었 고,
▁50 여
▁사옥 의
▁D 램
▁표 정
▁200 2년
▁머 리를
▁활성화 에
▁국회 에서
▁일상 적인
▁공동 근로복지
▁소속 된
▁않았 다”고
▁컴퓨터 에
▁부족 해
▁많아 질
▁잠 을
▁몰 랐
▁갈 아
활동 이
▁현실 적인
▁1회 에서
정책 국장은
달러 의
다”면서 도
▁40 여
▁차단 할
▁도시 의
▁경쟁 사
▁경쟁 률을
▁항 공사
▁언제 까지
▁부여 했다.
▁고용보험 에
▁상품 은
▁불편 함
▁완화 에
(6 0
▁9월 로
계획 (BC
▁"이 미
뿐만 이
▁포스코 ,
▁웹 오피스
▁업종 을
▁모니터 는
▁실적 에
▁가능하 지만
▁풀 타임
▁인상 한다.
▁과정 에
▁과정 이
▁존 경
▁동료 와
▁코로나바이러스감염 증
▁수당 이
▁방송 에
▁해소 를
▁80% 가
▁NHN 도
)' 가
▁모임 도
▁모임 은
▁트렌드 가
▁트렌드 마이크로
▁편의 시설
▁신한 금융
▁의무화 하는
▁소재 한
▁앉 는
▁카페 ,
자에게 는
▁층 에
상담 을
▁예산 으로
▁즐 기
▁광주 시
▁신속 하고
▁선보 여
▁선호 도가
▁육 체
▁소상공 인을
▁시민 을
스럽 고
▁식당 을
▁금융회사 가
(20 1
▁b l
▁R emote
▁휴식 의
▁설정 해
▁녹 색
.6%) 이
▁창의 적
▁보이 자
▁이해 가
▁아무 도
▁영구 히
▁재택근무· 온라인
▁출생 한
▁구현 했다.
관계 자는
▁범위 가
m2 ,
▁학생 들이
▁40% 에서
▁맛 있음
▁지원금 은
▁위반 한
▁어려워 진
▁구분 이
▁발열 체크
▁자연 스러운
▁여유 롭게
▁상관 없
▁기업들 ,
▁사유 에
▁카카오톡 을
▁이슈 를
▁옮 기는
▁절감 할
▁사원 들의
▁단말 기를
▁실태 조사를
▁적합 하다.
▁놀 란
▁진정 될
▁끼 니
로우 대
▁피로 를
▁에스 토니아
▁페 이지
▁1, 5
▁연령 대
▁만나 는
▁체온 계
▁전파 를
대한 민국
▁대우 가
▁서초 구는
▁선언 한
▁창업 자
▁채택 한
▁분류 돼
▁납 품
▁2000 만
▁단절 을
▁자금 이
▁3회 에
▁주식 회사
▁간담 회에서
▁업무지 속
▁매니 지먼트
▁감안 하면
▁연락 이
▁여성가족 부
▁갈등 을
▁용산 구
▁케 이블
▁요소 로
is h
▁소셜 네트워크
카카오 톡
▁갑작 스레
관광 공사
▁SNS 를
▁체결 했다.
(17 .2%)
▁분명 히
▁대도시 의
▁엄격 히
▁반일 (4시간)
~6 월
▁춘 제
▁ch a
▁불러 온
▁냉 장
▁일각 에선
▁연방 정부
스쿨 링
▁실효 성을
▁선별진료 소에서
▁다음주 부터
▁가산 점을
▁SK건설 은
▁각광 받고
▁돌려 보
▁애니 메이션
▁김현 주
▁휴대전화 로
▁발간 한
▁김용 범
▁장단 점을
▁합산 해
▁녹취 록
▁뱅크 러
(Work- life
▁안면 인식
▁소비자가 전(CE
광역 시
oc ial
▁상고 심에서
▁회식· 모임
▁주인 공
▁IT인프라 를
▁해양 수산부
▁넓히 고
▁캘린더 ,
▁톡 톡
▁강민 석
▁견디 게
▁런 던
▁업무· 성과관리
esk top
잖아 요.
▁최하 위
▁민주 노총
▁김은지 기자
▁위함 이다.
▁구· 군
▁전자투 표
▁대용 량
▁한상 혁
▁제15 차
▁곤두 세
▁박원 순
▁골드 만
▁인터넷용 (외부망
남취재 본부
즈헬 퍼
▁아리스토 텔레
▁경제협력개발기구 (OECD
▁인터넷용(외부망 )으로
" 는
( 정
( 워라밸
0 1
1 일부터
4 명으로
6 6
7 3
A T
I CT
L O
P U
f t
p t
s c
u p
u si
w here
y o
· 광
· 보
· 복
· 오
· 재택
· 페이스북
· 비대면
· 개발
· 영업
· 전자
· KT
· 온라인
· 협업
· 이용
’ 고
∼ 오후
▁ +
▁ 떼
▁ 론
▁ 텔레
▁ 랜드
갑 니다.
강 원
것 이
게 티이미지뱅크
겠 다"며
계 의
국 에서
규 기자
긴 급
네 티
높 은
단 순
단 이
대 리
도 에서
동 부
된 다”며
디 는
라 서
란 다
러 가
력 에
력 의
리 라
림 을
망 분리
먼 밀
물 로
미 터
미 한
민 원
바 우처
반 장은
방 ,
방 법
배 로
법 '
보 조금
분 한
성 으로
수 석
수 연
숙 한
슬 기나
신 고
신 용
안 한
었 고
엔 씨
역 에
역 세권
열 매
였 지만,
영 진
예 전
예 요.
외 로
외 출
요 금
으 러
의 열매
자 나
장 관은
재 정
접 종
주 인
주 고,
진 영
차 에
창 업
창 출
처 를
철 우
체 를
체 계가
층 ~지상
캠 퍼스
켰 다.
쾌 한
타 민
토 지
통 지서
트 립
틀 라시
파 워
폭 이
품 으로
피 싱
합 니
했 으나,
했 더니
홍 보
회 복
▁이 완
▁이 은
▁이 철우
▁있 다"라고
▁있 다"는
▁재택근무 라는
▁기 사를
▁사 원이
▁대 단
▁대 도시에
▁지 옥
▁1 %
▁1 등
▁1 .4
▁1 위로
▁1 심은
▁2 분
▁전 ·
▁전 념
▁가 령
▁가 량이
▁것 들을
▁일 했다.
▁일 하도록
▁일 한다는
▁일 어난
▁중 부
▁중 위
▁중 점을
▁중 이었
▁한 명
▁한 다"면서
▁보 다는
▁보 상을
▁위 안
▁직원 만
▁정 립
▁3 ,
▁3 인
▁경 각
▁경 진
▁경 향
▁상 권
▁상 상
▁‘ 리
▁‘ 블
▁‘ 상
▁‘ 시
▁‘ 오
▁‘ 출산
▁아 사히
▁“ 당
▁“ 무
▁“ 출퇴근
▁“ 서울
▁“ 출근
▁“ 미국
▁업무 로
▁근무 장소
▁" 3
▁" 각
▁" 남
▁" 부
▁" 소
▁" 실
▁" 집에서
▁방 치
▁최 모
▁최 상의
▁주 무
▁주 기로
▁' D
▁' 강
▁' 이
▁' 자율
▁관 건
▁조 은
▁조 슬기나
▁하 자는
▁하 려는
▁나 면
▁나 쁜
▁원 인이
▁고 유
▁고 작
▁고 지
▁육아휴직 률은
▁유 무
▁연 기에
▁신 기술
기업 이
▁내 놨
▁도 민
▁도 서
▁모 았다.
▁않 자
▁않 으니
▁개 소
▁해 보니
▁해 준다.
▁오 르는
▁오 리온
▁여 지가
▁소 음을
▁4 명이
▁말 라고
▁말 했다고
▁5 명의
▁지원 하겠다”고
▁확산 세
▁안 마
▁현 직
▁마 틴
▁마 시는
▁의 류
▁사용 률
▁원격 (
▁원격 교육
▁거 대
▁거 뒀다.
▁노 선
▁분 들
▁예 로
▁미 니
▁미 세
시간 도
▁바 른
▁확진 에
▁확진 을
▁우 편
에게 만
▁도입 률은
▁스 가
▁가능 해졌다.
▁증 강
▁근로 장학생
▁S HIELD@Home
▁사업 부는
▁진 화
▁본 관
▁본 회의를
▁이상 이다.
▁올 릴
▁세 상을
▁직장 은
▁반 납
▁7 0만
▁정부 지원
▁환경 도
▁무 리
▁건 수
▁서울 고
▁평 범
▁평 정
▁활용 되고
▁활용 도가
▁활용 하여
▁실시 해왔다.
▁포 티넷
▁9 만
▁9 .4
▁점 ,
▁효 용
▁체 력
▁좋 다고
▁관련 해서
▁고용 센터에서
▁김 승
▁김 유
▁김 혜
▁줄 면서
▁이용 료는
▁저 임금
▁앞 다
▁제도 로,
▁지역 경제
▁한국 을
▁당 사
▁초 중
20 20년
▁기간 에도
▁배 당
▁배 후
▁I D
▁결과 적으로
▁방역 의
▁명 이다.
▁행 태
▁행 아웃
▁들어 설
▁금융 위는
▁카 테고
▁되 니
▁생산 과
▁생산 에
▁요 리
▁산 출
▁전환 하기
▁전환 한다고
▁응 대가
▁양 산
▁양 호
▁양 해를
▁했 으나
▁대기업 ,
▁예정 이며,
▁예정 됐던
▁사회적 거리두기
▁메 리츠
▁고객 과의
▁청 라
▁연장 ·야
▁기준 ,
대로 템
▁트 러스트
▁수준 까지
▁가족 들이
▁25 %가
▁총 리가
▁커 지자
▁클라우드 와
▁클라우드 PC
관리 가
▁생각 한
▁생각 한다”고
▁30 ~34세
▁출퇴근 할
(1 0만
▁약 한
▁적용 이
▁안전 망을
▁문화 적
이버 시
▁박 병
▁박 성
▁박 준
▁교육 부는
.2 5
▁리 뷰
▁넘 지
▁플 래
▁플 렉
▁IT ·게임
▁롯데 백화점
▁식 별
▁식 의
▁해당 할
▁유지 될
▁유지 하도록
▁유지 하며
▁구성 했다.
▁11 개
▁팀 장의
▁경제 가
▁확인 이
▁곳 의
▁추진 한다고
▁워라밸 ,
▁폐쇄 되는
▁민 생
▁민 유숙
.1 %였다.
▁선택 권을
▁휴직 자는
▁담 겨
▁전문 ·과학
▁인사 제도
▁아니라 면
▁기반 한
▁상담 이
▁유연근무 제도
▁13 개
▁13 39
▁복지 .
▁합 동
▁연구 동
▁연구 위원은
▁고려 대
▁오피스 ’를
▁번 만
▁번 호
▁다음 은
▁빠 졌다.
▁중심 에
▁눈 높
▁경험 해
▁건강 검진
▁하루 하루
정보 화
▁제품 군
▁규모 와
▁규모 별로는
▁걸 어
▁현대 오
▁현대 백화점
▁분석 을
▁된 다면
▁영업 사원
▁처음 엔
▁처음 에는
▁전국 으로
▁인력 과
▁산업 단지
▁누 락
▁오전 까지
▁방문 이
se oul
▁경영 지원
▁제한 적
▁투자 한
▁육아휴직자 에
업체 에
▁전년 (5
▁토 스트
▁분위기 와
▁26 일까지
▁가정 과
▁현장 에서는
▁준비 에
▁준비 해야
▁늘어나 자
▁소통 에
▁국가 와
▁성장 에
이트 온
▁계열 사가
▁사실 이다.
지역 사회
▁내년 에
▁대면 접촉
▁싶 다”고
▁연봉 은
▁돌봄 서비스
▁대체 사업장
▁대체 사업장을
▁연차 ,
▁끝 났
▁치 명
고용 보험
▁계열사 의
▁계열사 에서
▁판매 를
▁개정 해
▁보호 ,
▁/ 이
▁겪 었다.
▁50% 만
▁대책 도
▁혁신 도시
▁직원들에게 는
(I o
▁확산에 ...
▁태 도
▁환 수
▁기본 생활
▁행정 복지
▁인식 과
▁바이러스 에
▁분산 된
▁악 영
▁경기도 는
▁격상 되면
▁퇴근 을
▁이뤄 져야
▁- 재택근무
▁날 은
▁인천 ,
▁활성화 로
▁활성화 하기
▁네트워크 에
▁자제 할
▁전화 가
▁갈 매
▁현실 을
▁현실 적
▁가입 을
정책 이
▁보장 해
▁취업 자
▁착용 한
▁생산성 도
▁ESG (환경
▁청년 인턴
▁차단 에
▁담당 자는
▁의미 하는
▁울산 공장
▁콘 택트
▁상품 으로
▁불안 해
▁특별 휴가를
▁학교 가
▁근무환경 과
▁모니터 를
▁밀집 사업장에
▁기관 과
▁일자리 의
▁전날 보다
▁눈치 보
▁동료 가
▁초등학교 에
▁힘들 고
▁참석 자
▁먼저 ,
▁요청 한
re at
▁탄 생
▁양립 이
▁양립 할
▁둘 이
하다 보니
만큼 은
▁W FH
▁W VD
▁통계 청은
▁통계 등록
▁얻 은
▁발전 시켜
인증 ,
▁대유행 )으로
▁하겠 다.
(7 1
▁거래 되고
▁병행 하고
▁와 서
인데 도
▁의심 증상
▁얘 기를
▁오늘 의
’이 란
▁서로 의
▁주장 이다.
▁이야 기가
▁북 구
▁스마트폰 과
▁식당 ,
▁복직 한
▁숙 련
▁경력단절 여성
▁자세 히
▁지원하고 자
▁도쿄 의
▁주택 용
▁음성 으로
▁가치 로
▁신설 했다.
▁아내 와
▁나타나 면
▁갖춰 야
▁커뮤니케이션 이
▁녹 지
데이 닷컴
▁책상 에서
▁은 평
▁올라 왔다.
▁행사 도
▁영역 에서
▁구현 하는
▁최고경영자(CEO )
▁저장 된
▁40% 가
▁결혼 과
▁결혼 을
기금 은
▁차별 화된
▁34 .1%
▁발열 이나
▁등록 금
▁실행 할
▁여유 를
▁과거 에는
▁살펴 보
▁통화 가
▁바란 다.
▁넷마블 도
▁배치 해
▁밥 도
▁밥 을
▁만든 다.
▁한시 적
▁없음 ,
▁피로 감을
▁대출 이
(D igital
▁작성 해
▁확정 했다.
▁예외 를
▁급격 하게
▁모니터링 을
▁높았 고
▁낳 은
▁알고 리즘
▁들어가 면서
▁공급기업 은
▁등장 한
▁동의 가
▁언급 한
▁75 %
▁방역당국 에
▁가족돌봄 휴가를
▁65 세
▁획 기
만족 도
▁없애 는
▁몰입 도
▁업무지 시
48 5
▁이재 용
▁회장 도
▁여성가족 부는
▁여성가족 부가
▁음식 점
▁용산 사옥
▁사랑 하는
▁예측 했다.
▁가전 사업부
▁거부 할
▁장기적으로 는
▁떠오 르
▁수혜 를
▁인기 다.
▁메모 에서
▁허리 디스크
▁렌 탈
▁SNS 에
▁꿈 꾸
▁덜어 주기
▁것" 이라면서
▁높인 다는
cm 로
▁빌 려
▁f or
▁직후 인
▁‘아 동
▁16만 개
▁악성코 드를
▁아모레퍼시픽 은
시차 출근
▁월스트리트저널(WSJ )은
▁마이 오피스
▁같아 요
▁것” 이라면서
▁jh lee@etnews.com
▁총리 의
▁임대료 가
▁획득 했다.
▁“지난 해
▁밝히 기도
▁뜨 거운
▁사각지 대에
▁/사진= 뉴스1
효과 를
▁에이 전
▁초·중·고 교
▁합계출산 율이
▁나섰 습니다.
▁노르 웨이
▁한국경영자총협회 (경
▁사내근로복지 기금을
(66 .7%),
▁se ul@asiae.co.kr
▁꺾 이지
▁11번 가는
▁사립 유치
▁공실 률이
▁낯 설
▁행정안전 부
·전 남
▁프로모 션을
▁you ng
▁이준 희기자
▁컴 플라이언
▁후지쓰 는
▁BNK 경남
▁압도 적으로
▁블룸버그통신 에
▁안경 애기자
▁맞물 려
▁백화점 과
시차출퇴근 제
▁어려웠 던
▁가파 르게
▁도로 공사
▁알바 몬
▁kim .
▁애플리케이션(앱 )
ec ure
▁GS리테 일
▁하소연 했다.
▁스페 인
▁일회 용
▁운영체제 (O
▁한국전력 공사
▁트랜 스포메이션
gh t
▁만만 치
▁타격 이
▁코어 타임
▁생체인증 시스템을
▁예의주시 하고
orm al
▁혼합 형
▁모건스탠 리
▁카리브 해
▁섹 션
▁비대 면서비스
▁MBC 뉴스
▁세무회계 사무소
▁한미 약품
▁영통 구
▁불분 명
(2021 ~20
▁송파 구
▁뉴욕타임스(N YT
활성 화
직장맘 지원센터
▁팔로 알토
▁주한미 군
▁재택근무/ 스마트워크
▁골드만 삭
▁한국경영자총협회(경 총
( 만
( 비
( 최고
( 회장
) 다.
) 이다.
. ”
0 명
2 -
2 일
2 명으로
3 명을
5 3
5 6
6 3
6 월
7 1
8 월
8 000
9 1
? "
A M
A N
D R
E F
T A
W P
W h
a s
a st
c @ajunews.com
d u
g u
i ve
k j
k @segye.com
n tact
p er
p lee
v ir
y b
z ure
· 박
· 부
· 문화
· 클라우드
· 임신
· 활용
” ,
▁ ]
▁ ᄏ
▁ 닥
▁ 닷
▁ 덴
▁ 밴
▁ 라는
▁ im
▁ 년간
가 지를
간 이
감 으로
개 념
결 국
공 무
과 제
관 념
관 도
관 으로
급 식
길 이
까 진
꼴 로
날 로그
내 에서
놓 는
다 산
단 위
대 출
더 욱
됐 다"며
되 기를
듭 니다.
디 션
디 바이스
력 으로
련 형
렸 던
로 에
롭 고
림 으로
망 의
먹 고
메 이
문 의
물 품을
므 로,
민 철
민 한
반 차
백 만
병 철
부 하
불 안
뷰 어
비 앤
비 서관
서 ’
서 로
선 제
성 공
세 요?
수 기자
스 카
시 )
시 피
시 장이
식 ,
쓰 는
연 도
오 면서
우 주
위 해
유 럽
의 원
인 들의
인 원의
자 문
정 ,
졌 기
조 와
족 을
주 부터
중 이
증 ,
지 영
지 표
질 이
징 계
책 이
처 분
침 에
큐 엘
토 랑
통 근
트 남
한 화
했 어요
회 사를
휴 일
▁있 습니다
▁있 나요?
▁재택근무 ”
▁재택근무 '를
▁재택근무 토록
▁기 가
▁사 양
▁사 직
▁대 림
▁대 회
▁지 났
▁지 배
▁수 의
▁1 로
▁시 정
▁2 곳
▁2 기
▁등 )를
▁직 결
▁가 공
▁가 르
▁가 용
▁중 이라는
▁중 이었다.
▁한 옥
▁보 류
▁보 조금
▁직원 이다.
▁제 때
▁제 정을
▁자 세를
▁자 치단체
▁3 세
▁3 50
▁기업 마다
▁경 력을
▁‘ C
▁‘ 목
▁‘ 위
▁‘ 팀즈
▁‘ 페이스락커
▁육아 로
▁아 깝
▁“ 원격
▁“ 이를
▁부 른
▁부 바
▁부 사
▁부 르는
▁업무 ,
▁업무 보고
▁업무 생산성
▁업무 집중
▁근무 에서
▁근무 장소를
▁" 연
▁" 자
▁" 저
▁" 아빠
▁" 하지만
▁" 매일
▁다 는
▁비 하면
▁최 씨는
▁최 기영
▁주 2회
▁' 반
▁' 부
▁' 티
▁' 출산
▁' 협업
▁' 가족친화
▁' 라떼파파
▁관 절
▁조 영
▁하 되
▁하 거나,
▁하 반기에
▁나 간
▁나 주
▁출 판
▁원 스톱
▁고 장
▁육아휴직 한
▁육아휴직 가정
▁육아휴직 제도를
▁유 리한
▁연 면적
▁신 고를
기업 과
▁그 쳐
▁내 리
▁내 면서
▁내 에서도
▁구 하기
▁구 루미
▁도 지사
▁모 인
▁없 지만,
▁없 으며,
▁해 보
▁오 랫동안
▁여 는
▁여 섯
▁여 의
▁소 리를
▁소 리가
▁임 기
▁말 한
▁말 라는
▁5 ,
▁5 점
▁5 00명
▁지원 하겠다"고
▁어 드
▁확산 하자
▁안 되는
▁국 장은
▁마 우스
▁원격 의료
▁거 라는
▁문 턱
▁20 %,
▁만 일의
▁때 의
▁때 다.
▁때 에는
▁장 을
▁장 학
▁장 거리
▁동 월
▁집 밥
▁집 회
▁선 고
▁선 두
▁영 풍
▁결 산
▁더 한
▁확진 됐다.
%) 을
▁6 명
▁불 매
▁불 특정
▁감염 될
▁도입 하면서
▁도입 하거나
▁도입 했던
▁스 프
▁스 터디
자가 격리
▁가능 성은
▁차 원이
▁증 대를
... 원격근무
▁단 점은
▁같 다”며
▁진 급
▁시간 에는
▁교 회
▁이상 이었다.
▁세 제
▁세 대를
▁직장 의
▁반 품
▁재 능
▁재 편
▁출근 시간을
▁7 년
▁7 일까지
▁확대 하면서
▁운영 되고
▁달 을
▁달 해
▁돌 리
▁돌 발
▁돌 봐
▁무 서
▁서울 로
▁서울 시에
▁평 일
▁접 수를
▁사회 학과
▁활용 될
▁활용 했다.
▁활용 도를
▁실시 에
▁포 브
▁제공 이
▁관계 가
▁관계 자들이
▁10 5
▁10 위
▁10 일부터
▁10 .6%에
▁10 ~15
▁관련 업계에
▁SK 서린빌딩
▁김 재
▁대상으로 는
▁이용 자들의
▁사람 들에게
▁후 반
▁간 호사
▁맞 았다.
▁계획 인
▁한국 과
▁한국 철도
▁이어 서
▁진행 한다고
▁초 로
20 20
▁배 분
▁A XA
▁A zure
▁유연 성이
▁방역 이
▁방역 대책
▁권 리가
▁명 에게
▁함께 ,
▁함께 할
▁재택 에서
▁금융 ,
▁이번 에는
▁아니 더라도
▁노동 위원회에
▁전환 하기로
▁시작 되는
▁양 상이다.
▁예정 이었던
▁것이 었다.
▁정보 와
▁직원들 과의
▁온라인 몰
▁효율 도
▁메 가
▁고객 사의
▁디 알
▁연장 키로
▁강화 ,
▁강화 해야
▁파 크
▁조사 에서는
▁구축 돼
▁구축 한다.
▁삼성 ,
▁작 을수록
기관 에
▁답 을
▁크 다고
▁허 리에
▁응답 자들은
▁25 %에
▁법 조
▁15 일부터
▁C G
그룹 도
▁적용 돼
롯데 호텔
▁마련 이
▁사내 망에
▁필수 로
▁결정 한다는
▁뒤 따
▁때문에 ,
▁문화 .
▁학 자금
▁화상회의 나
▁리 소
▁리 얼
▁IT 기기
▁해당 한다고
단계 로
▁팀 워크
▁평가 해
▁갖 지
▁확인 을
▁확인 했다.
▁24 .5%로
▁추진 한
▁추진 하겠다”고
▁발표 된
▁발표 에
▁발표 하며
▁폐쇄 를
▁폐쇄 하고,
▁폐쇄 하기로
▁부모 와
▁부모 보험
▁개선 하는
▁휴직 하는
▁인사 발
▁손 목
▁내용 과
▁내용 으로
▁부담 해야
▁부담 스러운
▁생활 하는
▁조직 별
▁조직 은
▁애 들
▁애 매
▁오피스 ’
▁오피스 가
▁예방 조치
▁계속 되고
▁건강 하게
▁하루 만
▁하루 종일
▁시대 적
▁영향 이다.
▁영향 력을
▁걸 로
▁타 운
▁공유 한다.
er vice
▁플랫폼 ,
▁플랫폼 에
▁논 쟁
▁제한 한
▁투자 자들에게
▁잡 기
▁감소 와
▁돌입 하는
▁선정 된다.
▁이전 으로
▁기록 했다고
▁통신 은
▁기대 한다.
▁기대 감이
시설 로
▁늘어나 며
▁백 종
▁N et
▁N AS
이트 진
▁계열 사는
▁근로시간 이
▁사실 은
▁이동 할
▁이동 제한
▁공공기관 을
▁아빠 육아휴직보너스
▁네이버 의
다’ 라는
▁장기화 될
▁우선 지원대상
▁확보 했다.
▁판단 에서다.
oo l
▁대면 회의를
kyu plee
본부 ,
▁문서 의
▁해결 이
▁방지 할
▁단계 별로
연구 위원은
▁전자 담배
▁안정 될
▁안정 성
▁계열사 들이
▁위치 에
▁조성 할
▁혁신 의
▁21 일까지
▁고민 도
▁태 도를
▁환 노위
▁없어 도
▁행정 업무
▁처리 한다.
▁부문 에
▁어렵 다”고
▁어렵 다”며
▁1만 25
이익 은
▁기회 에
▁희망 자가
▁희망 자에
▁통상 임금을
▁날 씨
▁지시 한
▁정착 시키기
시장 ,
▁상시 적인
▁출입 문
▁노동자 에
▁자제 하는
▁자제 하고,
시키 지
▁많아 졌다.
▁망 설
et ter
▁LG전 자,
활동 에
▁폭 락
▁인구 감소
정책 을
▁중단 했다.
▁보장 할
▁보장 하기
▁넘어 가
레스 토랑
▁추세 는
▁책임 감을
▁벌 어야
▁청년 들의
▁CEO 가
이었 는데
▁삼성전자 도
▁범 부처
▁도시 락
▁권장 한다.
▁파악 한
▁구매 를
)’ 은
▁게임 업계
▁차지 해
▁고용보험 의
▁서울시 청
▁j m
▁근무자 에
▁완화 하는
▁친 밀
▁달라 지고
▁1월 까지
▁안내 문이
▁심각 하게
▁접근 이
▁인정 받아
▁마음 에
▁백신 이
▁실천 해
▁가능하 다”고
▁전달 하고
▁입장 에서도
▁존 슨
▁서버 가
▁사진 을
▁이내 에서
▁환경에서 의
▁모델 에
▁사무직 의
▁해소 할
▁혜택 도
▁아마존 이
▁유럽 의
▁발전 이
▁코로나바이러스감염증(코로나19) 이
▁대유행 에
▁전략 으로
▁가격 을
▁거래 를
000여 명의
▁답변 했다.
▁앉 아서
▁가족친화 경영
▁진단 검사
▁얘 기가
▁달리 ,
▁소개 하는
▁지켜 보고
▁자료 가
▁느끼 게
▁구조 를
▁리더 가
▁제출 해야
▁걱정 하지
▁제약 을
▁지자체 와
▁세종 시의
▁세종 =김
▁10% 를
▁10% 포인트
▁늦 춰
▁마이크로소프트 는
▁금융회사 는
▁위협 이
(20 19년
▁넥슨 과
ar d
ar t
▁택 한
▁e 커머스
사항 으로
▁종식 돼도
▁휴식 과
▁쓴 다.
▁갖춰 지지
증권 은
▁연계 된
▁올라 간
▁행사 ,
▁판교 테크노밸리
▁수익 률은
▁모집 을
▁U PS
▁2배 로
▁학생 들의
기금 에
사람 이
▁줄여 야
(대표 이사
▁미팅 이
▁횟 수는
▁챙 기는
▁사유 를
▁대화 가
▁옮 기
▁100% (월
▁라 온
▁높여 야
▁높여 주는
▁2.5단계 로
▁보상 휴가
▁주고 받
▁묻 자
▁접종 이
▁깨 닫
▁끼 칠
▁수업 에
▁유튜브 를
▁에스 원
▁길어 지는
보건 당국
▁정상근무 와
▁대처 하고
▁조건 이
▁통과 했다.
▁배경 으로
▁듯 한
▁시각 도
▁당연 하게
▁커피 숍
▁레 벨
대체 로
▁노무 제공
▁일자 리는
▁대우 를
▁‘20 21년
▁현대차 그룹은
▁t he
▁수입 이
▁오른 다.
▁차례 에
세종 =
▁채택 하고
▁분류 되는
▁납 입
▁상사 에게
▁똑 똑
▁'20 20
▁확실 하게
▁짜 증
일자리 재단
▁절약 하고
▁점심시간 에
▁해석 했다.
▁재정 비
▁90 일
(R emote
▁월급 이
▁롯데쇼핑 도
▁통계청 에
▁퇴직 연금
▁지원사업 을
▁절대 적으로
▁궁 극
▁이행 지침
▁제어 할
(28 )씨는
▁혼잡 한
▁한달 간
▁“아 이가
▁사망 자는
▁LG화학 과
▁편안 하게
▁맥 락
▁슈 어
▁발급 하는
점검 을
▁생겨 나고
▁예고 했다.
▁성별 에
▁시리 즈는
▁의결 했다.
장애 인
▁저희 들이
자원 관리
▁막고 자
에스 큐엘
복합 문화센터
▁술 을
▁사적 모임
▁직군 에
▁명시 한
▁유용 한
▁신용 카드
▁누리 꾼
el l
▁주기 적
▁실효 성
▁2개월 간
▁기자회견 에서
▁출하 량이
▁수단 으로
▁양천 구는
▁KB국민 은행은
▁뭔 가
▁윈도우 10
▁파이 낸셜
▁방문객 의
스토 어
▁자본 시장
▁진료 비
▁IBM 은
모두 가
▁WSJ 는
▁다이 먼
▁티맥스 소프트
▁뚜렷 한
드린 다”고
정상 근무
▁가스 공사
@ytn .co.kr)
▁정서 적
▁금전 적
==== ====
▁꼼꼼 히
▁가파 른
▁보너 스를
▁단독 주택
▁외신 에
저축 은행은
▁일부개정 법률
▁월요 일과
▁lee .
제일 제
▁hj k@segye.com
▁부득이 하게
▁브이엠 솔루션
▁머니투데이 방송
AF P
▁인크루 트가
책임자 (C
▁일률 적으로
▁한라 홀딩
▁예비후 보는
연속 성
▁진심 으로
▁(영상 취재
▁흥미 로운
▁아름 다운
▁콘센트 릭스
▁수출입 은행
▁37.5 도
▁가성 비
▁퓨 렌
물인터넷 (Io
▁사회관계 망
▁쓰레 기
채움 공제
▁위기관 리
▁경상 북
▁베이스 캠프
▁틸 론
▁트렌드마이크로 는
▁소셜네트워크 서비스(SNS
▁cha cha
usi ness
' 고
' 다.
( ?
( 신
( 쪽
) 이나
) '에
1 50
5 시간
5 명을
8 일
@ id
I P
L S
b o
d i
g e
o ck
y j
· 노
· 시
· 초
· 화상회의
· 바이오
· 밀집
’ (15
’ (28
’ (16
▁ 뷰
▁ 젊
▁ 는데
▁ fe
강 사
고 에
곳 )
공 계
공 장은
규 정을
그 니
극 복
금 감
끄 럽
나 요
난 방
내 기
냐 고
네 .
눈 치
뉴 노멀
능 후
니 티
닉 월
다 지
대 우
더 믹
동 물
되 길
된 다면
됩 니다
들 었다.
듯 .
라 엘
로 와
료 ,
름 을
리 서치
명 씩
명 령을
발 열
방 울
백 화
버 리
법 안
보 경
보 훈
부 상
부 여
부 턴
불 편
사 건
사 령
상 에서
서 버
석 이
세 서
셀 러
소 재
수 산
수 습
수 다.
스 ·
스 ’
습 니까?
식 에
아 닌
아 자동차
앤 드
야 말로
어 지
어 질
어 다.
언 론
었 지만,
에 ,
에 요
영 국
요 양
움 ,
원 장
원 한
이 프
인 권
일 정
일 까?
입 사
있 지
자 (
자 만
장 비를
재 희
절 차를
조 달
주 얼
주 에서
중 부
즈 의
지 청은
직 업
직 으로
차 로
착 순
채 팅
책 신
축 산
콘 서트
태 영
터 테인
테 이션
트 인
트 릭스
팀 을
판 에
퍼 레이션
페 이지
포 터
플 레이스
하 다면
해 결
해 양
했 다며
했 는지
현 동
협 상
형 ,
화 면
화 질
휴 식
히 지
▁이 쁘
▁이 희
▁이 씨는
▁재택근무 일에
▁사 들
▁사 연
▁사 정으로
▁대 세
▁대 열
▁대 졸
▁지 평
▁지 스위
▁수 신
▁수 은
▁수 주
▁1 .1
▁1 분기에
▁시 트릭
▁2 %
▁2 주일
▁2 부제
▁전 제
▁전 해
▁등 급을
▁가 맹
▁가 리지
▁것 ,
▁일 손
▁일 에만
19 8
▁중 복
▁한 참
▁보 람
▁보 충
▁보 상이
▁인 후통
▁제 보
▁제 철
▁정 교
▁정 식
▁정 은
▁정 하고,
▁정 당한
▁자 리가
▁자 격을
▁공 짜
▁공 표
▁공 정한
▁3 .3
▁3 자녀
▁기업 별
▁기업 에서도
▁상 정
▁상 하
▁‘ 여
▁‘ 우
▁‘ 정
▁‘ 우리
▁‘ 직장
▁‘ 경기도
▁육아 지원
▁아 틀라시
▁“ 가
▁“ 원
▁“ 이는
▁“ 워라밸
▁“ KT
▁“ 중소기업
▁“ 많은
▁“ 해당
▁부 가
▁부 럽
▁부 의
▁부 평
▁근무 일
▁근무 자,
▁근무 제가
▁" 한국
▁" 남성
▁다 해
▁비 건
▁비 접촉
▁최 첨단
▁' 남
▁' 원격
▁' 가족
▁' 시큐
▁' 하이브리드
▁' 착한기업
▁조 정을
▁하 태
▁하 여금
▁하 상우
▁하 이트진
▁나 를
▁나 만의
▁나 란히
▁고 를
▁고 사
▁고 수
▁유 가
▁유 은
기업 들은
▁그 저
▁그 랜드
▁그 다지
▁내 방
▁내 비
▁내 역
▁구 성을
▁도 봉
▁도 울
▁도 착
▁모 을
▁개 월
▁해 지
▁오 쇼핑
▁여 성을
▁소 극
▁소 급
다" ,
▁감 정을
▁4 곳
▁4 .3
▁4 00만
▁5 일부터
▁발 신
▁지원 으로
▁안 건
▁안 건을
▁현 판을
▁현 대로템
▁마 당
▁의 자에
▁의 문을
▁거 죠.
▁시행 ...
▁시행 한다는
▁20 명
▁때 를
▁미 치고
▁많 다고
▁많 지만,
▁장 중
▁필 기
▁필 립
시간 ,
▁회사 다.
▁동 호
▁집 ,
▁선 한
▁선 착순
▁바 니다.
▁적 당한
▁높 였
▁높 다"고
▁높 음.
▁활 력
▁더 벤
%) 이
%) ’는
▁6 %
▁불 시
▁감염 확산
▁대상 인
▁도입 ...
▁도입 하고,
▁스 티
▁스 티브
▁가능 .
▁차 장
▁증 시
▁단 연
▁근로 형태
▁8 배
▁8 개월
▁기자 간담
▁사업 부문
▁진 작
▁본 회의에서
▁이상 이라고
▁세 정
▁출근 제를
▁확대 하겠다고
▁운영 되는
▁무 증상
▁서울 디지털
▁원격근무 지
▁원격근무 제를
▁평 택
▁화 두로
▁보안 성
▁증가 했고
▁들 며
▁좋 다는
▁고용 안정
▁김 형
해야 "
▁이용 자들이
▁휴 원,
▁발생 시
▁지역 과
▁간 에
▁솔루션 도
▁취 지를
▁맞 출
▁L TE
▁한국 도
▁한국 지
▁한국 부동산
▁당 겨
▁이어 진다.
▁입 장이
▁진행 하고,
▁초 비상
만원 에
▁기간 의
▁조치 ”라고
▁A PC
▁관리 는
▁권 익
▁대응 해야
▁명 칭
▁자녀 당
▁행 보
▁들어 온
▁들어 와
▁직장인 을
▁역 량이
▁금융 사는
▁아니 기
▁아니 다”라고
▁올해 의
▁노동 자를
▁산 모
▁아이 들의
▁아이 패드
라고 요.
▁지급 합니다.
▁물 건을
▁양 양
▁양 해
▁있어 서도
▁네 이트온
▁온라인 에
▁메 뉴얼
▁연장 에
▁구축 해야
▁허 위
▁채 취
▁12 %
▁12 주
▁준 다는
▁법 을
▁피 해야
▁클라우드 는
▁생각 은
▁30 초
▁C B
▁문제 점
▁사내 문화
▁필수 적
▁뒤 처
▁19 )
▁박 광
▁박 물
▁박 능후
▁교육 에
▁교육 서비스업
▁리 프레
▁목 격
▁보고 도
▁격 일
▁유지 에
▁유지 된다.
▁11 1
▁팀 별
▁경제 적으로
▁경제 조사
▁일본 과
▁확인 하기
▁직원이 면
▁중요 시하는
▁기술 은
▁기술 이다.
▁개발 자를
▁부모 에게
▁개선 된
▁포함 하면
▁포함 )까지
▁선택 에
▁선택 의
▁방침 입니다.
▁휴직 한
▁휴직 할
▁휴직 자의
▁세계 를
▁전문 업체
▁손 이
▁낮 다는
▁부담 으로
▁복지 에
▁착 공
▁충 원
▁외부 인의
▁측 이
▁글 에서
▁정책 이다.
▁있으 므로
▁느 려
▁하나 은행은
(4 월
▁눈 이
▁카카오 엔터프라이즈
지원 서비스
▁경험 할
▁건강 ,
▁디지털 화를
▁인터 페이스
▁규모 별
▁걸 려
▁접속 하면
▁최고 치를
▁3월 에는
▁구글 도
감염 증
감염 관리
▁광 교
▁광 양
▁처음 부터
▁전국 적인
▁우리 나라는
▁데이터 는
▁지침 도
er s
▁산업 혁
▁권고 사
▁플랫폼 에서
▁경영 에
▁제한 적일
▁투자 자
▁육아휴직자 에게
라이 트
업체 가
업체 를
통신 사
▁검토 해
▁설치 한
▁설치 했다.
▁선정 돼
▁분위기 .
▁기록 하는
▁사례 로
▁사례 와
▁통신 비
▁승 인이
▁성장 동
▁근로시간 제를
▁로 고
▁음 향
▁극 단
▁국민 건강
▁키 즈
▁내년 도
▁일반 화
▁일반 적으로
▁확보 에
▁돌아 오는
▁싶 다.
▁싶 어서
▁돌봄 에
▁치 킨
▁코 네티
▁노력 해
▁단축 할
▁출시 된
▁출시 한다.
▁출시 한다고
고용 정책국장은
▁전자 신문
▁희 생
▁보호 하고
▁야 기
▁버 티
▁버 스를
▁업무에 만
▁해외 에서는
▁50% 에서
▁의견 은
▁혁신 이
▁21 일(현지시간)
ae gu
▁채용 에
▁혼 재
▁환 승
▁있었 을
▁있었 다"며
▁있었 다”며
▁50 년
▁비교 할
▁어렵 지
▁1만 6
▁들어갔 다고
▁들어갔 고,
▁지금 까지는
▁격상 될
▁격상 한
▁3일 을
▁200 여
▁머 리
▁인천 국제공항
▁유연근무제 ,
▁유연근무제 와
▁활성화 될
▁일상 에
▁패 스트
▁되는 데
▁상시 적으로
▁전화 ,
▁않았 다"고
▁어디 까지
▁상승 세를
▁소비 자들의
▁현실 로
in d
in f
in u
▁중단 한다.
▁필요하 다"며
▁즉 ,
▁착용 과
▁뉴욕 에서
▁ESG 를
▁벌 인
▁앱 으로
▁규정 은
▁먼 데이닷컴
▁영상 으로
▁향상 ,
▁향상 될
▁통합 고용정책국장은
▁장점 도
▁도시 에서
▁권장 하기로
▁담당 하고
▁의미 로
▁불과 했던
▁상대 적
▁부여 한다.
▁서울시 여성가족
▁j o
▁근무자 도
▁바우처 로
▁30% 로
▁30% 에
▁소득 감소
▁재택근무제 ,
▁그런 지
▁포스코 에너
▁업종 에
▁특별 휴가
▁한화 자산운용
(S K
협회 와
▁NH K
▁NH 농협
▁모니터 ,
▁전문가 들이
▁전문가 들의
▁접근 하는
▁받았 다는
▁밀집 한
▁밀집 해
il l
▁h ong
▁전반 을
▁전달 할
▁인상 하는
▁3단계 가
▁번째 다.
▁퇴 사를
▁회식 이나
00여 명의
▁맡 기는
▁힘들 다.
▁사무직 은
▁행복 하게
▁방송 통신
▁전원 에게
▁아마존 의
▁얻 어
효율 적
▁주거 비가
▁시행한 다”고
▁작년 부터
▁베 타
▁베 트남
▁가격 에
▁거래 일
테크 놀로지
▁H MR
▁캠 코
▁제기 되고
▁어느 정도
▁지정 하고
▁예산 은
▁홈페이지 와
▁홈페이지 (www.
▁느끼 지
▁구조 로
▁리더 는
▁서로 를
▁말까지 로
▁실험 에
▁육 군
▁시민 단체
.0% 를
▁메시 지가
스럽 다.
▁배우 고
▁식당 에서
▁없었 습니다.
▁강력 히
▁호소 한다.
▁경력단절 과
▁착한기업 ’
▁본부 장
국민 의
▁주말 까지
▁드러 났
▁창의 성과
▁승진 에
▁매뉴얼 ’을
▁구현 할
▁변경 하는
▁바람 에
▁우수기업 으로
▁캠페 인은
▁복무 를
mi ng
▁이메일 ,
▁수평 적이고
▁엔씨소프트 와
▁1차 로
▁신입 직
▁통화 에서
▁후보 자
▁몸 에
▁마케팅 에
▁존재 한다.
▁소상공인 들은
▁가져 온
▁중소·중견기업 에
▁독일 ,
▁깨 달
느냐 에
▁조언 한다.
▁웃 음을
▁"육아휴직 을
▁길어 질
▁일상화 되면서
부서 별
▁이루 는
▁실내 에서
▁영상회의 를
▁기기 와
▁개념 이다.
시켜 야
▁협업툴 을
▁노무 비를
▁대우 는
▁‘20 20
▁t v
▁공급기업 이
▁4차 산업
▁2000 만원
▁탑재 된
▁조례 를
▁접수 하고
▁소송 에서
▁짜 야
▁압박 이
▁절약 돼
▁독려 하는
▁찍 은
▁선도 해
▁MZ세대 의
▁본격화 한
▁관광 객
▁돌파 할
▁‘일 하는
▁월급 을
▁신한은행 이
▁이야기 다.
사태 가
▁헌 신
▁맞추 기
▁기본계획 을
▁60% 를
구청 장
▁'일 ·생활
▁사무공간 을
▁판결 했다.
▁복합 기
▁CJ 제일제
▁자발 적인
▁배포 했다.
▁농촌 체험
▁“아 직
▁SKT ,
했다 면서
▁러 쉬
▁칼 럼
▁수용 할
▁격차 는
▁일ᆞ 가정
▁역량 과
수요 가
▁일어나 고
▁비판 했다.
▁스피 어
▁독립 된
▁시키 고
▁Work place
▁대안 이
▁주력 하고
▁데이 즐
▁완벽 하게
▁리스크 를
▁든 다.
77 @asiae.co.kr
시험 을
▁전자결재 ,
▁수직 적
▁97 cm로
▁점유 율은
▁ᄏᄏ ᄏ
▁차원 이다.
▁250 명까지
▁누리 집
▁보건당국 과
▁소득대체 율을
▁푸 르
▁바이오 의약품
▁선별진료 소를
▁패턴 을
▁살펴보면 ,
▁융 통
▁초·중·고 등학교
▁좋겠 다.
▁주4일 제
▁씨티 은행
▁사립 유치원
▁'심각 '으로
▁수백 만
▁아버 지
우수 기업
▁펴 고
▁CNN 은
▁스피커 폰
근태 관리
통상 임금
통상 자원
▁상대방 의
▁청송 군
▁2023년 까지
▁머무 르
▁사외 이사
▁인접 한
▁대한상의 는
▁밸 런스
▁보너 스는
▁사후지급 금을
____ ____
BI I
▁생태 계
▁전례 가
▁구인 ·구
you ng
▁첨 부
▁유진 자산운용
▁해수 부
▁애널리 스트
▁한국여성정책 연구
▁국가장학 금
▁앞세 워
▁경직 된
▁홈트 레이닝
진흥원( K
▁공무 직
▁전원합의체 (주심
▁탁월 한
▁근무성적평정 에서
NH N
▁전업 주
▁영수 증
~2000 년대
▁60cm 에서
▁IT·모바일 (IM)
▁35~39 세
▁에스지 앤
▁헌법재판 소
신기 신기
▁Any where
▁비대면( 언택트
▁랜드 마크
토지 주택
▁악영 향을
▁퓨렌 스(
@id aegu
▁경제조사 본부장은
@idaegu .com
" 이라면서
' 라고
( 국
( 방
( 업무
( 여성
( 새로운
) -
, ,
0 원
3 3
4 천
5 월
5 회
7 개
9 2
= 이
= 정
D T
M F
P 는
S I
S KT
T N
T O
W C
e et
h a
i @ajunews.com
k c
m m
s m
w oo
w ang
~ 11
· 안
· 종
· 워라밸
· 네이버
▁ ᅲ
▁ 났
▁ 십
▁ 폼
▁ li
▁ 끄는
▁ 갤러
▁ 련형
가 율
감 시
거 같
경 량
고 도
공 감
국 이
국 인
규 제
그 린
금 요일
기 에는
끄 러
누 가
눈 치는
뉴 시스
다 (
다 닥
닥 다닥
대 교
대 도
동 구
됐 는데,
든 ,
들 만
들 보다
라 "
래 프
레 하라
력 한
료 가
리 조
말 이
명 확
목 적
물 은
민 정
바 지
발 언
벽 을
변 호
보 국
보 면서
봉 사
분 담
사 리
상 (부산
생 각
선 에
선 생님
설 위원
성 한
성 기자
세 끼
셔 야
송 이
수 익
수 처
승 인
실 적을
씨 티
았 다고
야 근
양 광
없 다.
었 다”고
었 다"고
에 셋
연 했다.
오 모
요 "
우 편
워 드
워 라인
워 케이션
월 드
웠 던
이 동
있 고,
있 어서
저 장
전 북
전 송
전 재
정 착
정 하게
제 철
조 ,
조 의
좋 아요
주 면
중 에도
지 '
지 엄
지 출
직 이
진 과
진 수
차 이나
책 상
추 세
카 데
카 메라
티 티
팀 으로
파 티
팩 토리
퍼 런
포 스코
플 로우
하 므로
향 에
호 철
훈 기자
휴 양
흥 구
▁이 끈
▁이 만
▁이 병
▁이 점이
▁이 공계
▁있 다’는
▁있 나.
▁재택근무 자를
▁기 하고
▁기 기로
▁사 칭
▁사 물인터넷(Io
▁대 란
▁대 사는
▁지 닌
▁수 ,
▁수 년
▁수 에
▁수 천
▁1 씩
▁시 점은
▁2 번
▁2 .4
▁2 분의
▁2 위를
▁등 에도
▁등 에서도
▁직 관
▁가 며
▁일 산
▁일 수는
▁중 "이라며
▁중 ”이라며
▁한 영
▁한 계를
▁있다. ”
▁정 지
▁정 황
▁자 아
▁자 세가
▁자 원과
▁공 군
▁공 단
▁공 을
▁공 중
▁3 D
▁3 ∼
▁3 .8
▁3 000만
▁3 부제
▁3 ·4분기
▁기업 ’
▁경 유
▁상 무
▁‘ 2
▁‘ 영
▁‘ 유
▁‘ 근무
▁‘ 공무원
▁‘ 갤럭시
▁‘ 토스트
▁‘ 면접수당
▁아 산
▁아 픈
▁“ 각
▁“ 문
▁“ 시
▁“ 저
▁“ 일과
▁“ 아빠
▁“ 하지만
▁“ 사내
▁부 사장
▁부 드러
▁업무 관리
▁업무 망을
▁업무 공간을
▁근무 시
▁" 2
▁" 나
▁" 원
▁" KT
▁" 많은
▁" 미국
▁방 에
▁방 학
▁방 한
▁비 씨
▁비 서관
▁비 재무
▁주 먹
▁' B
▁' 스
▁' 우리
▁' 남성
▁조 성과
▁하 라
▁하 셨
▁하 니까
▁나 에게
▁나 중에
▁원 한다면
▁고 발
▁고 조
▁고 품
▁유 실
▁따 를
▁서 한
▁연 중
▁연 이어
▁신 호를
▁그 날
▁그 로
▁내 에서는
▁내 리고
▁도 어
▁모 드
▁모 성
▁않 다"고
▁없 앤
▁해 법을
▁여 경
▁임 산
▁임 원이
▁임 원의
▁말 에
▁5 .
▁생 겼다.
▁지원 합니다.
▁확산 에도
▁안 산
▁강 성
▁강 제로
▁의 지
▁의 장은
▁사용 되고
▁사용 량은
▁시행 했다고
▁시행 하던
▁분 이
▁20 %에
▁장 교
▁회사 로부터
▁동 남
▁받 쳐
▁선 생님
▁바 이
▁더 는
▁더 더욱
▁확진 으로
%) ',
▁6 세
▁6 가지
▁6 명은
▁6 0만
▁6 .5%
▁설 계를
▁불 투명
▁감염 의
▁도입 하려는
▁스 퀘어
▁가능 ,
▁가능 케
▁가능 했던
▁남 자는
▁증 폭
코로나19 로
▁매 수
▁성 명을
▁성 차별
▁8 ~12
▁S M
▁S MS
▁S ervice
▁필요 "
▁필요 성에
▁세 우
▁세 금을
▁반 사
▁재 원
▁재 배포
▁출근 에
▁출근 하려면
▁상황 ”이라며
▁달 고
▁달 은
▁무 의
▁원격근무 용
▁사회 ,
▁사회 ·
▁보안 상
▁보안 사고
▁증가 를
▁실시 하지
▁10 7
▁9 천
▁9 일까지
▁변 신
▁좋 고,
▁때문 인
▁때문 "이라고
▁SK 의
▁SK 네트웍스
▁고용 부가
▁김 광
▁김 선
▁데 다,
▁줄 고,
▁이용 하지
▁이용 률은
▁같은 데
▁저 자는
▁간 섭
▁임직원 들도
▁맞 벌
▁각 사
▁L H
▁한국 표준
▁한국 마이크로소프트
▁알 리는
▁입 수
▁진행 하면서
20 42
만원 )
▁기간 제
▁함 으로써
▁배 치를
▁조치 할
▁관리 의
▁관리 해야
▁관리 자를
▁처 한
▁△ 원격
▁편 .
▁명 목으로
▁자녀 부터
▁행 사에
▁행 위에
▁들어 봤다.
▁금융 위
▁카 운
▁클 라이언트
▁못 한다는
▁되 레
▁되 며,
▁아니 었다.
▁올해 에는
▁미국 이
▁미국 대사
▁노동 계
▁아이 는
▁시작 했고,
▁응 급
▁P D
▁P S
▁물 결
▁콜센터 도
▁다양 성이
▁여성 에게
하면서 ,
▁대표 하는
▁순 위
▁고객 사를
▁공무원 도
▁조사 하고
▁삼성 물
▁삼성 화재
▁작 가
▁기준 도
▁허 술
▁12 시
▁25 %를
▁법 원은
▁30 개
▁문제 ,
▁안전 관리
▁사내 외
▁사내 벤처
▁필수 다.
▁수요 기업은
▁결정 이다.
▁결정 했다"고
▁추가 할
▁급여 에
▁화상회의 에
기자 :
▁없는 지
▁교육 부가
사업 장은
▁플 로
▁플 레이스
▁목 과
▁식 비
▁식 비를
▁식 자재
▁기존 과
.8 %였다.
▁평가 하고
▁평가 하며
▁갖 도록
▁중요 하다는
▁기술 의
▁형 편
▁부모 들이
▁개선 ,
▁개선 될
▁개선 해야
▁방침 은
▁방침 이라고
▁담 보
▁세계 가
▁손 꼽
▁100 년
▁100 ~2
▁낮 게
▁낮 고
▁상담 과
▁부담 하는
▁합 치면
▁생활 ,
▁막 아
▁밀 도를
▁오피스 로
▁정책 도
▁번 역
▁18 5
▁힘 이
▁하나 .
▁만들 고,
▁계속 해
▁계속 고용
지원 사업
▁디지털 서비스
정보 보호
정보 유출
▁성과 도
▁전망 을
혁신 도시
▁영향 은
▁접속 ,
▁타 인
▁자율 성
▁자율 근무
▁그러 면
▁분석 에
▁만족 한다고
▁된 다"며
▁비상 경영
▁27 일(현지시간)
▁27 .0%,
▁전국 에
▁우리 에게
▁산업 통상자원
▁권고 는
▁좋은 책신
▁접촉 해
▁오전 에
▁방문 ,
▁살 균
▁살 아야
▁별 개
▁플랫폼 으로
▁플랫폼 이다.
교육 감
▁논 문
▁( 주
▁투자 와
▁투자 해
▁잡 힌
▁홈 스쿨링
업체 에서
▁이미 지가
▁금지 >
▁어려움 은
▁검토 에
▁검토 한다.
▁이하 ,
▁평균 적으로
▁가정 은
▁기록 ,
▁최소화 한다.
▁통신 회선을
▁승 객
▁기대 가
▁아닌 가
▁공급 하고
▁소통 은
▁국가 에서
▁N 잡
▁용 량
▁근로시간 제
▁이동 하고
▁28 80
시스템 에
시스템 은
시스템 이
▁극 히
▁드 론
지역 을
지역 에서
▁복귀 할
▁내부 적으로
▁내부 망에
▁병 원에서
▁장기화 되고
▁자체 는
▁떨어 지지
▁키 움
▁급증 ...
▁건물 은
▁일반 직원
▁분야 가
▁분야 로
산업 은
산업 개발
▁예상 하고
▁예상 한다고
▁돌아 가지
▁더욱 이
▁해결 에
▁독 박
▁독 특
▁단계 인
▁코 딩
▁노력 은
▁안정 성을
▁판매 량
▁V irtual
▁0 시부터
▁300 여
▁3개월 에
si l
▁버 전을
▁위치 를
▁해외 여행
▁대책 은
▁중앙 사고
쇼핑 몰
▁3년 을
▁고민 은
▁혼 선이
▁행정 서비스
돌봄 교
▁있었 다고
하려 던
▁엔 비
▁사옥 으로
▁긴급 방역을
▁처리 에
▁바이러스 로
▁임금 체계
▁“재택근무 ,
▁어렵 다"며
▁분산 ·재택근무
▁표 했다.
▁경기도 청
▁철 강
▁민간 의
▁날 을
▁방법 ,
▁부분 도
▁유연근무제 에
▁활성화 가
▁않아 야
30 일까지
▁일상 으로
▁신규 채용
▁전면 적으로
▁s j
▁전화 기
▁전화 영업
▁않았 다고
▁컴퓨터 나
▁컴퓨터 와
시키 고,
▁어디 든
▁어디 에
도시 공사는
▁잠 옷
▁현실 은
▁가입 할
▁연기 하거나
▁시범 사업
▁근무시간 은
▁보장 된
▁보장 하고
▁취업 을
기간 은
▁착용 하도록
▁경력 이
▁2일 은
▁책임 감
▁ESG 는
▁가상 데스크톱
▁그렇 습니다.
▁40 만
▁40 명
▁영상 이나
▁요구 된다.
▁향상 과
▁통합 해
▁권장 한
▁하면 ,
▁상당 의
▁파악 하는
▁파악 하기
▁사이버 공격
▁언제 ,
▁구매 한
▁구매 하는
▁상품 이
▁서울시 와
▁자택 에
▁근무자 들이
▁소득 과
계획 에
▁잇 단
▁달라 ”고
▁불안 감
▁학교 ,
▁안내 할
▁집계 됐다고
▁받았 다”며
▁실천 할
▁가능하 다"고
▁공개 됐다.
▁경기 지역
▁인상 하고
▁의료 기관
~2 0%
▁직무 를
▁동참 하는
▁회식 은
▁회식 이
00여 개
▁늘었 습니다.
▁보니 까
▁종료 된
▁종료 될
▁종료 되는
▁촉 각을
▁당부 하고
▁당부 했습니다.
ᄏᄏ ᄏ
▁넷 째
▁시설 이
▁몇 번
▁찾아 볼
▁찾아 가는
▁36 %
▁36 3
▁윤 희
▁80% 로
▁80% 에서
~3 0%
▁반응 이다.
▁다니 고
▁다니 던
▁6개월 이
▁분할 해
▁베 스트
▁전략 기획
(V irtual
▁집단감염 을
▁앉 기
▁설문조사 한
▁H ome
▁제기 한
사용 할
▁넥 스트
▁부정 적으로
▁부정 행위
▁즐 기고
▁지켜 본
▁나선 다고
▁자료 는
▁바뀌 면서
▁광주 은행
▁10명 중
▁가사 도우
▁가사 ·돌봄
▁대형 마트
▁지자체 의
▁장애 를
▁금융권 의
▁시민 이
im e
하이 마트
▁스마트폰 으로
▁공지 하고
▁임대 료를
▁임대 주택
▁세대 와
▁1주일 씩
▁넥슨 ,
ar tu
▁착한기업 에
▁고령 층
.9%) 가
▁e 메일
▁‘워라밸 (일과
▁R e
▁< 저작권
▁여행 사
▁드러 난
▁은 퇴
▁줄어들 었다.
▁퍼 지고
▁사업주 와
▁영역 에
▁매뉴얼 은
▁수익 률을
▁영구 적인
▁구현 을
▁저장 장치
▁현대모비스 ,
▁d e
▁복무 규정
▁업무환경 으로
▁저녁 에
▁횟 수에
▁실행 해
▁여유 로운
▁덕 에
▁만족도 도
하라 ”고
▁선별 하거나
▁다르 다는
▁배치 했다.
지난 해
▁견 줘
▁쿠 오모
▁1위 에
▁악화 로
▁중소·중견기업 을
▁늘리 기
▁페 이
▁연령 이
▁깊 어
▁깊 어지고
▁투입 된다.
프로 젝트
▁징 역
신문 은
▁실현 을
▁영아 기
▁예외 가
▁예외 적인
▁꺼 내
▁꺼 려
▁레 노버
▁2차 례
▁노무 사는
▁적절 히
▁경영진 은
▁하는데 요.
▁높아졌 다고
▁낳 는
전자 금융
▁수입 은
.... ....
▁차례 로
▁편집 할
▁공급기업 을
▁남양유업 이
▁채택 하는
▁익숙 하지
▁워크플 로우
▁분위 기로
(40 %),
ri d
▁정신 이
▁정신 적
▁탑재 한
▁흐름 이
▁다녀 간
▁방역당국 과
▁청소 년
▁삭감 하는
▁쌓 여
▁띄 게
▁해석 된다.
(O T
▁상장 된
▁모여 서
▁빚 고
▁업무효율 이
▁애플리케이션 을
해왔 던
▁사흘 만
▁맞추 고
▁150 여
▁강릉 시는
▁2020 .2
▁인테리어 를
▁겹 친
▁겹 칠
▁강요 하는
▁용인 시
▁# .
▁습 관을
▁의원실 은
▁출생아 부터
▁“그 동안
▁기한 은
▁LG화학 ,
▁극대화 하기
▁갑작 스런
▁기저질환 자,
▁유입 을
▁소프트캠프 는
▁폭증 했다.
▁감독 관
▁협조 를
▁협조 해
▁긴장 하고
▁귀국 하는
▁가상사설망(VPN )을
▁에어 비앤
▁살아 남
▁생긴 다.
▁근처 에서
▁억 제
▁DB 손해보험
▁업데이트 를
▁남아 있
▁춘 천
▁1∼ 2
▁생존 을
▁단점 도
▁투명 하게
▁전수 조사를
▁태스크포 스
▁델타 변이
▁스웨덴 의
▁솔직 한
▁촬영 기자:
▁‘3 +3
▁이번주 부터
▁그룹웨어 ,
·사회 복지
▁한계 로
▁400만원 (자부담
▁안착 할
▁근육 을
▁"지난 해
▁급등 했다.
▁바람직 하다.
▁유치원 ·
▁프리랜서 ,
▁옵 션
▁한화생 명
▁헌법 소
▁일으 키
▁과기정통 부
▁정례 브리핑
▁이르 기까지
▁인사팀 장은
▁이익 을
▁저소득 층
▁여러분 께
▁마곡 사옥
▁결론 을
▁가시 화
▁찬성 한다고
▁자유로움 .
▁제주항공 은
▁의존 도가
▁서울·경기 ·인천
▁그것 이
▁대한상공회의소 는
▁WSJ 은
▁제1 금융권
▁제이 니스
▁마을 기업
▁중소기업중앙 회
▁안타 깝
▁플랜 트
▁IDC 에
▁ye on
▁수펙스추구협의회 와
▁급변 하는
▁니혼게이자이신문 에
▁무단 전재
▁쌍 둥
▁‘제 4차
▁행안 부
▁행안 부는
▁1명꼴 로
▁"고객 과
▁뉴스1 코리아,
▁자산운용 사
▁쇼 피파이
▁1단계 로
▁부적 절
연령 인구
▁업무협약 을
▁브이엠 포트
▁경제부 시장
▁이씨에 스는
클리 닝
▁들어선 다.
▁2만7 42
▁유상 범
▁미추홀 타워
▁저축 은행
▁한국농 어촌공사
▁어울 리는
▁텍 스트
▁44일 만
▁서서 히
▁신혼 부부
▁늘어남 에
▁소정근로 시간을
▁연예 인
▁Con t
▁최고경영 자는
▁꼬집 었다.
캐피 털
▁2자녀 로
▁프로토 콜
▁11만 20
▁21.2 %를
▁이스 라엘
▁중앙행정 기관
▁삼일회계 법인
▁한국무역 협회
▁토끼 를
▁업무용(내부망 )과
스코스모 스코리아
▁곤두세 우고
▁평범 한
▁초중 고
▁통계등록 부
▁닷 새
▁우선지원대상 기업
수습 본부
▁CB RE
▁구인·구 직
진흥원(K ISA
토지주택 공사
래프 톤
상(부산 시장
▁부드러 운
▁중앙사고 수습본부
artu p
▁<저작권 자
" ,
( e
( w
( 한국
( 예정
( 밀레니얼
( tele
- life
. or
. net
3 회
4 77@asiae.co.kr
5 1
6 %
6 9
6 명)
7 일
8 6
8 만
9 3
? ”
C X
C SA
I S
T I
a ce
a kim
b ae
d y
e )
i k
i ew
n a
n d
r an
s un
· 지
· 서비스
· 구글
· 메신저
· 음식
· 넷마블
“ 고
▁ ?
▁ 꼰
▁ 꿀
▁ 둥
▁ 린
▁ 큼
▁ 톱
▁ 힌
▁ 났다.
▁ 레이
▁ 레스토랑
가 전
간 부
간 선
갈 매
개 시
것 같
것 은
게 시
겠 지
겼 습니다.
경 진
공 개
과 정을
구 )
금 리
급 은
급 액의
긍 긍
난 을
내 가
냐 .
노 이
노 조는
누 리
덴 셜
도 쿄
동 현
됐 으나
드 경제
디 움
라 테
럴 드경제
레 일
렌 탈
론 하고
리 싱
리 전
만 ,
만 은
맞 춤
매 뉴얼
머 신
문 제를
밀 접
바 꿈
받 도록
병 이
보 통
복 인
복 절
분 부터
브 레인
비 우스
사 법
사 적
석 기자
세 기
세 미나
셔 널
소 로
수 신
수 있는
시 세끼
신 탁
실 시
실 업
아 ,
알 고
았 고,
약 서를
업 은
영 호
예 요
올 림픽
외 과
외 에
요 원
웅 제약
워 서
위 반
유 예
윤 선영기자
이 후
자 치
재 로
재 앙
적 용
전 ,
전 거
전 긍긍
정 리
졌 다"며
주 군
주 지
주 행
주 년을
준 기자
차 량
천 히
체 제가
추 얼
코 드
콜 라
크 라
테 일
텐 데
트 에
팀 원
포 지엄
푸 드는
품 이
하 다’는
하 세요.
했 음에도
형 에
형 을
형 이
호 흡기
화 ’
화 할
화 송이
▁이 낙
▁이 력
▁이 윤
▁이 자
▁이 화
▁이 사를
▁이 곳에
▁있 다'고
▁있 거든요.
▁재택근무 제도를
▁기 구
▁기 쁘
▁기 하겠다"고
▁사 설망
▁사 정은
▁대 가로
▁대 웅제약
▁지 사는
▁수 개월
▁수 치를
▁수 단을
▁수 차례
▁1 호선
▁시 일
▁시 한
▁시 점이
▁2 항
▁2 .6
▁2 .3
▁2 ·3
▁전 입
▁전 해진다.
▁등 등
▁가 라
▁가 려
▁가 지는
▁것 인지
▁일 관
▁일 로
▁일 리
▁일 용
▁일 탈
▁일 하지
▁일 한다고
▁일 수가
▁중 대
▁중 의
▁한 몫
▁인 공
▁위 챗
▁직원 까지
▁정 성
▁정 한다.
▁정 씨는
▁자 금을
▁자 기가
▁공 보육
▁3 %
▁3 명은
▁상 반
▁‘ T
▁‘ 고
▁‘ 대
▁‘ 더
▁‘ 디
▁‘ 부
▁‘ 팀
▁‘ 출근
▁‘ 만족
▁‘ 신청
▁‘ 착한
▁‘ 좋은
▁‘ 우한
▁‘ 교대조
▁육아 는
▁아 마
▁“ A
▁“ 공
▁“ 금융
▁“ 저출산
▁“ 민간기업
▁부 연했다.
▁업무 만
▁업무 별로
▁업무 강도가
▁근무 지가
▁" 수
▁" 정
▁" 방역
▁" 자녀
▁" 인구
▁" 마스크
▁" 임신
▁다 수가
▁다 자간
▁비 춰
▁비 행
▁최 연
▁주 부터는
▁' 만
▁' 여
▁' 인
▁' 근무
▁' 신종
▁' 토스트
▁' 음성
▁관 행을
▁조 는
▁하 시
▁나 라는
▁나 이가
▁고 덕
▁고 등
▁고 소득
▁육아휴직 ’
▁육아휴직 으로
▁유 학
▁연 례
▁그 들의
까지 ...
▁구 름
▁통 계를
▁도 달
▁도 우
▁도 큐
▁모 일
▁모 비우스
▁해 녀
▁해 변
▁해 봤
▁해 온
▁오 면
▁오 토
▁소 수
▁소 위
▁소 닉월
▁임 민철
▁4 시부터
▁4 년간
▁말 은
▁말 해
▁말 아야
▁5 개월
▁5 세대
▁발 로
▁발 발
▁지원 함으로써
▁어 나
▁어 학
▁안 을
▁안 으로
▁안 하는
▁국 적
▁강 경
▁마 냥
▁마 실
▁사용 량
▁원격 에서
▁문 경
▁시행 했던
▁분 리가
▁만 료
▁만 점에
▁미 안
▁많 다"며
▁많 다”며
▁필 두로
시간 과
시간 의
▁회사 들은
▁동 양
▁동 해
▁동 료를
▁받 음에
▁집 에서는
▁바 쁘
▁적 다.
▁적 정한
▁높 을
▁높 다”고
▁활 력을
▁추 이
▁6 천
▁6 층
▁6 000
▁6 명이
▁6 13
▁불 리
▁불 평
▁불 합
▁불 행
▁불 필요
▁스 미
▁가능 하기
▁가능 토록
▁남 쪽
▁증 후군
▁S aaS
▁사업 주의
▁금 방
▁진 의
▁진 화하고
▁시간 ·
▁통해 ,
▁필요 도
▁세 웠
▁세 번째
▁세 우는
▁사무실 처럼
▁반 박
▁재 충전
▁7 ∼
▁7 층
▁확대 하기
▁확대 된다.
▁운영 하지
▁운영 하고,
▁운영 하던
▁운영 방식
▁달 려
▁달 랐다.
▁외 곽
▁급 부상
▁사회 로
▁보안 은
▁보안 시스템을
▁보안 기준을
▁보안 위협
▁활용 하기
▁증가 했고,
▁실시 ,
▁실시 와
▁실시 된다.
▁실시 한다는
▁포 용
▁10 월부터
▁점 과
▁변 모
▁고용 하고
▁김 명
▁김 부
▁줄 을
▁지난해 까지
▁이용 객
▁이용 하도록
▁이용 권을
▁저 지
▁협 회
▁지역 별로
▁지역 사회의
▁간 식을
▁취 한
▁취 했다.
▁맞 습니다.
▁프 랜
▁시스템 인
▁시스템 이나
▁한국 이
▁한국 생산성
▁한국 소프트웨어
▁당 혹
▁입 니다.
▁초 점이
▁기간 인
▁함 양
▁배 로
▁조치 도
▁사태 와
▁검 사가
▁처 럼
▁신청 기간을
▁△ 비대면
▁△ 사무실
▁△ 사내
▁대응 ,
▁대응 의
▁대응 한
▁편 이고
▁명 당
▁자녀 출산
▁들어 줬다.
▁금융 위기
▁금융 위원회
▁금융 ·보험
▁과 부하
▁못 지않
▁생산 ·
스크 린
▁아니 어도
▁노동 의
▁노동 부가
▁아이 들은
▁나타 낸
▁시작 하면
▁P lan
▁물 량
▁물 었다.
▁물 가가
▁양 상을
▁절 감을
▁했 는데,
▁거리두기 와
▁거리두기 의
▁예정 돼
▁개인 주의
▁여성 과학기술
.kr )
▁정보 는
▁네 임
▁대표 를
▁대표 적으로
▁대표 되는
▁메 인
▁순 식
▁순 이다.
▁고객 은
▁고객 들은
▁고객 정보
▁많은 데,
▁연장 ,
▁연장 ...
▁강화 로
▁파 손
▁파 주시
▁구축 된
▁답 했다고
▁크 래프톤
▁채 권
▁가족 ,
▁가족 이나
▁25 개
▁법 으로
▁커 넥
▁클라우드 로
관리 자
▁30 ∼
▁30 만원의
▁15 개
▁15 ~35
▁C S
▁C &C
▁C BII
▁폐 업
▁적용 하기로
▁심 층
▁마련 이다.
▁필수 인원을
▁결정 하기로
▁결정 했다"며
▁추가 했다.
▁급여 로
▁근로자 들에게
▁학 업
▁화상회의 ·재택근무
▁19 일까지
▁박 수
▁박 스
▁박 씨는
.2 2
▁리 퍼브
▁IT ,
▁롯데 ,
▁롯데 버스
▁롯데 건설은
▁식 재료
▁속 초
단계 가
▁구성 돼
▁11 층
▁팀 은
▁팀 의
▁경제 적인
▁완 화된
▁확인 해야
회사 원은
▁추진 키로
▁발표 하면서
▁기술 ,
▁기술 적인
▁개발 도
▁폐쇄 와
▁폐쇄 됐습니다.
.1 1
▁이유 도
▁개선 한
▁개선 했다.
▁확진자 나
▁지속 하고
▁지속 한다.
▁휴직 과
▁휴직 으로
▁사업장 에서도
▁SK텔레콤 에
▁인사 처는
▁우려 는
▁100 명이
▁낮 춘
▁낮 음.
▁상담 ,
▁13 일부터
▁복지 카드
▁합 작
▁생활 과
▁생활 비
▁막 고,
▁막 론하고
▁조직 도
▁조직 개편
▁연구 와
▁업계 를
▁업계 에서
▁밀 어
▁창 녕
▁창 업을
▁번 씩
▁번 으로
▁매출 과
▁하나 요?
업무 가
업무 에
지원 에
▁경험 과
▁경험 자
▁삼성전 자의
▁프로그램 은
▁걸 고
▁걸 어서
▁강조 하며
▁최고 수준
▁타 깃
▁자율 성이
▁그러 자
▁허용 하지
▁허용 한다고
감염 증(코로나19)
▁만족 '
▁만족 하고
▁전국 적
▁데이터 와
▁데이터 베이스
▁산업 은
▁불가 리스
▁좋은 편
▁살 던
▁제한 했다.
▁잡 게
▁잡 히지
업체 들이
▁B M
▁감소 하고
▁인프라 ,
▁검토 한다는
▁토 요일
▁돌입 ...
▁돌입 하게
▁선정 하고
▁선정 되면
▁효과 적
시설 도
▁공급 할
▁성장 의
▁로 보
▁드 문
▁국민 청
▁복귀 에
▁네이버 ·카카오
▁키 울
▁일반 인
▁일반 회사원은
▁판단 ,
▁분야 에서는
▁엄 중한
산업 의
▁예상 된다”고
▁싶 다면
▁페이스북 을
▁돌봄 과
▁대체 인력을
▁상태 에
▁연차 가
▁끝 내고
▁알려 주는
▁활동 은
▁설문 조사는
▁해결 해
▁단계 별
▁코 드
▁코 워킹
▁단축 ,
▁단축 하는
▁출시 할
연구 개발
▁안정 성과
▁위험 한
▁0 ~1
▁그룹 통화
▁대책 의
▁중앙 정부
▁직원들에게 도
▁수행 해
▁보도 했습니다.
▁태 양광
▁없어 ”
▁행정 력
▁행정 부
▁행정 기관
▁행정 공백
▁있었 다"고
▁비교 했을
▁어렵 기
▁어렵 고,
▁1만 3
▁임산부 ·
▁피해 자
▁시차 제,
▁퇴근 하도록
▁이뤄 져
▁이뤄 지
▁위기 극복
▁트위터 에
▁200 5년
▁날 로
▁사이 에선
▁모바일 ,
▁스트 리트
하여 야
▁국회 가
▁애플 과
공사 (
▁상시 화
▁노동자 에게
▁노동자 들도
▁네트워크 와
▁네트워크 의
▁T e
▁않았 거나
▁부족 으로
▁망 분
▁LG전 자의
▁폭 이
▁일정 은
정책 관은
▁중단 할
▁중단 된다.
▁보장 한다.
달러 에서
▁착용 이
▁착용 해야
세대 를
▁벌 이
▁앱 은
▁청년 을
▁40 세
▁요구 에
▁요구 한
▁주목 하고
▁점검 ,
▁A씨 에
▁의미 의
▁항 체
▁블 록
개발 원
50 원
50 만원을
)’ ,
)’ 의
▁육아휴직급여 도
▁고용보험 에서
▁고용보험 기금
▁상품 도
▁상품 에
▁친 정
▁소득 은
▁보내 지
▁잇 는
▁업종 별로
▁불안 정
▁근무환경 에서
▁인정 받는
▁받았 고
▁받았 다"고
▁k t
▁공개 된
▁인원 수
▁동료 들이
▁동료 들에게
하자 .
▁침 입
▁회식 과
▁맡 기고
▁늘었 고
▁점심 을
▁요청 에
▁수당 도
▁불가능 했다.
▁모델 ,
하다 '는
▁36 5일
서울 형
▁윤 리
▁NHN 의
▁NHN 이
▁성공 적
▁놓 은
▁놓 인
▁남녀 고용평등과
스마트 폰
(7 8
▁거래 처
▁집에 만
▁쉬 고
▁있음 에도
▁무엇 이
▁걱 정을
▁골 자다.
▁제기 된
(8 0
▁보완 해야
▁부정 행
▁지정 한
▁소개 하고
▁지켜 보며
▁1인 용
▁구조 적
▁두기 로
▁유치 에
▁유치 원,
▁'워라밸 '(
▁비슷 하다.
▁마이크로소프트 ,
▁줌 의
▁▷ 한국
▁b kly
▁개최 할
▁기업문화 ,
▁갖추 는
.9%) 이
▁아파트 가
▁주택 을
▁종식 되더라도
▁가동 일
·고 령
▁식사 ·휴게
▁AI 가
▁창의 적이고
40 대
▁붙 은
▁여가 부
▁뿐 이다.
▁사고 방식
▁지나 지
▁지나 면서
▁아무 런
▁U +
▁재택근무· 원격
▁구현 해
▁40% 로
▁복무 지침
▁맛 이
▁사라 지고
▁중기 중앙
▁탈 바꿈
▁금융사 들은
▁중이 지만
▁33 .9%였다.
▁자연 스레
▁끊 이지
▁운용 하고
▁챙 길
▁특정 한
▁포스트 코로나
▁롯데면세 점이
▁120 다산
▁회계 사
▁제작 해
▁닫 고
▁보편 적인
▁팔 렸다.
▁초과 근로
▁넷마블 ,
▁사원 들이
▁수출 이
▁전직원 의
▁견 고
▁인터뷰 를
▁마케팅 을
▁남편 과
▁2025년 에는
▁놀 고
▁시청 하실
▁가져 야
▁주고 받는
.3%) 보다
느냐 가
비용 으로
▁불만 족
전문 가
▁위메 이드
▁경찰 청
▁신경 이
▁1, 000
▁일상화 되고
▁센터 는
(D e
▁대처 가
신문 에
▁얼굴 이
▁롯데지주 에
▁개념 을
▁고용부 에
▁46 .8%는
▁더존비즈온 ,
대체 인력
▁학습 을
▁충북 지역추진단
▁홍콩 ,
▁m y
▁근거 를
▁대다수 의
▁편집 ,
~5 0%
▁동의 했다.
~4 월
확진 자
▁집안 일
▁치료 제
▁재택·원격근무 가
▁일터 로
▁교수 ,
▁공약 했다.
▁토론 하는
하나 .
▁인센티브 제
▁'20 21
▁매장 에
▁근무제 에
▁멈 춤
▁한번 에
▁획 기적으로
▁띄 워
▁재정 의
▁찍 어
▁코로나19(COVID-19 )로
▁선도 하는
▁좋음 ,
▁중소벤처기업 부가
▁대리 운전
▁49 .7%로
▁몰입 도가
가상 화
▁3차 례
▁근무형태 로
▁주재 한
▁유도 하고
▁격려 했다.
’(3 5
▁업무효율 성
▁발의 한
▁케 이스
▁전송 할
▁“직원 들의
▁자리잡 고
▁능력 과
~8 9%
▁전세계 적으로
▁a s
▁첫째 ,
▁의사소통 을
▁의사소통 이
▁법안 은
▁떠오 르는
▁통신사 들은
▁딱 딱
▁달러 를
▁유형 별로
▁사망 자
▁SKT 는
▁워라 하
▁인텔 의
▁가속화 되고
▁기다 리는
▁유일 하다.
▁폭증 한
▁객 실
(35 %)
▁이동통신 사
▁중앙재난안전 대책본부는
공동 화
▁대구시 청
▁빼 고
카페 ,
협력 사
▁느껴 진
▁클럽 발
0년대 생
▁분당 구
▁포인트 를
▁라인웍스 의
▁'아빠 '
▁비상상황 에
▁용이 하다.
▁예술 인,
▁전격 적으로
▁손해 를
▁노하우 가
▁수요기업 이
▁해커 들이
▁걷 잡을
▁비자 발적
▁불법 복
▁고양 이
▁이번주 까지
▁육박 하는
▁맘 에
▁결합 해
▁산재보험 에
▁읽 어
▁평등 권
▁체감 할
▁1.5 배
▁에듀 테크
▁슬랙 ,
▁에이 수
▁특화구역 의
연합 회
▁법원 행정
(66 11
▁라인플러스 가
~30 일
프리 카
▁옥 상
▁친화 적인
▁인사관리 시스템
▁웹사이트 를
▁‘홈 오피스
▁파이 프라인
▁섞 인
▁시상 식에서
▁두드러 졌다.
▁타입 의
▁임신·출산 ·육아
** **
보장 협의
▁누군 가
▁헤이스팅 스는
▁가깝 다.
▁금전 적인
▁토크 콘서트
▁퍼블 리싱
▁'제 4차
▁급변 하고
▁국무총 리는
▁국무총 리가
▁중견 ·중소기업
▁인접 해
▁‘한 컴
▁“확진 자가
---------------- ----------------
pl us
▁다행 히
▁양극 화
▁슬기 로운
▁JP모건 체이스
▁시큐 리티
▁9개월 간
▁블로그 를
▁GC녹십 자
▁“여 러
▁목요일 은
▁하나금융 투자
▁니즈 를
▁미루 고
▁취급 하는
▁채우 지
▁흡 연
▁광범위 한
▁시가총 액
▁1.5단계 로
▁전경 .
▁의사결 정을
(Te ams
▁news inf
▁블라인 드
▁잇따르 자
▁애로 사항을
▁한국인터넷 진흥원(KISA
▁음주 운전
▁직장갑질119 는
▁일방 적으로
▁"여 러
▁시행세 칙
▁금천 구
매니 저
▁손잡 고
▁비용절 감
▁중앙재난안전대책본부(중대본 )는
(콜센터 )
의사 소통
▁중장 기적으로
▁그다음 으로
▁안타까 운
▁시너 지를
▁고인 물
▁사무총 장은
균열 증후군
▁신생 아
▁각별 히
▁중소ᆞ 중견기업
▁가족관계 증명
▁인증마크 를
▁방과 후
▁재택・ 원격근무
▁코로나바이러스감염증 -19
즈헬퍼 원
먼밀 러
▁조은 희
▁증강 현실
▁9.4 개월
▁연장·야 간
▁일부개정법률 안
그니 처
▁대열 에
▁동호 회
▁박광 온
inu ity
▁비대면(언택트 )
카데 미
▁비재무 적
▁엔비 디아
▁Cont inuity
▁11만20 40
▁bkly 477@asiae.co.kr
▁newsinf o@hankyung.com
% 까지
' 이다.
( 요
( 소비
) 씨
1 일까지
3 명으로,
4 1
4 명을
5 명으로
9 7
: 1
F A
G F
N E
T S
X )
g r
h s
k ang
s )
t h
w are
~ 19
~ 16
· 임
· 제
· 집
· 제도
· 통신
· 가정
· 사진
· 소통
· 취업
· 넥슨
’ 까지
’ (14
’ (17
▁ 맹
▁ 윌
▁ 즈
▁ 튼
▁ ru
가 게
가 락
가 야
가 에서
값 을
강 제
건 에서
걸 음
게 요
겠 다
경 이
교 수는
급 으로
기 서
기 환
나 라도
내 에
내 외
니 치
니 스는
닌 텐
더 라고요.
던 데
데 다
도 입
동 거
동 영상
돼 서
되 다
두 면
들 까지
때 는
란 타
러 닝
렸 는데
로 더
리 움
마 이스
만 달러
말 부터
망 으로
맞 벌이
맨 이
멘 토
모 임을
모 빌리티
문 일
미 화
바 닥
방 학
방 에서
배 제
병 원,
부 도
북 구
북 목
분 들
분 까지
브 라우저
비 자
비 디오
빅 데이터
사 대비
살 이
상 위
상 환
서 나
선 거
설 명
성 훈
션 데스크
소 의
속 에
수 사
수 단을
숙 련
슈 어
스 -
스 도
스 턴
스 틴
스 란히
승 현
시 작
시 대에
식 도
신 의
씨 를
아 는
아 라
았 지만
억 5
었 는데,
에 ...
엔 드
여 ·
역 에서
였 으나
오 기
요 건을
용 인
우 나
우 드
움 은
워 요
유 입
으 라
이 긴
인 지,
일 지
일 랜드
있 게
있 습니다.
자 ’
자 유
점 )과
젤 레스
조 건을
주 주
주 기자
주 세요
중 단
직 급
질 병
집 약
집 니다.
째 를
책 으로
청 구
청 정
체 인
출 연
커 녕
코 모
태 기자
터 는
토 론
퇴 사
특 고
특 성
팩 터
편 한
프 라는
플 랜
하 곤
하 셨
하 반기
하 니까
한 다”면서
해 준
했 는
했 습니다
허 브
현 상
혜 진
화 이트
환 국
▁이 걸
▁이 태
▁이 베이
▁이 곳은
▁있 긴
재택근무 ,
▁재택근무 중
▁재택근무 ..."
▁재택근무 자들의
▁기 강
▁기 증
▁기 르는
▁사 령
▁사 원은
▁사 우스
▁대 략
▁대 박
▁수 록
▁1 .8%
▁1 ~5
▁시 기가
▁시 선을
▁시 점에서
하는 지
▁2 가지
▁전 교
▁직 협
▁가 졌다.
▁일 간
▁일 렉
▁일 례
▁일 실
▁일 러스트
▁일 가정양립
▁중 문
▁한 마
▁한 잔
▁한 다’는
▁보 고,
▁인 체
▁인 슈어
▁인 프라는
▁위 에서
▁업 로드
▁직원 이라면
▁정 영
▁정 원
▁자 는
▁공 제
▁공 부를
▁3 분
▁3 사가
▁3 만5
▁기업 가
▁기업 고객
▁기업 가치
▁경 로를
▁상 표
▁‘ 재
▁‘ 코
▁‘ 기업
▁‘ 부모
▁‘ 보안
▁‘ 자녀
▁‘ 모바일
▁‘ 소득
▁‘ 13
▁‘ 인구구조
▁코로나19 라는
▁아 기를
▁아 날로그
▁“ 3
▁“ 고
▁“ 국
▁“ 미
▁“ 장
▁“ 방역
▁“ 남성
▁“ 구글
▁“ 평소
▁“ 구성원
▁“ 과거
▁“ 청와대
▁업무 나
▁업무 별
▁업무 협
▁근무 ’
▁근무 했다.
▁근무 지로
▁근무 체계
▁" 구
▁" 또
▁" 육아
▁" 감염
▁" 원격
▁" 가족
▁" 사람
▁" 포스트
▁" 공공기관
▁" 대구
▁" 새로운
▁" 해당
▁" 처음
▁다 고
▁다 닥다닥
▁비 는
▁비 ()
▁주 방
▁주 조원
▁' T
▁' 당
▁' 유
▁' 생활
▁' 이노
▁' 한국
▁' 만족
▁' 순환
▁' 4차
▁' 비상
▁' 워라
▁나 간다는
▁고 노
▁고 전
▁고 스란히
.. ...
▁회 귀
▁회 수
▁연 쇄
▁신 문
▁신 축
▁신 도시
▁있는 지,
▁그 걸
▁그 램
▁그 해
▁그 치지
▁내 역을
▁구 간
▁구 동
▁구 이
▁구 정
▁통 지
▁도 소
▁도 청
▁모 던
▁실 망
▁실 비
▁실 증
▁않 겠
▁않 던
▁않 지만,
▁개 척
▁없 다”면서
▁없 다’는
▁없 다’고
▁해 체
▁오 를
▁오 름
다” 라는
다" ...
▁4 억
▁4 인
▁4 가지
▁4 .5일
▁말 하기
▁5 분
▁5 만9
▁5 만원,
▁생 소한
▁지원 하며
▁지원 제도
▁어 져
▁확산 됨에
▁안 녕
▁안 되고
▁강 도를
▁마 침
▁의 원의
▁계 기
▁사용 가능
▁사용 률도
▁사용 량도
▁원격 지
▁거 친
▁노 부모
▁20 %가
▁예 년
▁예 쁘
▁만 드
▁만 하다.
▁때 일수록
▁회사 측은
▁동 구
▁동 문
▁동 부
▁동 향
▁받 기도
co l
▁늘 린다.
▁선 명한
▁적 법
▁적 자
▁결 심
▁추 출
%) ’,
▁우 주
▁설 비를
▁불 문
▁불 참
▁불 규칙
▁대상 의
▁대상 자에
▁스 포
▁가능 했다.
▁가능 하면
센터 가
센터 로
센터 장은
▁특 성과
▁차 려
... 직원
▁운 송
▁매 이지
▁성 적
▁8 78명을
▁같 다
▁S V
▁진 지
▁진 료를
▁본 토
러스 터
▁교 훈
▁교 사와
▁이상 한
▁올 렸
▁세 인트
▁서비스 나우
▁반 차
▁재 활용
▁출근 으로
▁7 대
▁확대 는
▁상황 이라
▁할 까
▁달 래
▁달 여
▁달 째
▁달 할
▁달 라는
▁돌 리는
▁무 섭
▁무 이자
▁건 조
▁서울 은
▁평 면
▁화 제
▁화 제를
▁사회 정책
▁활용 하게
▁증가 했습니다.
▁실시 하도록
▁관계 자와
▁10 2
▁9 명이
솔루션 을
▁체 인
▁들 면
▁관련 주로
▁고용 률
▁김 우
▁김 희
▁대상으로 도
▁줄 이면
▁지난해 에
▁중소 ‧
▁이용 에
▁이용 하기
▁저 도
▁앞 뒤
▁협 박
▁발생 했다고
▁지역 도
▁취 하는
▁프 리드
▁각 기
▁L C
▁워 드
▁한국 인
▁한국 은행
▁당 면
▁당 해
▁당 했다.
▁국내 에선
▁진행 해야
▁온 택트
▁초 ,
▁기간 도
▁기간 동안
▁배 환국
▁A S
▁A BC
▁관리 하기
▁결과 물
▁방식 ,
▁△ 사용
▁방역 도
▁편 중
▁명 ,
▁명 단을
▁자녀 양육
▁직장인 ,
▁직장인 들도
▁재택 은
▁한다. ”
▁되 지만
▁생산 적으로
▁대비 하는
▁미국 에선
▁노동 환경
▁전환 하고,
▁아이 스크
▁시작 하고
▁응 용
▁양 사
▁거리두기 '가
▁새 해
▁일부 러
▁여성 도
▁것이 고
▁정보 기술
▁온라인 뉴스
▁사회적 경제
▁효율 과
▁효율 은
▁비대면 ,
▁메 타
▁청 결
▁연장 하고,
▁공무원 이나
▁파 워
▁조사 대상
▁조사 대상이
▁구축 하기
▁작 아
▁작 사가
▁출산 휴가를
▁크 루
▁열 릴
▁열 이
▁열 차
▁열 흘
▁허 성
▁가족 에게
▁법 원이
▁법 원의
▁커 져
▁공간 인
관리 팩
▁생각 하
▁생각 하게
▁생각 한다"고
▁30 여
▁30 만원씩
▁15 .6
▁15 00만원을
▁15 78명을
▁출퇴근 ,
▁약 국
▁문제 에서
▁심 함
▁심 포지엄
▁PC 의
▁마련 될
▁안전 망
▁안전 이
▁사내 근무
스트 레스
▁필수 적이다.
▁결정 한다.
▁추가 됐다.
▁학 계
▁화상회의 는
▁19 가
▁박 형수
▁박 대기
▁교육 감은
.2 점
▁리 스트
▁넘 긴
▁플 립
▁보고 하고
▁보고 해야
▁IT 업계에
▁롯데 건설
▁롯데 하이마트
▁부서 간
▁부서 원
▁속 도는
▁기존 보다
▁11 0
▁11 .1%에
▁공공 데이터
▁팀 이
▁팀 마다
▁팀 뷰어
▁평가 할
▁경제 단체
▁경제 학과
▁일본 에
an y
▁스마트 제조
▁제외 했다.
▁않는 다면
▁중요 시
▁중요 하다”며
▁추진 계획
▁발표 하는
▁발표 했습니다.
▁기술 개발
▁형 사
▁폐쇄 ·재택근무
▁민 선
(2 월
▁선택 했다.
▁휴직 기간
▁세계 로
▁세계 의
▁세계 경제
▁언 어
▁언 젠
▁인사 에
보험 의
▁낮 음
▁1년 까지
.7 %는
휴가 제도
▁착 안
▁생활 비가
▁충 성
▁충 실히
▁애 를
▁창 고
▁정책 적
▁번 의
▁삶 은
▁예방 하는
▁집중 력을
▁집중 되고
▁중심 이
▁참여 하고
▁카카오 뱅크는
▁성과 는
▁성과 와
▁전망 하고
▁프로그램 이다.
▁마스크 ,
▁시대 에는
▁영향 도
▁최고 치
▁자율 주행
▁허용 된다.
▁공유 ,
▁임신 ,
▁만족 할
▁영업 시간을
▁인력 도
▁산업 군
▁산업 구조
서비스 의
서비스 (A
▁23 개월
▁플랫폼 과
▁플랫폼 사업
▁논 설위원
▁투자 한다.
▁육아휴직자 도
라이 클리닝
▁감소 하는
▁인프라 에
▁돌입 할
▁선정 한다.
▁현장 근무
▁통신 업계에
al l
시설 인
▁늘어나 면
or @joongang.co.kr
▁공급 한다.
▁공급 한다고
▁공급 기업의
▁백 복인
▁소통 하고
▁국가 는
▁국가 로
▁국가 에
▁국가 정보
▁국가 공무원
▁N ormal
▁용 량을
▁용 무를
▁극 심한
▁소프트 뱅크는
지역 본부
▁병 원과
▁자체 에
▁인증 ,
▁인증 체계를
▁건물 의
▁확보 하고,
산업 협회
▁예상 한다.
▁돌아 와
▁연봉 .
▁대체 하고
▁끝 까지
▁활동 으로
▁해결 하고
▁출시 해
▁V M
▁부산 의
▁부산 시는
▁부산 롯데호텔
▁위험 성을
▁0 .3
▁0 .5%
▁0 .2%
▁22 .8
▁/ 세종=
▁브 라질
▁버 틸
▁연결 할
▁겪 게
▁조성 된
▁조성 하고
▁혁신 에
▁혁신 하는
▁21 %
▁G -
▁G 8
▁G PS
▁태 영호
▁없어 진
▁비해 서는
▁자신 에게
▁자신 감을
▁자신 만의
▁행정 소송
▁2019년 에는
▁있었 다는
▁있었 지만,
▁여부 도
▁50 개
▁50 .5
ang @ajunews.com
▁1만 5
▁1만 7
▁1만 명
▁1만 485
▁됐 기
▁분산 배치
▁D esktop
▁철 도
▁이뤄 졌
▁3일 은
▁제조 ,
▁날 부터
▁조정 한
▁활성화 할
30 만
▁일상 생활
▁정착 할
▁패 션
수당 이
▁구성원 과
▁구성원 들
▁구성원 들에게
▁상시 적
▁T 전화
▁않았 습니다.
▁"코로나19 의
▁많아 져
▁은행 의
▁인구 는
▁연기 된
▁1회 보다
▁덧붙 였습니다.
in @joongang.co.kr
in @seoul.co.kr
▁중단 이
▁보장 되는
▁취업 의
기간 으로
▁사용자 에게
▁스타 스
▁착용 할
▁뉴욕 시
▁뉴욕 의
▁작업 에
▁미래 의
이었 으나
▁주목 할
▁차단 해야
▁장점 .
▁장점 :
▁도시 로
▁점검 했다.
▁점검 하고,
▁권장 한다고
▁경쟁 력이
▁파악 을
▁팬 더믹
▁가구 는
▁울산 지역
▁언제 든지
▁콘 솔
)’ 는
)’ 도
▁게임 ,
▁만들어 진
▁고용보험 료
▁서울시 ,
▁불편 하고
▁완화 할
▁완화 하고
▁완화 하기
▁소득 을
▁떠 난
▁재택근무제 '를
▁씨 트립
▁웹 엑
▁불안 을
▁불안 감은
▁학교 와
▁학교 에서
▁안내 ,
▁안내 한
▁귀 찮
▁NH 투자증권
▁전문가 가
▁극복 해
▁접근 을
(W EHAGO
▁인정 하고
▁인정 받을
▁취약 할
▁팬데믹 을
▁돈 도
▁받았 다"며
▁실천 을
▁반영 할
▁업무용 으로
▁동참 했다.
하자 고
▁화면 과
▁힘들 게
▁힘들 다
▁늘었 다”고
▁보건 ·사회복지
▁2년 을
▁보니 ,
re mote
▁불가능 하다는
▁어린이집 이
▁시설 ,
▁시설 도
▁준수 해
▁아마존 과
▁36 9
▁키우 면서
▁놓 여
▁시행한 다"고
▁다니 기
▁유급 으로
▁발전 을
▁발전 할
▁때까지 는
▁가격 으로
(7 4
(7 9
▁엄마 와
▁보여 주고
▁병행 해야
▁앉 으면
▁설문조사 에서도
▁H TM
(8 8
▁보완 을
상담 사
스( M
▁조금 만
가능 한
파트 너
▁교통 비를
▁리더 의
▁서로 가
▁프로젝트 ,
▁주장 에
▁하락 이
▁개정안 에
▁개정안 에는
▁장려금 ’
▁지자체 에서
▁소상공 인은
▁강남 지청
▁제조업 ,
▁건설 ,
▁건설 회사
▁비슷 하게
.5% 에서
연구소 에서
▁2020년 에는
▁없었 다고
▁벗 어
▁위협 도
사항 이
▁아동 이
▁아파트 를
▁‘워라밸 ’을
▁유통 업계
▁신설 한다.
▁공장 의
▁수립 하고
▁책상 ,
▁책상 은
▁AI (인
▁법률 구조
.2%) 이
▁줄어들 면서
▁왜 곡
▁하이 퍼
▁올라 와
▁터 져
▁설계 했다.
▁슬 로
▁슬 림
▁슬 링
▁이해 관계
▁내려 졌다.
▁U BS
▁재택근무· 화상회의
▁명확 하지
▁측면 에서는
▁넓 혔다.
▁저장 하는
▁CN S
m2 당
▁천 천히
▁업무환경 에
방송 에
▁끝나 는
▁구분 하는
.8% 에서
질환 자
▁등록 금을
▁실행 하는
▁LS 그룹은
▁과거 로
▁과거 와
’( 9
파이 낸셜
▁카카오톡 이
▁이슈 로
▁120 만원에서
▁옮 긴
▁옮 기고
▁나와 서
▁카메라 로
▁다르 겠지만
▁체크 를
▁라 이스
▁라 디오
▁배치 하고
▁임신부 나
▁전직원 을
▁디자인 과
▁쿠 션
▁마케팅 ,
▁높여 줄
▁존재 하는
▁2.5단계 가
▁조직문화 가
▁중소·중견기업 의
진흥 원은
▁진정 된
전문 대학원
▁페 어
▁신경 써
(0 3
했는데 요.
▁투입 해
보건 기구
▁랜 선
▁간편 식
▁자동차 부품
▁실현 할
▁순차 적
▁창원 복합문화센터
▁구로구 에
▁레 저
▁왔 던
▁기저 귀
▁모니터링 하고
▁자산 을
▁서초 구가
▁높았 다고
▁낳 을
전자 결재
▁선언 을
▁현대차 는
▁현대차 와
▁늘려 야
.0%) 이
수급 비
▁채택 했다.
~5 4세
▁오래 된
▁분류 된
▁설립 했다.
▁"직원 들의
▁활발 한
(10 1
▁상사 로부터
▁교수 의
▁정규직 으로
▁공약 으로
▁똑 같
▁인센티브 가
▁변호 사가
▁65 %는
▁명의 의
▁혼란 에
▁벌어 지는
▁CNBC 가
▁절약 할
▁봉쇄 령
▁띄 었다.
네트 웍스는
(15 .7%)
▁국무 회의
▁메시지 와
(주 식
▁업무지 시를
’(3 1
’(3 2
’(3 6
▁롯데그룹 이
▁급속 한
▁9시 ~오후
▁보편화 되면서
▁암호화 해
▁옆 에서
▁오픈 서
▁둘째 ,
▁헌 재
▁사랑 을
▁사랑 제일
▁2020 .0
▁파트너 는
▁파트너 사
▁첫째 는
▁간단 하게
▁겹 쳐
▁성능 과
▁판결 을
▁판결 이
워킹 맘
~~ ~
▁이름 으로
▁이스트 소프트
▁“일 반
▁“일 본
▁주의 가
▁주의 해야
▁69 개
▁짧 게
▁이끌 고
▁"회사 가
▁150만원 ),
▁떨어져 서
▁제정 해
▁"그 러나
시킨 다.
▁고정 관념
(12 %)
▁전자금융 거래
~10 시
▁직급 이
▁김정 환
▁사생활 이
▁성격 에
▁과제 다.
▁표현 했다.
▁팩 스
▁살아 가는
▁엠 브레인
▁1개월 부터
보육 을
채용 을
▁공략 에
▁공략 을
▁협업도 구를
www .k
▁틀 어
▁근처 에
▁리더십 이
▁억 울
▁비효율 적인
▁저희 가
▁DaaS 는
30분 까지
▁중간 중간
▁주가 도
▁유동 적으로
▁단점 :
▁재해 로
▁월스트리트저널(WSJ )이
▁수상 했다.
▁v 11
▁수요기업 을
종합 )
▁솔직 하게
▁중소·벤처기업 이
▁키워 드
▁획득 한
▁팬데믹( 대유행
▁[ 중부
▁내일 채움공제
▁발달 로
▁끌어올 릴
K- 재택근무
▁평등 한
201 8년
▁소득대체 율은
연장 근로
▁심리 상담
▁밀폐 ·밀집
km e
▁1.5 m
▁자기계발 을
▁OT T
▁쏠 리고
▁앞당 겨
▁내세 워
▁도서관 ,
▁정례 화
▁법제 사법
▁이르 렀다.
▁세일 레
▁IM (IT
▁라인플러스 는
▁se o
▁그림 을
▁내외 로
▁SK건설 이
▁취재 했습니다.
▁이어가 기로
▁조처 를
▁점진 적
해달라 "고
▁지주 사
▁지주 사인
▁'3 +2
▁거제 시
▁김경 진
▁검단신도시 의
▁K- 비대면
▁과학기술정보통신 부
▁넣 어
▁조용 히
▁의혹 이
▁초래 할
▁착신 전환
고령 자
▁어머니 가
▁받으 실
메시 지
▁마사 지를
▁2030 세대
▁기아차 는
▁공항 동
▁부장 급
▁유발 할
▁폭넓 은
마이 오피스
▁바닥 에
▁프레 임
▁이통 3
▁받아들 여
▁이탈리아 ,
▁국면 에서
▁마시 고
(1만 7665
▁“확진 자
▁불평등 을
▁백악 관
▁치아 균열증후군
▁스트레 스는
▁대선주 조는
▁‘심각 ’으로
▁마비 되는
▁무너 지고
▁패러다 임
체육 관광
▁신선 한
▁불거 진
▁복수응답 )를
▁김진 욱
▁유망 중소기업
▁데일리 뉴스
▁산업재 해
▁정시 퇴근
▁인사· 노무
화장 품
▁고심 하고
▁게이트 웨이
▁걸렸 습니다.
▁“남 양유업
▁강행규정 으로
▁업무처 리가
▁JP모간 체이스
(복수응답 )로
▁엑 셀
▁주어 진다.
▁10만5 165
▁대대 적인
▁비례 해
▁4주 째
▁스위 스
▁관리· 감독
▁세일즈포 스
평생 교육
▁당기 순
▁겨울 철
▁셔틀 버스
▁가림막 을
▁동국제강 은
pe ar
▁딩 톡
▁수수 료
·사 산
▁건전 한
▁현대중공업 은
▁임금감소 보전
▁가사근로자 법
·확 대
▁모의 훈련
▁20~30 대
▁과감 히
▁‘집콕 ’
▁칭 찬
▁불이 행
▁물류창고 로
▁"다 만
▁고백 했다.
▁형평 성
▁구조조 정이
▁tru e
인증( CSA
▁인문 학
▁명백 한
▁NA SA
계획(BC P
▁끼니 를
▁경제협력개발기구(OECD )
▁론 칭
▁경진 대회
▁배후 수요
▁im c@ajunews.com
▁포브 스는
▁인사발 령
▁Net work
▁사회관계망 서비스(SNS
터테인 먼트
▁하태 훈
▁4차산업 혁명
▁좋은책신 사고
전자금융 감독규정
▁김부 겸
▁'워라밸'( 일과
보장협의 체
▁HTM L
▁AI(인 공지능
▁[중부 매일
( f
( 기
( 대
( 아
( 원격근무
( 중소기업
( 수원
( 구청장
( 통상임금
- O
0 2
0 4
3 %
3 8
4 명,
6 %)
6 명을
7 0%
8 개
9 월
9 000
A D
B P
B Q
G S
H D
I X
M A
M O
O T
S 7
S R
U V
W FH
[ kyuplee
e ws
f orm
h i
i v
i le
j ang
k @joongang.co.kr
o T
p ://
r a
u ng
~ 13
~ 79%
· B
· 비
· 서
· 회의
· SK
· 외부
· 행사
· 판교
ᆞ 생활
’ 에는
’ (20
▁ 널
▁ 닛
▁ 뒀
▁ 룰
▁ 앙
▁ 율
▁ 찌
▁ 찰
▁ 까지
▁ 0%
▁ am
▁ is
▁ 큐브
▁ com
가 산
가 짐
간 판
개 )
거 리를
건 조
건 지
경 조
골 프
공 고
교 환
구 구
규 곤
금 고
급 휴가
기 예
길 래
내 일
노 인
놀 라
다 발
다 양한
단 으로
대 지
덴 티티
델 타
도 코모
두 리
두 레이
드 려
디 언
디 에
또 는
러 진
로 서는
리 스크
립 니다
마 ,
막 을
면 으로
면 에서
모 니
모 를
몰 입
물 론
미 영
민 당
발 이
방 이
배 움
버 는
버 트
법 령
법 원
베 르
변 화를
변 화에
보 고,
복 장
복 직
봐 도
부 회
부 서는
분 들의
불 급한
브 릭
비 (
비 드
사 나
산 물
살 균
상 욱
상 치
상 품을
생 의
세 무
소 와
수 ·
숙 박
쉬 는
스 닥
승 일
시 리
시 절
시 에는
시 장을
신 은
신 내역
실 험
실 드홈
심 리
아 도
안 심
앤 씨
앤 젤레스
양 성
어 스
업 의
었 다"며
었 어요.
엘 리
였 는데
영 효
오 를
오 브
요 한
요 불급한
우 며
운 다.
원 까지
월 급
위 에서
유 정
으 므로
을 까.
음 소
의 민
일 본
임 선생님
자 격
자 연
잘 못
장 인
장 터
재 도
재 원
재 팬
전 시장
정 민
정 액
제 외
졌 다"고
조 8
조 선
종 이
줌 .
중 교통
지 니
지 사가
질 랜드
집 을
차 피
차 이즈
착 용
채 널
책 임을
처 와
천 시
철 을
청 사에
체 류
추 후
치 며
칠 성
카 우
커 스
콤 플렉스
퀘 스트
클 라이언트
태 도
터 치
테 리아
통 이
트 리
티 아
팀 에
풀 이
하 러
하 자,
하 네요
한 부모
한 다’는
합 창
해 고
해 지고,
했 다’는
했 다'고
행 동
행 은
헬 스
현 진
화 될
확 인
힘 을
▁이 가
▁이 도
▁이 하는
▁이 들에
▁있 느냐
▁있 죠.
▁기 분을
▁기 태영
▁사 규
▁사 로
▁사 적인
▁사 측은
▁대 충
▁대 세가
▁지 혜
▁수 ·
▁수 성
▁수 화
▁1 번
▁1 일(현지시간)
▁1 .9%
▁1 .8%에
▁시 골
▁시 의
하는 데,
▁2 ∼
▁2 시
▁2 .7
▁2 시부터
▁전 성
▁전 에도
▁전 원에
▁등 에게
▁가 해
▁것 ’이라고
▁확 연히
▁일 한다.
▁일 요일
▁중 도
▁코로나 의
▁코로나 (코로나19)
▁한 도는
▁한 곳에
▁인 간의
▁위 법
▁위 헌
▁직원 일수록
▁제 너
▁제 안을
▁정 산
▁정 오
▁자 고
▁자 진
육아 에
▁경 기가
▁상 하이
▁상 사와
▁‘ 기
▁‘ 로
▁‘ 만
▁‘ 원
▁‘ 지
▁‘ 힐
▁‘ 경제
▁‘ 정부
▁‘ 협업
▁‘ 착한기업
▁‘ 거점
▁‘ 남녀고용평등법
▁육아 비용으로
▁“ '
▁“ 반
▁“ 실
▁“ 위
▁“ 중
▁“ 인구
▁“ 디지털
▁“ 수도권
▁“ 모든
▁부 추
▁업무 능
▁업무 에서
▁업무 대행
▁근무 보다
▁근무 제로
▁근무 여건
▁" A
▁" 금융
▁" 일과
▁" 직장
▁" 디지털
▁" 필수
▁" 정부는
▁" 공공부문
▁방 위
▁방 호
▁방 에서
▁다 키
▁다 문화
▁비 트
▁비 전을
▁최 두
▁최 은
▁' '
▁' 경
▁' 보
▁' 일과
▁' PC
▁' 공무원
▁' 화상회의
▁' 라인웍스
▁관 람
▁조 업
▁조 윤
▁조 재
▁조 현
▁조 규곤
▁하 원
▁하 다보니
▁출 원
▁원 아
▁원 치
▁원 주시
▁원 승일
▁고 열
▁고 흥
▁육아휴직 이나
▁유 혹
▁따 르는
▁서 대문
▁신 기
▁신 장
▁신 호
▁신 제품을
▁그 친
▁내 의
▁도 가
▁도 의
▁도 ·소
▁모 른다.
▁실 물
▁않 겠다는
▁없 다”는
▁해 줄
▁오 산
▁오 투
▁오 프
▁오 현
▁오 르고
▁오 류를
▁여 자는
▁소 중
▁소 집
▁임 박
▁임 이랑
▁4 급
▁말 하면
▁발 주
▁발 목을
▁어 찌
▁안 성
▁국 ·
▁마 이크로
▁의 자를
▁의 자,
▁의 외로
▁계 시
▁계 양
▁계 좌
▁사용 하며
▁거 점을
▁거 예요.
▁노 리는
▁시행 합니다.
▁분 배
▁분 들도
▁20 ~
▁20 ~30%
▁미 쓰
▁많 다"고
▁근 린
▁동 결
▁받 습니다.
▁받 거나
▁집 에선
▁선 점
▁선 례를
▁적 음
▁밝혔 다고
▁더 구나
▁추 억
%) '는
▁6 00만원
▁경우 다.
▁도입 도
▁도입 돼
▁스 파크
▁남 의
▁특 구
▁차 로
▁차 현아
▁매 도
▁따라 야
▁8 ∼
▁8 살
▁8 000
▁기자 실을
▁사업 추진
▁금 투
▁금 액이
▁진 학
▁시간 )
▁교 사를
▁올 들어
▁필요 는
▁필요 성
▁필요 없는
▁직장 내
▁재 설계
▁재 배치
▁재 가동
▁7 시까지
▁7 42
▁확대 됐다.
▁확대 하겠다는
▁복 구
▁운영 될
▁운영 사
▁운영 의
▁운영 해왔다.
▁외 면
▁환경 에도
▁환경 미화
▁무 난
▁무 효
▁판 정이
▁급 작
▁급 한
▁건 데
▁서울 대학교
▁서울 스퀘어
▁원격근무 지원
▁접 객
▁화 려
▁사회 와
▁증가 하며
▁실시 됐다.
▁실시 키로
▁10 1
▁10 배
▁10 점
▁10 기가
▁10 ~20
▁9 2
▁9 명
▁점 수
▁변 했다.
▁좋 게
▁좋 다"고
▁좋 겠다”고
▁때문 이라고
▁고용 이
▁고용 할
▁고용 률이
▁김 봉
▁김 앤
▁데 려
▁중소 ・
▁이용 료
▁이용 한다.
▁이용 자도
▁같은 날
▁저 해
▁사람 인은
▁사람 과의
▁지역 에서도
▁임직원 들에
▁취 해야
▁맞 을
▁맞 대고
▁거리 는
▁남성 도
▁남성 들이
▁한국 노동
▁한국 서부
▁당 장은
▁국내 에서는
이나 마
▁진행 하기
▁진행 하기로
▁온 갖
▁온 프레
만원 )를
▁조치 의
▁조치 한
▁조치 들을
▁조치 "라고
▁관리 해
▁방식 에서
▁신청 서
▁신청 일
▁△ 출퇴근
▁△ 클라우드
▁△ 외부
▁방역 하고
▁방역 소독
▁대응 하고,
▁자녀 들이
▁행 사와
▁들어 갑니다.
▁직장인 에
▁직장인 에게
▁직장인 들에게
▁재택 노동
▁클 수록
▁과 자
▁되 겠
▁되 기를
▁요 인은
▁대비 가
▁미국 인
▁전환 됐다.
▁아이 덴티티
▁전체 로
▁나타 내고
▁시작 하면서
▁시작 하기로
▁시작 했고
▁지급 되지
▁P ri
▁물 량이
▁양 적
▁양 사는
▁중소기업 ,
▁중소기업 들의
▁중소기업 ·소상공
▁콜센터 로
▁대기업 도
▁대기업 으로
▁대기업 이라
▁예정 이
▁예정 했던
▁예정 이던
▁일부 가
▁여성 인력
▁것이 기
▁비대면 ·재택근무
▁순 수
▁고객 ,
▁고객 들을
▁고객 에게는
▁청 량
▁파 고
▁조사 에서도
▁조사 국은
이스 워터
▁월 드
▁출산 할
▁출산 장려금
▁열 렸다.
▁기준 )이
▁응답 률이
▁트 레이
▁트 레이닝
▁법 에
▁총 판
▁커 버
▁피 하는
▁피 보험
▁클라우드 의
▁클라우드 에서
▁생각 함
▁생각 이다.
▁생각 한다"며
▁30 만원을
▁15 %를
(1 40
명이 었던
▁약 정
▁약 국,
▁잘 할
▁적용 하면
▁PC R
▁PC ·
▁PC 에는
▁마련 하기
▁마련 하고,
▁본사 .
▁필수 가
▁필수 인
▁필수 적이지
▁수요 와
▁결정 하게
▁결정 했습니다.
▁뒤 인
▁뒤 에는
▁협업 해
▁협업 솔루션
▁근로자 들
▁학 과
▁변화 다.
▁교육 도
▁교육 훈련
▁교육 공무
사업 의
▁넘 기
▁IT ·
▁롯데 푸드
▁롯데 칠성
▁식 대
▁유지 ,
▁구성 하고
▁구성 되어
.8 %를
▁11 월부터
제로 의
▁팀 원이
▁평가 받았다.
▁기능 이다.
▁경제 전문
▁완 비
▁적극 적이다.
▁확인 돼
▁확인 되면서
▁않는 다"며
▁곳 ,
▁기술 력과
▁워라밸 (Work
▁개발 ·운영
▁폐쇄 될
▁폐쇄 된다.
▁폐쇄 되고
▁폐쇄 조치
▁민 관
(2 만2
▁부모 들의
▁개선 점
▁개선 됐다.
▁선택 적으로
▁방침 "이라고
▁휴직 ·휴가
▁휴직 급여를
▁손 영
▁손 실이
▁손 세정
▁100 %,
▁낮 을
▁낮 출
▁쓰 이는
▁상담 원이
▁상담 원의
▁유연근무 ,
▁유연근무 가
▁유연근무 제로
▁KT X
▁뉴 시스
▁13 곳
.7 %였다.
▁복지 제도를
▁착 석
▁생활 안정
▁막 막
▁연구 하고
▁연구 동을
▁애 저
▁업계 에서도
▁오피스 '
▁오피스 와
▁정책 금융
▁번 도
▁번 호를
기술 의
▁삶 에서
▁대구 의
▁예방 책을
▁집중 해야
▁집중 해서
▁매출 의
▁만들 었
▁참여 한다.
▁균형 (워라밸
▁호 주
▁호 흡
▁계속 되는
▁중인 데
▁경험 했다.
▁경험 하고
▁건강 ·돌봄
▁건강 취약
▁디지털 로
▁디지털 화가
▁하루 빨리
▁프로그램 의
▁규모 인
해서 다.
▁업체 로
▁업체 다.
▁업체 들도
▁첫 번째
▁허용 하겠다는
▁책 상을
▁공유 와
▁공유 해
▁공유 하며
▁비용 이나
▁비상 시
▁우리 도
▁우리 금융
▁에 코
▁있을 까?
▁컨 디션
er )
▁산업 을
▁권고 한다.
▁권고 했습니다.
서비스 는
▁접촉 은
▁접촉 하는
▁방문 하거나
▁살 기
▁살 이
▁살 리기
▁살 생물
▁플랫폼 은
▁정상 근무를
▁경영 학
▁경영 학과
▁경영 전략
▁찾 은
▁2월 과
▁제한 하기로
▁제한 없이
업체 들은
▁14 개
▁B C
▁B I
▁감소 분의
▁금지 한
▁어려움 으로는
▁돌입 하고
▁선정 하는
▁이전 까지
▁기록 할
▁최소화 ,
▁사례 에
▁통신 3
▁통신 망을
▁통신 망에
▁수도권 은
▁기대 된다”고
▁준비 ,
시설 은
시설 공단
▁소통 도
▁용 도
▁계열 사를
▁근로시간 과
▁이동 도
▁극 대
▁공공기관 들이
▁인터넷 으로
▁있게 끔
▁내부 통제
▁병 가
▁202 4년
▁장기화 되는
(5 G)
▁내년 에는
▁판단 이다.
산업 이
▁상태 였다.
▁중국 을
▁중국 에서는
▁연차 휴가를
▁활동 ,
억원 )
억원 에서
▁노력 과
▁단축 제를
▁부산 에
▁0 2-
▁22 %
▁300 여명의
▁/ 정
▁브 리드
명) 은
▁해외 에
▁조성 되는
▁고민 에
▁G 마켓
▁수행 하기
▁혼 인
▁환 자의
▁있었 기
▁50 만원씩
▁인식 도
▁긴급 하게
▁긴급 복지
▁부문 으로
▁임금 에
▁테 라
▁“재택근무 에
ju .co.kr
▁너무 나
▁됐 고,
▁분산 을
▁임산부 의
▁상황이 어서
▁피해 는
▁표 면
▁트위터 를
▁트위터 와
▁200 6년
▁200 만원을
하여 ,
▁인천 시는
▁유연근무제 의
▁활성화 된
▁활성화 하는
10 만
10 인
▁국회 를
▁일상 화된
▁패 스
시장 에
공사 와
▁상시 로
▁네트워크 ·보안
▁소속 돼
▁전화 상담
▁않았 고
▁않았 고,
▁부족 ,
▁모습 입니다.
▁은행 ,
▁은행 과
▁상승 률을
▁몰 린
▁가입 자는
▁폭 을
on @ajunews.com
▁일정 기간
▁연기 한
▁연기 되면서
in @sedaily.com
기간 에
▁가상 의
▁얼 어붙
▁규정 하는
▁목표 는
▁CEO 의
▁29 %
▁영상 은
▁주목 하는
▁점검 할
보고 를
▁분리 와
▁울산 공
▁부여 하기로
▁게임 빌
▁육아휴직급여 로
▁상품 이다.
▁j w
▁근무자 와
▁근무자 들은
▁완화 한
▁보내 주
▁씨 도
▁씨 와
사무 실을
▁달라 진다.
▁체제로 의
▁특별 지침
▁특별 방역
▁안내 문
▁귀 를
▁귀 했다.
▁극복 하고
▁인정 해
▁인정 되는
▁‘재택근무 ’를
이드 림
▁마음 가짐
▁k m
▁k ch
▁h an
▁h um
상황 실과
▁종사 자의
▁전달 하는
▁유출 될
▁유출 되는
▁“이 러한
▁비즈니스 인사
▁축 복
▁양육 하기
▁맡 겨
▁맡 기
▁맡 는다.
▁늘었 다"고
▁늘었 지만,
▁좀 더
▁요청 할
▁요청 하고
▁모델 의
▁모델 이
▁2단계 를
▁어린이집 과
▁해소 하고
가정 의
▁좋아 요.
안전 망
안전 한
▁유럽 에서
▁W eb
▁36 .6%
▁80% (월
▁80% (최대
12 명
▁모임 과
▁트렌드 모니터
▁능 률
▁주거 환경
▁덜 고
▁덜 한
▁편의 성과
▁발전 과
▁의무화 ...
▁대유행 )
▁베 란다
▁전략 적
▁대통령 과
▁대통령 의
▁문의 도
▁송 호철
▁보여 주
▁보여 줬다.
▁가족친화 기업
▁의심 자
▁카페 를
▁H D
▁영화 는
▁골 목
보호 를
▁부동산 을
운영 을
▁제기 하는
▁연속 으로
▁오늘 은
it ri
카드 ,
(8 2
▁보완 이
▁기획 성
▁즐 거
▁즐 거운
▁지켜 보는
▁선보 이는
▁주장 한
ch oi
▁하락 세를
▁대법 관은
평가 를
.0% 에
▁툴 인
▁열린 다.
▁스마트폰 의
▁배우 자의
▁44 .4%로
▁줌 을
▁줌 (Zoom
@k wang
클라우드 PC
▁많았 던
▁풍 속
▁대규모 로
▁주말 에
▁주말 의
▁은 성수
면세 점은
.2%) 가
.2%) 보다
▁승진 을
▁지나 친
▁전산 망을
▁장비 로
▁주문 이
.7%) 가
▁수익 성
▁내려 진
▁모집 에
▁12월 까지
▁U N
▁영업이익 을
▁d y
▁사항 에
▁결혼 식
▁주민 들의
▁움직 여
▁움직 이고
▁있다 보니
▁나라 ,
▁나라 가
▁위반 에
▁위반 으로
▁내놓 는
▁탈 피
만5 000원
▁분양 할
▁미팅 ,
▁등록 을
▁실행 에
▁이메일 에서
▁당국 과
▁당국 에
▁과거 의
▁상향 됨에
파이 브
▁대화 할
▁시험 장
▁통제 하는
▁롯데면세 점,
▁카카오톡 은
▁고객센터 에
▁만족도 에
▁카메라 와
▁팔 을
▁대전 환
▁절감 ,
▁라 운
▁수출 은
▁지키 지
▁적합 직무
▁p h
▁배달 음
▁소상공인 들이
▁대다 수가
▁중소·중견기업 은
▁니 콜
.1%) 이
▁봐 서
▁기초 수급비
▁20% 인
▁SK이노베이션 과
▁SK이노베이션 이
▁VDI 는
▁끼 친
▁웃 을
▁웃 돌았다.
▁교대 근무를
전문 기업
▁특화 설계
▁청와대 가
▁수치 로
▁1, 2
▁일상화 될
▁센터 장은
▁이루 고
▁정상근무 가
▁데스크톱 을
.4%) 보다
▁GS 25
▁GS 홈쇼핑
▁기울 여
▁기울 일
▁석 사
hy @dt.co.kr
▁w ith
▁w on@ajunews.com
▁브랜드 를
▁수급 자를
▁경영진 과
▁대변 인
▁배려 가
78 명
▁기업으로 서
▁생기 고
▁생기 면서
▁홍콩 의
▁아이디어 가
▁홍보 할
▁이주 할
▁배송 이
▁써 도
▁재난 지원금
▁우리나라 를
▁하반기 부터
▁설립 된
▁앞장 서는
▁측정 하는
(40 %)
▁벗어나 는
시큐 어
▁일터 를
(9 1
▁채팅 ,
~20 20년
▁짜 고
게임 즈
▁쌓 아
▁웨 이
▁지식산업센터 는
▁밤 까지
▁없애 야
▁프로세 서
▁IT기업 들은
ing )
▁중견기업 은
▁상장 사
(29 )씨는
▁촉진 하는
▁빚 을
▁펀드 에
▁이중 화
▁이탈 해
▁발의 했다.
▁검색 해
▁봤 을
▁봤 는데
▁무엇보다 도
16 65
▁이태원 발
순환 도로
▁‘아빠 ’
▁증상 으로
▁간단 히
▁'일 하는
▁엘 리트
▁2~3 월
▁복합 문화
▁복리후생 이
▁혼잡 도를
▁유사 시
▁수혜 주로
▁“일 부
▁주도 하고
▁주도 적으로
▁작용 했다.
▁출생아 를
▁민간기업 도
▁LG화학 은
번호 를
▁여기 저
▁극대화 할
▁"그 동안
▁재미 없
▁소프트캠프 의
(B 2B
시킨 다는
▁전자금융 업
28 명)
▁슈 로더
▁무관 한
▁긴장 감이
▁공모 를
▁팩 스,
▁포기 할
▁숙박 ·음식
▁이웃 을
▁연수 원을
▁시행령 은
▁근로기준법 에
▁깔 려
▁탐 색
▁한샘 이
▁헬스 장,
▁억 제를
예방 센터
▁방해 하는
▁고충 이
▁여름 휴가
▁8만 개
▁정부서울 청사
▁카드 사
▁밀접접촉 자
▁밀접접촉 자를
▁기부 하는
▁줄이 기로
▁ch ae
▁플로우 는
▁보좌진 은
가사 근로자
▁수면 장애
▁매체 는
구성 원의
▁나쁘 지않
(32 .1%),
▁냉 동
▁김모 씨는
▁언론 에
▁충격 이
▁질환 자
▁항목 을
▁i seoul
▁든 든
현실 적으로
▁‘3 +2
▁풍경 이
▁부천 도시공사
▁말씀 드
▁생계 지원금
▁밝히 지
·모바일 )
▁유용 하게
▁신용 보증
▁염 려
▁미뤄 진
▁LG그룹 도
(U ntact
▁등교 를
▁가중 되는
▁스탠 다
▁심화 영기자
바이 저
어가 드
·일 본
▁켜 고
▁파수 ,
▁쏠 린다.
▁이것 은
▁나타난 다.
▁자랑 하는
▁출하 량
▁평생 교육
▁생산라인 을
tt p://
▁전력 판매
▁개개 인이
▁알파 의
▁양천 구청
▁법제 화
100 %
▁주시 하고
▁이익 이
▁맺 고
이엠 포트
▁신조 어
▁올인원 팩
▁삼성생 명
▁198 0년대
▁엇갈 린
▁엇갈 리고
▁엇갈 린다.
▁기억 이
▁11번 가
▁곤란 한
ot hy@dt.co.kr
▁친화 적
▁내근 직의
▁출산전후 휴가를
▁마이크로소프트(MS )의
▁공실 률은
▁조용 한
▁발행 하는
▁긴급사태 가
▁블루 투스
▁기혼 여성의
▁수렴 해
▁'한 컴
▁대한상공회의소 가
▁빈집 을
▁나무기술 은
▁위기상황 에
▁헤드 폰
·관리 하는
▁컴 투
▁세워 야
▁맛있 어요
@ytn plus
마을 금고
▁일생활균형 지원센터
▁유흥 업
▁간격 으로
▁IDC 는
▁솔선수범 해
▁블룸버그통신 은
▁구제 신청을
▁국립 중앙
▁접어 든
▁프라 이스워터
▁/김 동호
▁한화시스템 은
▁‘2020년 도
▁그만두 는
▁이겨 낼
▁주소 록
▁피부 관리
▁BBC 는
▁꼼꼼 하게
▁벽 에
▁스테 이트
▁패러다 임이
▁개입 했다는
▁자리매김 할
▁'리모트뷰 SE
▁중앙방역대책본부 (방
▁총무 과장은
▁애초 에
하우스 쿠
▁깔끔 하게
▁용역 업체
▁챗봇 ,
▁합류 했다.
▁버즈 피
jin @segye.com
▁의도 치
▁훈시규정 으로
▁으 기업
▁흡 수
▁최상 위
▁창립 기념
▁광범위 하게
▁펄어비스 는
▁이광엽 [kyuplee
▁상임 위
▁파티 션
▁파티 션을
▁국토교통 부
ho @sedaily.com
▁깃 랩은
▁멘 토
▁부응 하기
▁인사노무 관리
▁로페 즈
▁로페 즈는
▁저출산고령사회 위원회
▁잇따르 면서
▁시중은행 들은
▁걸림돌 이
▁1대 1
▁네트 워킹
도서관 ,
유로 (약
·목 요일
▁반출 이
▁무작 정
그래 밍
▁보직 해
▁공존 하는
▁‘모 성보호
▁고용유지 지원금
▁호황 을
▁홈앤쇼핑 은
▁샌드 위치
▁뛰어넘 는
▁까다 로운
▁벨 기에
스티 벌
▁화요일 ,
▁고용형태 가
▁되돌 아
▁총동원 해서
▁와이파 이를
▁문자메시 지를
▁Z ero
클래 스
▁한숨 을
▁스카이 프
▁연구결과 가
▁dor othy@dt.co.kr
공직 사회
▁롭 스는
▁2.2 배
▁제언 했다.
▁'브 이엠포트
▁사업계획 서
▁김철 현
▁dong ho@sedaily.com
▁유동인구 가
불가 피
▁입점 한
▁인사고 과
▁로스 앤젤레스
▁돌려보 냈다.
▁톡톡 히
·오 프라인
단순 히
▁안마 의
▁서울고 법으로
▁관련해서 도
(10만 5
▁전문·과학 ·기술
▁ESG(환경 ·사회·지배구조
▁콘택트 렌즈
(최고 경영자
▁‘목 화송이
▁무서 운
▁디알 엠
▁파크 원
▁백종 규
▁chacha @ajunews.com
▁3.3 m2당
▁리프레 쉬
▁국민건강 보험
=정 영효
▁사물인터넷(Io T)
▁주먹 구구
▁키움 증권
▁헌법소 원을
▁서울·경기·인천 ·부산
▁최연 소
▁프랜 차이즈
▁순식 간에
▁개발도 상
(6611 명)보다
▁증강현실 (A
▁사회정책 비서관
▁LC D
▁온라인뉴스 부
▁법률구조 공단
▁IM(IT ·모바일)
▁한국서부 발전
▁온프레 미
▁Pri v
▁건강·돌봄 ·임신
▁브리드 호텔
▁kch @asiae.co.kr
▁비즈니스인사 이더
itri x
@kwang ju.co.kr
▁iseoul @seoul.co.kr
@ytnplus .co.kr)
▁프라이스워터 하우스쿠
▁중앙방역대책본부(방 대본
& P
( b
( p
( 구
( 본
( 서비스
( 정보통신
( 소프트웨어
( 디바이스
( 종합)
) 이라는
- 1
/ 7
2 @asiae.co.kr
3 @hankyung.com
3 명),
4 .
4 m2
5 %)
6 70
6 65
6 명),
7 천
7 명을
7 억원으로
8 명),
9 명을
A P
E D
E X
F F
K B
M I
S NS
S MC
T 는
U SB
Y W
Z C
a il
a @seoul.co.kr
c an
e x
i @heraldcorp.com
i ue
n ter
o y
o ver
r y
u b
y ang
z kj
· 1
· 7
· 대
· 마
· PC
· 단체
· 모임
· 출장
ᆞ 퇴근
ᆞ 경북
’ 나
’ 에도
” 라는
” 이라는
∼ 1
∼ 24
▁ 락
▁ 래
▁ 릴
▁ 뮤
▁ ne
▁ yun
▁ 닌텐
・ 경북
中 企
가 구를
각 각
간 편
간 호사
강 릉
강 화를
개 선을
거 지
검 찰
게 도
겠 다”며
경 제를
고 기
곳 ),
공 직자
관 절
관 제
교 류
구 간
구 직
국 장
권 고
규 격
그 래픽
기 밀
기 부
기 에서
긴 장
나 눔
나 서
난 이
념 상
놀 로
뉴 스는
능 한
다 거나
담 임선생님
대 까지
델 라
도 경
동 욱
동 은
되 기는
두 는
드 라
듯 한
등 에
등 을
때 문
래 드
러 리
려 동물
력 ,
력 은
롭 테크
름 이
마 라
명 당
명 인
목 이
무 라
문 채
미 우리
민 병
바 케
받 기
받 으면
방 과
방 한
방 해
배 분
배 출
버 스는
버 렸다.
법 인은
벨 류
병 서
보 유
보 자
봤 는데
부 )
분 ,
분 당
분 양
분 은
분 으로
불 로
사 고를
산 재
상 규
생 존
설 비
설 을
설 치
설 비를
성 동
소 멸
소 싱
손 보는
쇼 TV
수 있
수 학
스 팅
시 기
시 대를
식 월
실 의
아 수당
아 카데미
앤 컴퍼니
언 이
언 제
었 다면
에 어
여 겨
연 도에
염 병
영 규
오 른
용 하는
워 야
원 들은
위 ),
은 미
이 '
일 인
임 ,
입 법
자 릿
자 형
자 리가
장 상
재 산
조 리
준 생
중 립
줬 으면
진 주
진 짜
창 석
츠 는
치 면서
치 료를
컨 벤션
큐 원
클 라
키 지
키 퍼
테 스트
텐 센트
퇴 직
트 도
트 론
특 수
티 드
파 가
패 스
포 기
프 린
플 라
한 다"면서
할 까
합 병
해 짐에
현 수
혜 원
화 벽
황 장애
횟 수
휴 게
근무 와
▁이 갑
▁이 관
▁이 듬
▁이 보
▁이 선
▁이 들과
▁있 기에
▁재택근무 자들은
▁재택근무 하라
▁재택근무 조를
▁기 상
▁기 성
▁기 승
▁기 금을
▁기 기가
▁기 부를
▁사 정을
▁사 안이
▁대 시
▁대 에
▁대 역
▁대 피
▁대 세로
▁지 각
▁지 을
▁1 부
▁1 의
▁1 명의
▁1 학년
▁시 군
▁시 립
▁시 그니처
▁2 세
▁2 공장
▁전 라
▁전 세
▁전 엔
▁전 전긍긍
▁등 받
▁직 종의
▁직 군은
▁가 리
▁가 지로
▁가 디언
▁일 수
▁일 원
▁일 원에
▁일 하니
▁일 문일
▁중 입니다.
▁중 구에
▁중 구는
▁한 수원
▁보 기는
▁직원 간
▁직원 보다
▁직원 이나
▁제 반
▁제 발
▁제 보가
▁정 재
▁정 원의
▁정 식으로
▁자 구
▁자 부담
▁공 원
▁공 조
▁공 사를
▁공 석을
▁3 호
▁3 곳에
▁기업 보다
▁기업 시민
▁경 제를
▁경 보를
▁경 주시립
▁경 로우대
▁상 이
▁상 에서
▁상 가는
▁‘ (
▁‘ 수
▁‘ 스
▁‘ 직
▁‘ 직원
▁‘ 소통
▁‘ IT
▁‘ 사무실
▁‘ KT
▁‘ 0원
▁아 시
▁“ 나
▁“ 매
▁“ 법
▁“ 본
▁“ 소
▁“ 우
▁“ 인
▁“ 롯데
▁“ 1년
▁“ 생산
▁“ 온라인
▁부 르
▁부 업
▁부 연구위원은
▁업무 지원
▁업무 능력
▁근무 '
▁근무 체제로
▁" 더
▁" 무
▁" 우
▁" 인
▁" 초
▁" 현
▁" 보안
▁" 다른
▁" 구글
▁다 이어
▁다 변화
▁비 밀
▁비 즈
▁비 합
▁비 타민
▁최 동
▁최 승
▁주 류
▁주 면
▁주 고,
▁주 니어
▁' G
▁' 공
▁' 상
▁' 어
▁' 영
▁' 우
▁' 원
▁' 직원
▁' 출퇴근
▁' 출근
▁' 직장
▁' 모바일
▁' 유연근무
▁' 선택
▁' 프리
▁' 위드
▁관 외
▁관 점
▁조 희
▁조 부모
▁하 등의
▁나 스닥
▁나 델라
▁출 장이
▁원 에
▁원 장
▁원 자재
▁고 과
▁고 마
▁고 쳐
▁육아휴직 ...
▁회 신
▁회 장을
▁유 인
▁유 정
▁유 해
▁유 쾌한
00 원에
▁서 두
▁서 관은
▁서 포터
▁연 상
▁연 기도
▁연 기는
▁연 신내역
▁신 흥
▁신 재생
▁신 학기
기업 들
▁있는 지에
까지 ,
▁내 로
▁내 기는
▁구 급
▁구 할
▁도 덕
▁도 시에
▁모 름
▁모 토
▁모 기업
▁모 이지
▁실 정에
▁않 으며
▁개 강
▁개 리
▁없 거나
▁해 를
▁해 산
▁오 고
▁오 로지
▁오 해를
▁여 야
▁소 지
▁소 확
▁소 감을
▁소 소한
▁감 사의
▁4 %
▁4 ∼
▁4 명은
▁말 라
▁말 하고
▁5 곳
▁5 .6
▁생 리
▁생 필
▁발 을
▁발 이
▁발 판
▁지원 에도
▁지원 자의
▁지원 하겠다고
▁확산 되며
▁안 간
▁안 나
▁안 랩
▁안 된다.
▁안 해도
▁안 건에
▁국 한
▁현 장은
▁현 안을
▁강 국
▁강 박
▁강 변
▁강 세
▁강 우
▁강 좌
▁강 병원
▁마 다
▁마 우
▁마 포
▁마 세요
▁의 로
▁의 정
▁의 자는
▁의 식이
▁계 신
▁사용 과
▁사용 되는
▁원격 지에서
▁문 서는
▁노 약
▁노 리고
▁노 경조
▁시행 착
▁시행 중인
▁분 들은
▁때 로는
▁미 군
▁미 달
▁미 주와
▁많 다”고
▁회사 입니다.
▁근 절
▁동 서
▁동 영
▁동 관은
▁동 기간
▁선 을
▁영 덕
▁바 가
▁바 빠
▁결 근
▁확진 돼
▁확진 환자
▁6 대
▁6 주
▁우 세
▁우 유
▁불 균형
▁불 명확
▁감염 되는
▁대상 자가
▁남 직원
▁남 자의
▁특 근
▁특 수를
▁말했다. 윤선영기자
▁증 여
▁단 지가
▁단 점으로
▁단 기적으로
▁근로 제
▁매 진
▁성 금
▁성 실
▁성 패
▁성 금을
▁8 시까지
▁8 ~9
▁같 다는
▁S 펜
▁사업 ’
▁금 지를
▁본 질
▁본 체
▁시간 까지
▁올 쇼TV
▁세 울
▁세 상이
▁반 갑
▁반 론
▁재 료
▁재 임대
▁출근 하던
▁출근 ·2
▁확대 "
▁상황 .
▁상황 이었다.
▁정부 혁신
▁운영 하기
▁운영 한다는
▁달 린
▁달 이
▁돌 보고
▁무 렵
회의 는
라인 드
▁급 상승
▁건 가요?
▁서울 ·
▁서울 역
▁서울 이
▁서울 지방
▁평 했다.
▁화 웨이
▁사회 적인
▁보안 성이
▁보안 정책
▁보안 수준을
▁보안 인증(CSA
▁활용 해야
▁증가 했다"고
▁실시 된
▁실시 하면서
▁실시 했던
▁제공 에
▁제공 기관
▁제공 함으로써
▁10 3
▁10 ∼
▁변 상
▁변 한
▁들 리는
▁좋 았다.
▁좋 네요
▁관련 주가
▁고용 된
▁김 윤
▁김 창
▁지난해 엔
▁중소 형
▁중소 규모
▁이용 ,
▁이용 률이
▁이용 방법
▁저 감
▁저 런
▁저 를
▁저 렇게
▁제도 이다.
▁제도 개선
▁사람 (
▁사람 으로
▁발생 을
▁지역 별로는
▁간 과
▁최근 까지
▁취 합
▁시스템 에서
▁남성 으로
▁남성 )의
▁한국 에서도
▁한국 은행은
▁한국 과학기술
▁한국 정보화
▁한국 씨티
▁알 맞
▁알 아야
▁당 한
▁이어 지
▁이어 오고
▁입 지를
▁진행 하지
▁진행 하던
▁온 도체
▁온 ·오프라인
▁초 에
▁최대 의
▁기간 만큼
▁배 부
▁사태 에서
▁관리 로
▁유연 근로제
▁방식 인
▁신청 하고
▁신청 기한
▁△ '
▁△ 기업
▁△ 마스크
▁편 지를
▁명 도
▁명 예
▁들어 가고
▁금융 지원
▁금융 위원
▁과 중
▁못 하도록
▁되 게
▁생산 을
▁미국 에
▁설명 한
▁설명 회를
▁노동 력
▁노동 정책과
▁전환 ,
▁전환 과
▁전환 으로
▁전환 하면서
▁게 스트
▁아이 도
▁아이 돌
▁아이 들도
은행 에서
▁전체 적인
▁전체 회의
▁회의 에는
▁회의 실에서
▁시작 과
▁시작 했
▁시작 되면서
▁두 루
▁응 대에
▁P ro
▁물 건
▁물 량을
▁양 의
▁중소기업 에서도
▁절 실한
▁했 기
▁했 다”면서
▁했 으나,
▁있어 요
▁대기업 들의
▁새 너
▁새 삼
▁개인 적으로
▁개인 생활
▁개인 별로
▁일부 만
▁여성 보다
▁온라인 에서
▁온라인 수업
▁이날 은
▁모두 발언
▁대표 자
▁효율 적이
▁효율 성은
▁메 이
▁연장 된
▁강화 한다고
▁공무원 인
▁파 주
▁파 수가
▁파 이어
▁조사 가
▁삼성 디스플레이
▁작 성,
▁답 은
▁답 해
▁출산 이
▁K ISA
▁크 로
▁크 다"고
▁12 개
▁12 00여
대로 라면
▁준 다고
▁응답 을
▁응답 )로
▁가족 에
▁법 사
▁법 학
▁커 서
▁커 플
▁피 하고
▁클라우드 (G
▁30 년
▁15 00만원
▁C BS
▁출퇴근 하고
▁폐 강
▁심 해지고
▁마련 한다.
▁사내 망
▁필수 적이라고
▁수요 자들의
▁뒤 집
▁문화 ·
▁문화 예술
▁화상회의 도
▁19 개
▁변화 ,
▁박 사
▁박 재
▁교육 감
▁교육 으로
▁목 적이다.
▁목 적을
▁롯데 가
▁격 상을
▁속 도와
▁유지 하고,
▁11 %
▁평가 ,
▁평가 와
▁평가 에서
▁기능 까지
▁경제 학
▁경제 ·사회
▁완 판
▁일본 이
▁일본 인
▁일본 으로
▁시장 에서는
▁확인 한다.
▁확인 됐습니다.
▁추진 을
▁워라밸 과
▁워라밸 링크
▁개발 이
▁개발 사업
▁폐쇄 ,
▁폐쇄 로
▁민 한
.1 %는
▁부모 휴가
▁개선 의
▁개선 한다.
▁개선 에도
▁개선 되고
▁지속 되는
▁선택 하면
▁언 니
▁손 보
▁100 만원,
▁내용 이었다.
▁상담 은
▁상담 사를
▁상담 시스템과
.3 %였다.
▁뉴 타
▁13 .3
▁1년 에서
.7 점
.7 %를
▁생활 하고
▁충 실
프라 이
▁글 로
▁조직 에서
▁연구 에서
▁연구 용역
▁밀 도
▁밀 린
▁밀 착
▁휴가 나
▁오피스 에
▁오피스 의
▁18 %
▁대구 ・경북
업계 ,
▁집중 돼
▁집중 해
▁매출 에
▁하나 둘
▁만들 겠다는
▁눈 여겨
▁계속 되면서
▁카카오 페
▁카카오 뱅크
▁있습니다. "
▁걸 으라
▁현대 리바
▁접속 하도록
▁그러 니
▁그러 니까
▁가능한 지
▁허용 한다는
▁허용 되지
▁분석 ,
▁분석 하고
▁공유 한
▁만족 한
▁광 복절
▁27 %
▁영업 직
▁처음 이
▁지침 ’을
▁E BS
▁인력 으로
er @etnews.com
▁산업 기능
서비스 가
▁접촉 자를
▁노트북 의
▁노트북 이나
▁살 림
▁경영 상
▁찾 지
업체 로
▁17 5
▁B P
▁B 씨의
▁B GF
▁금지 하거나
▁설치 를
▁분위기 에
▁26 .2%에
▁평균 과
▁가정 생활
▁현장 으로
▁의무 화를
▁최소화 하고,
▁최소화 하면서
근로 기준법
▁사례 처럼
▁통신 ,
▁통신 장비
▁통신 업계는
▁통신 망과
▁일과 를
되면서 ,
▁기대 를
▁기대 되고
▁기대 했던
▁준비 와
or t
▁아닌 지
▁백 화
▁국가 성평등
▁N YT
▁성장 해
▁근로시간 단축
▁로 파이
▁이동 우
▁드 나
▁드 린
▁드 폰
▁아빠 를
▁네이버 클라우드
위원 회의
▁병 원을
▁인증 하는
(5 7
(5 9
▁확보 와
▁판단 돼
▁예상 된다"고
▁싶 다"고
▁연봉 인상
▁대체 근무
▁면 허
▁메신저 나
▁중국 발
▁끝 낼
복지 가
▁치 고
▁치 과
▁치 여
▁문서 ,
▁문서 작업
▁해결 책을
▁독 점
▁방지 한다.
▁노력 한
▁전자 서
▁전자 우편
▁계열사 도
▁판매 도
▁판매 점
▁부산 시가
▁보호 와
▁보호 한다.
▁위험 은
▁0 .9%
▁야 채
▁300 명을
▁300 만원을
▁브 이
오피스 ,
오피스 는
▁의견 서
▁의견 에
▁의견 으로
▁중앙 대
▁조성 ,
▁조성 했다.
▁혁신 적
공간 과
▁21 .4
▁3년 차
▁우수 인재
▁채용 은
▁태 어
▁태 어나
▁태 평양
▁환 산
▁환 자를
▁없어 요.
▁자신 과
▁“코로나19 를
▁“코로나19 의
▁행정 지원
▁행정 서비스를
▁"재택근무 ,
▁선제 대응
▁50 만원까지
▁M TN
▁사옥 과
▁인식 은
▁집단 으로
▁긴급 한
▁부문 에서는
▁“재택근무 와
▁어렵 다"
▁어렵 다"고
▁1만 명을
▁피해 도
▁악 의
▁악 화된
▁표 본
▁표 창
▁경기도 일자리재단
▁퇴근 할
▁트위터 도
▁200 명
▁200 여명
▁머 릿
▁방법 도
▁방법 이다.
▁미만 인
▁인천 의
▁인천 사회복지공동모금
▁부분 에서
▁활성화 하고
▁활성화 해야
10 1
▁일상 적
▁정착 과
▁정착 돼
▁정착 하려면
▁구성원 들을
▁출입 도
▁출입 할
▁출입 하는
▁재확산 이
▁공동 화
▁거주 자
▁거주 하고
▁소속 감을
▁소속 감이
▁않았 다"며
▁않았 는데
▁컴퓨터 는
▁컴퓨터 의
위원회 ,
▁부족 .
▁망 을
▁상승 할
▁몰 고
▁몰 아
▁몰 리고
▁가입 자가
▁동시에 ,
정책 연구소
▁공격 도
▁향후 에도
in k
▁중단 을
▁필요하 다면
▁즉 흥
▁넘어 서는
▁사용자 별
▁스타 트
▁착용 하는
ou r
▁2일 로
세대 는
▁작업 도
▁책임 자
▁가상 현실
▁군 민
▁군 인
▁군 무원
▁그렇 지만
다가 ,
▁규정 도
▁목표 와
▁CEO (최고경영자
▁요구 되는
▁요구 사항을
▁향상 된
이었 다고
이었 으나,
▁통합 한
▁도시 를
▁점검 에
▁가구 가
▁울산 의
▁꾸 며
)’ 와
)’ 으로
▁j e
▁종합 해
(6 4
▁달라 지는
▁달라 졌다.
▁포스코 형
▁고용노동부 로부터
▁웹 젠
▁웹 브라우저
▁업종 이
▁불안 과
▁불안 감에
협회 에
▁실적 도
▁실적 가산
▁전문가 를
▁전문가 와
ong h
(W HO
▁인정 해야
▁인정 받고
▁취약 점
▁취약 자,
▁‘재택근무 에
▁받았 으며
▁불가피 하다.
▁반영 하고
코리아 의
▁전달 했다고
▁유출 되지
▁인상 했다.
▁실제로 는
▁직무 와의
▁비즈니스 를
▁검사 하고
▁검사 받도록
▁축 으로
▁양육 ,
▁라인 업
▁라인 의
▁번째 는
하자 마자
▁침 방울
▁전용 회선
▁늘었 기
▁참석 이
re am
▁수당 ,
▁양립 에
▁양립 의
▁2단계 ,
▁2단계 에
▁농 식품
▁준수 한
▁준수 하는
▁준수 하도록
▁5일 간
▁찾아 가
▁찾아 내
▁아마존 웹
서울 시
▁얻 기
▁윤 석
▁80% (상한
▁스타트업 도
▁스타트업 에
▁스타트업 은
▁스타트업 의
12 5
▁성공 한
▁성공 했다.
▁52 시간을
▁능 동
▁능 률을
▁주거 용
▁작년 보다
▁의원 (
▁편의 성이
▁코로나바이러스감염증(코로나19) 의
▁현황 과
▁의무화 ,
▁가격 도
▁제시 할
▁하겠 다”며
▁거래 가
▁엄마 들
▁집단감염 의
000여 명에
▁답변 한
▁카페 에
▁캠 퍼스
▁공백 에
▁영국 ,
▁영국 에서
▁체계 는
▁체계 로
▁체계 에
▁인재 가
자에게 도
카드 로
(8 5
▁넥 스
▁빨 래
▁보완 하는
▁밀접 하게
▁층 은
▁소개 한
▁들어간 다고
▁목소 리는
▁광주 지역
▁광주 시는
▁광주 ·전남
▁외출 과
▁홈페이지 (h
▁실험 은
▁실험 이
▁70% 는
▁장려금 '
▁강남 권
▁금융권 과
▁금융권 은
▁금융권 이
▁제조업 과
▁북 쪽
▁북 유럽
▁메시 지로
▁1명 이라도
▁'워라밸 '을
▁배우 자를
▁늦 출
▁이틀 을
▁하면서 도
▁O 2
▁마이크로소프트 의
▁없었 지만
▁숙 지
▁수원 시는
▁거쳐 야
▁세대 가
▁사실상 의
▁주변 에서
▁개최 한다.
▁원격접속 은
▁기업문화 와
▁고령 자를
▁도쿄 올림픽
▁도쿄 =정영효
▁아파트 에
@k ook
▁음성 판정을
▁가치 관이
▁신설 하고
▁가동 하고
▁아내 를
▁휴식 이
▁설정 하고
▁90% 를
"... 코로나
소통 수석
▁수립 용역
.1% 포인트
▁은 근
▁AI ,
▁붙 잡
▁왜 냐
▁‘코로나19 로
▁장비 가
▁설계 된
▁설계 하는
▁모집 할
▁바꾸 기로
▁재택근무· 시차출퇴근
▁측면 에서도
거래 일
▁변경 을
▁품 절
▁본점 에서
▁사라 질
▁사라 졌다.
▁지원금 이
▁나라 장터
li zkj
사람 들이
▁나가 야
▁어려워 질
▁분양 한
▁분양 한다.
▁특수 성을
▁금융사 고
▁캐 치
▁저녁 이
▁회복 될
▁구미 2
▁구미 사업장은
▁3개 조
▁48 0
▁48 .5
▁48 .8%에
▁운용 을
▁것과 는
▁감사 합니다
▁논란 을
▁회계 ·
▁제작 을
▁살펴 볼
▁면접 을
▁닫 는
▁보편 적
▁보편 적으로
▁SK그룹 이
▁상담사 들은
▁팔 달
하라 "고
▁통화 ,
▁선별 검사
▁70 .5%가
재단 ,
재단 이
▁후보 자의
▁전직원 이
▁견 인
▁1위 ,
▁구내식당 에서
ID O
▁p a
▁p i
▁존재 하지
▁놀 이
▁시도 하고
▁독일 은
리모트 )
▁피로 도가
▁피로 도를
▁피로 감이
▁특징 은
▁특징 을
▁실리콘밸리 에서
▁1, 6
▁겸 직
▁깊 다.
99 6
99 명
부서 에
▁연동 을
▁만나 지
▁88 %
▁88 .7%,
▁작성 된
▁낮아 졌다.
▁취지 의
▁정해 져
▁부당 인사
▁실현 하는
▁영상회의 ,
▁영상회의 로
▁기기 의
▁개념 은
▁듯 하다.
성장 률
▁노출 된
▁출산휴가 ,
▁출산휴가 나
▁리모트 에스큐엘
▁창원 시는
▁팀원 들에게
▁토로 하는
▁w oo
▁완료 했다고
▁2021년 까지
▁적절 하게
▁블룸버그 에
▁높았 으며,
▁특허 를
▁창출 하는
▁호텔 에서
▁높아졌 기
▁발굴 하고
▁홍보 관은
▁이주 를
▁수입 을
▁오른 쪽
▁경제활동 참여
▁익숙 해진
▁분류 한
▁언급 하며
▁쓰고 도
(40 .6%)
▁2000 년대
▁절차 에
▁황 보국
▁공약 은
▁토론 을
▁쪽 에
▁'20 21년
▁매장 에서
▁10년 에
▁커뮤니티 를
▁자금 지원
▁접수 한
조원 )
▁국제 표준
▁점심시간 도
▁지식산업센터 가
▁55 %
▁재정 립
▁국민의힘 은
수준 이
▁믿 는
▁관광 객이
▁도심 의
생활균형 지원센터
▁몰입 을
▁상장 지수
▁주재 했다.
▁유도 하기
▁예약 이
▁합의 로
’(3 0
▁이재 명
▁업무효율 을
▁롯데그룹 의
대학 의
▁회장 으로
▁쇼핑 을
▁출연 연
▁출연 한
▁케 이
▁퇴직 할
▁n a
▁자리잡 아
▁즉각 적으로
▁인사담당 자는
▁60% 는
▁워싱턴 포스트
▁움직임 도
전략 팀
▁예전 에는
▁반대 하는
▁뭐 라
조직 문화
▁아래 로
▁판결 한
▁2~3 일
▁더해 져
▁추천 한다.
▁직종 을
▁"일 하는
▁작용 한
▁“그 러나
▁유형 은
▁장관 ,
▁“회사 에서
▁간접노무 비,
▁사후 관리
▁인텔 리전
▁바라 보고
▁침해 사고
▁한정 된
▁"회사 에서
▁안심 할
▁꿈 도
▁꿈 을
▁칼 퇴근
▁"그 런
▁66 번
▁무급 휴가를
▁2014년 부터
▁김정 인
▁덜어 주고
▁사생활 을
▁1천 2
▁1천 5
▁내렸 다고
▁과제 임을
▁표현 을
(N ew
▁셀 프
▁캡 쳐
▁분명 하게
점검 회의
▁뉴노멀 이
▁느껴 질
▁엔지니어 가
▁87 .3%
▁있다"면서 도
▁아시아 경제
▁늘어났 기
▁늘어났 다고
▁색 다른
모델 을
체제 에
▁기숙 사가
▁지표 를
▁현상 이다.
▁체험 을
▁리더십 을
프로그램 ,
▁방해 가
(26 .5%)
ic ro
▁199 7년
▁목적 에
~1 0%
▁까 페
삼성 전
▁1∼ 5시간
▁위탁 해
▁예술 인
▁답답 함을
▁취업규칙 에
▁중간 에
▁나눔 을
▁발송 했다.
▁시범운영 을
▁지방자치단체 의
▁월스트리트저널(WSJ )
▁월스트리트저널(WSJ )에
▁월스트리트저널(WSJ )과
▁보급 형
▁결재 를
▁이루어 지지
다시 피
하되 ,
▁지연 될
▁만약 의
▁기업은행 ,
▁i 5
로서 의
▁키워 드로
▁91 .3%가
▁[ 충북
▁근육 이
▁공용 공간
▁발달 한
▁입력 하면
▁국정 상황실과
▁가중 되고
(38 %)
▁소득대체 율도
▁옵 션이
▁갔 다
연봉 이
▁잠재 적
▁냈 고,
▁쏠 림
▁이것 도
▁사각지 대
▁앞당 긴
▁빅데이터 를
▁빅데이터 전략팀
스터 디
집중 데이
▁자랑 한다.
▁내세 웠다.
▁맞은 편
▁수단 이
▁처분 은
▁다음주 까지
▁Balance )
ee p
▁시달 리고
▁폴 더
▁부작용 을
▁각국 에서
▁7월까지 로
▁수원사업장 에서
▁겨냥 해
▁그림 의
▁사업부 별로
▁외근 ,
▁번갈 아가
▁전자금융감독규정 에
위생 물품
▁인지 하고
▁중앙방역 대책본부는
▁마이크로소프트(MS )는
▁마이크로소프트(MS )가
▁태스크포스(TF )
ea d
▁링네트 는
특별 자치
하시 고
▁풀어 주는
▁의사결정 기구인
고령 화
▁‘전 일
▁서울·경기 지역
▁95 %가
▁물리 보안
▁인권 위는
▁"정부 의
▁도모 할
▁사업체 는
▁일괄 적으로
▁인적 자본
▁아쉬 운
▁비전 이
▁유발 하는
▁구비 해
nam ic
현황 을
▁이준 영
▁청주 상공회의소
▁가스 공사는
▁착수 했다.
▁노동자들이 나
▁홀로 그램
▁'그 렇
▁'그 림의
▁저조 했다.
▁솔선수범 해서
/사진= 뉴스1
▁접어 들
▁화이트 보드
▁머무 르는
▁니혼게이자이신문 은
▁이현 주
▁520 만원
▁LS타워 에서
▁120만원 )를
▁대선주 조
je .co.kr
je lee
▁두려 워
▁사내복지 기금
▁패러다 임을
▁애플리케이션(앱 )을
▁사후지급 금
▁현대건설기계 는
▁400명 과
▁시장조사 기관
(61 .5%)
▁시큐 어
▁"확진 자가
▁광명 시
▁받아들이 고
·정 신
내용 은
▁트랜 스코스모스코리아
▁군포 시
▁석유 화학
▁GC녹십 자는
gh @hankyung.com
▁업무공백 을
▁안양 천
▁피드백 을
▁탄소 중립
▁전역 에서
▁국공립 어린이집
▁채우 면
▁사내근로복지기금 은
so @asiae.co.kr
▁'위 하고
▁구두 수선
▁CE (소비
▁NTT 도코모
(PC )
▁멘 로
▁한전 K
▁생생 하게
▁강연 을
▁사용횟 수를
▁예배 를
▁자율좌석 제
▁독서 실
▁세종= 문채
▁덕분 이다.
리얼 타임데스크탑
▁지니 언
▁시술 을
▁아웃 소싱
▁블랙 록
▁hu gh@hankyung.com
▁신입사 원의
▁히타치 제작
▁섬 나라
▁한수 원은
▁당기 거나
▁딩 딩
▁ju n
우울 증
▁업무생산 성이
▁시행세 칙을
▁한국감정 원
▁DL P
▁우선순 위를
고속도로 ,
▁2만2297 명으로
CM P
▁60만원 에서
▁하려 니
▁국책 은행
▁SA SE
▁김상 희
▁DS (디바이스
PM G
▁고육 책
▁메르 스
▁눈앞 에
▁항소 심
슈퍼 맨이
▁유니 폼
▁발빠 르게
▁금요 일을
·아 마존
·현대 차
▁보태 고
▁한국거래 소에
▁식권 대
▁공공장소 에서의
▁위치추 적
▁전· 후
▁현대오 일
▁획기 적인
ecure CX
▁운영체제(O S
(2021~20 25년
▁세종=김 보경
(? )
▁fe lizkj
▁이희 진
▁정은 경
▁'착한기업 '
▁박물 관,
▁전자신문 인터넷
▁hong i@heraldcorp.com
▁CJ제일제 당
▁데이즐 리는
▁푸르 덴셜
▁직관 적인
▁삼성물 산
▁독특 한
▁363 곳의
▁쌍둥 이
ran s
간선 도로
▁한국생산성 본부
▁국민청 원
▁불법복 제
▁코로나바이러스감염증-19 (코로나19)
기환 송
동영상 서비스
▁일례 로
▁일실 수입
▁일러스트 레이터
▁세계경제 포럼
▁웹엑 스를
보건기구 (WHO
▁오픈서 베
▁'3+2 '
▁율 촌
▁dy namic
▁chae so@asiae.co.kr
▁국립중앙 의료
(10만5 165
▁사회정책비서관 실을
▁Priv ate
▁일문일 답
▁보안인증(CSA P
▁온도체 크
▁BGF 리테
@kook je.co.kr
▁[충북 일보
▁세종=문채 석
▁felizkj @ajunews.com
" 라는
( d
( 외
( 입
( 시장
( 경제
( 사회적
( 알리오
( remote
( www.k
( 또는
) 등
) 에는
+ Z세대
, 000억원
- 3
- F
. "
0 7
1 .
2 C
3 차
7 만원
7 000
7 @ajunews.com
8 -
9 일
9 만원
@ c
A L
D MC
E )
F O
H z
L I
O S,
R emote
S hw
T O는
b ee
b ang@ajunews.com
e y
h @ajunews.com
i ne
i ver
l @asiae.co.kr
m pl
m art
o e
o s
o day
p y
p ri
s @segye.com
u se
w ay
y moon
~ !
· 메
· 약
· 재
· 차
· 청
· 일과
· 제어
· 카페
· 대기업
· 분석
· 스포츠
ᆞ 육아
’ 란
’ (21
“ 며
▁ !
▁ 끄
▁ 득
▁ 르
▁ 뱅
▁ 빙
▁ 젤
▁ 픽
▁ 혜
▁ 들은
▁ in
▁ Z세대
▁ 져야
▁ ^^
▁ 페이스락커
▁ ᅮᅮ
가 도
가 르
가 서
가 시
가 인
간 호
강 남
개 씩
건 데
경 우
계 는
공 연
공 정
과 로
과 천
교 수
구 장
구 성을
국 대
권 기자
기 대
기 아차
남 부
납 니다.
냈 다고
네 ..
노 는
노 트
놓 을
는 ?
능 률
니 모
닝 포스트
다 리
대 식
더 러
더 불어
데 일리
도 스
도 심
도 장
도 교육청은
독 박
독 일
돌 발
동 네
됐 으면
되 지만,
되 므로
두 지
드 라마
들 .
등 급을
디 로
때 도
때 로
라 디
람 회
렀 던
뢰 퍼
룸 ,
리 다
리 도
리 자
린 다는
링 ,
링 을
마 루
마 킹
막 이
많 이
매 장
머 티
먹 을
먼 지
메 인
메 일과
메 일은
명 ·
명 하게
모 씨
모 닝포스트
문 자
물 질
박 이
밖 의
발 을
방 위
법 과
변 재
병 원에서
부 장은
북 한
비 발
비 율이
빌 리
뿐 이다.
뿐 더러
사 전
사 한
상 과
생 태
서 초
선 으로
세 도
세 의
소 수
속 기관
솔 직
수 민
숙 이
스 케
스 톤
시 먼
시 블
시 적
시 해야
식 과
신 화장품
실 시간
실 가스
실 트론
심 사를
싶 은
악 화
안 경
앤 씨는
야 .
약 을
양 성평등
언 어
엔 의
연 락
연 재
였 으며,
였 으나,
와 도
와 서
완 벽
우 려
우 면
운 틴
원 )
원 시티
웨 이는
위 크
육 성
으 신
의 심
이 체
인 줄
일 손
일 하는
일 생활균형지원센터
임 스
있 어야
자 리를
잡 플래닛
저 런
전 기
전 부터
점 )보다
정 신
젠 테이션
졌 지만,
존 ,
존 중
준 무
준 수
중 기
중 소벤처기업
지 망
지 트
지 수를
진 ,
질 적인
째 로
쪽 은
차 관
착 취
참 에
창 조
천 명
천 안
청 라
충 남
취 미
캐 슬
캐 나다
코 프
크 는
탈 출
탈 로그
터 ,
테 레하라
텍 은
트 러스트
특 허
틀 어
파 텔
퍼 스(
페 어
폐 렴
폭 을
폴 리스
풍 경
프 닝
프 면
플 렉
플 라이
피 아
하 였다.
한 다’고
할 수록
해 서는
행 사를
현 주
형 과
혜 경
호 정
혼 란
혼 합
홍 석
화 되고
히 고
▁이 색
▁이 력이
▁있 다”라고
▁재택근무 다.
▁재택근무 솔루션
▁재택근무 해도
▁기 프트
▁기 아자동차
▁사 명
▁사 장을
▁사 교육
▁사 기가
▁사 우나
▁대 립
▁지 경
▁지 루
▁지 장
▁지 점은
▁지 내는
▁지 병이
▁수 산
▁수 임
▁수 사를
▁수 위로
▁수 위가
▁수 그러
▁1 에
▁1 억원
▁시 세
▁시 와
▁시 효
▁시 니어
▁시 선이
▁2 S
▁2 대
▁2 부
▁2 인
▁2 팩터
▁전 동
▁전 신
▁등 에서는
▁직 영
▁직 방은
▁가 짜
▁가 상회의
▁가 지를
▁가 치는
▁가 점이
▁것 ’
▁것 이라며
▁것 만으로도
▁일 ?
▁일 는
▁일 체
▁일 치
▁일 들이
▁중 .
▁중 년
▁코로나 -19
▁한 결
▁한 발
▁한 솔
▁한 다’고
▁한 진주
▁보 시
▁보 이기
▁인 하
▁위 촉
▁위 기로
▁직원 뿐만
▁직원 과의
▁정 태
▁정 진수
▁자 민당
▁공 시
▁공 감을
▁공 단은
▁공 시했다.
▁공 수처
▁3 .1
▁3 명의
▁3 번째
▁3 .3%
▁3 +3
▁기업 (
▁기업 전용
▁경 향을
▁상 실
휴직 을
▁‘ 4
▁‘ 구
▁‘ 마
▁‘ 얼
▁‘ 퇴근
▁‘ 노동
▁‘ 생활
▁‘ 회사
▁‘ 화상회의
▁‘ 현대
▁‘ 함께
▁‘ 잔디
▁‘ 워킹맘
▁코로나19 에도
▁아 랫
▁아 키
▁아 들이
▁아 들을
▁아 기가
▁아 크로
▁아 란타
▁아 일랜드
▁“ 김
▁“ 애
▁“ 오
▁“ 퇴근
▁“ 사회
▁“ 감염
▁“ 외부
▁“ 새로운
▁“ 201
▁“ 정부는
▁“ 처음
▁“ 요즘
▁부 속
▁부 스
▁부 품을
▁부 른다.
▁부 대표는
▁업무 형태
▁업무 강도
▁업무 연속성
▁근무 하면서
▁근무 ’를
▁근무 하거나
▁근무 인력
▁근무 지에
▁" 국
▁" 김
▁" 동
▁" 만
▁" 본
▁" 시
▁" 예
▁" 오
▁" 생산
▁" 온라인
▁" 수도권
▁" 국가
▁" 조금
▁" 중국
▁" 선제
▁방 을
▁방 지는
▁다 산
▁다 다.
▁비 드
▁비 워
▁비 하
▁최 일
▁주 유
▁주 축
▁주 식을
▁주 소를
▁' 네
▁' 로
▁' 불
▁' 블
▁' 육아
▁' 회사
▁' 성과
▁' 하이
▁' 유연
▁' KT
▁' 세종
▁' 중소기업
▁' 온라인
▁' 가상
▁' 갤럭시
▁' 상시
▁' U+
▁' 인구구조
▁' 고용보험법
▁' 거점
▁' MZ세대
▁' 노사
▁' 남녀고용평등과
▁' 맞돌봄
▁' 서피스
▁' 감염관리
▁관 방
▁관 제
▁조 지
▁조 아라
▁하 차
▁하 선영
▁나 갔
▁나 약
▁나 을
▁출 시에
▁원 금
▁원 동
▁고 촌
▁고 취
▁육아휴직 률이
▁회 선을
▁유 능한
00 억
00 명의
▁서 관에
▁연 다.
▁연 기가
▁연 세대
▁연 수를
▁신 임
▁신 개념
▁신 보훈
▁그 거
▁그 려
▁그 치는
▁그 친다.
▁내 며
▁내 실
▁내 리기
▁구 교
▁구 별
▁구 상
▁구 두로
▁통 계가
▁통 증을
▁통 째로
▁도 태
▁도 중에
▁모 닝
▁모 르고
▁모 회사인
▁실 스-
▁않 으며,
▁개 원
▁개 성을
▁해 리
▁해 준
▁해 요.
▁해 오던
▁오 던
▁오 비스
▁감 추
▁감 사를
▁임 상
▁4 조
▁4 번째
▁4 .7%
▁4 17
▁5 30
▁5 00여
▁5 000만
▁5 ~6월
▁발 현
▁발 효
▁지원 하지
▁지원 하며,
▁지원 제도는
▁어 떡
▁어 르
▁어 른
▁어 수선
▁안 된
▁현 관
▁강 나
▁강 세다.
▁강 점이다.
▁강 주화
▁마 라
▁마 운틴
▁의 회
▁의 사가
▁의 하면,
▁의 회사무
▁계 급
▁계 기를
▁문 구를
▁노 이즈
▁시행 ,
▁시행 의
▁시행 됐다.
▁분 분
▁20 ∼
▁예 금
▁예 다.
▁만 났
▁때 면
▁미 성
▁미 션
▁미 술
▁미 처
▁미 다.
▁미 시간
▁미 가입
▁장 담
▁장 례
▁필 연
시간 에서
▁회사 보다
▁회사 에서도
▁회사 들도
▁회사 에선
▁근 교
▁동 구에
▁밝 은
▁선 사
▁선 행
▁영 상이
▁영 감을
▁영 남취재본부
▁적 을
▁적 음.
▁결 여
▁6 억
▁6 년간
▁우 회
▁설 득
▁불 쾌
▁불 황
▁불 어나
▁감염 과
▁감염 돼
▁감염 위험
▁대상 과
▁대상 도
▁대상 자의
▁대상 자로
▁도입 했고,
▁스 퀘
▁스 톡
자가 전
▁남 을
▁남 다른
센터 의
▁차 감
▁차 관
▁차 를
▁차 림으로
▁증 거
▁단 비
▁단 어
▁근로 감독
▁근로 기준
▁근로 소득
▁매 사
▁매 탄
▁성 범죄
▁8 %
▁8 년
▁8 0만원
▁기자 실
▁같 음
▁S VPN
▁S &P
▁사업 자를
▁금 강
▁금 속
▁본 점은
▁통해 서도
▁이상 에
▁이상 호
▁이상 ’이라는
▁세 끼
▁서비스 로,
▁반 찬
▁반 해
▁반 기는
▁재 게
▁재 앙
▁재 학
▁재 교육
▁재 평가
▁재 단은
▁재 고가
▁재 건축
▁출근 ·
▁출근 시간
▁출근 하면
▁출근 ·주
▁7 000
▁7 48
▁확대 돼
▁할 애
▁운영 과
▁운영 으로
▁운영 해야
▁달 성을
▁달 부터는
▁외 장
▁환경 상이
▁돌 이
▁무 척
▁이후 로는
▁화 이
▁활용 에
▁활용 하기로
▁활용 해서
▁증가 했다는
▁증가 했다”고
▁증가 세는
▁실시 ...
▁실시 하며
▁제공 과
▁제공 하면서
▁제공 한다는
▁관계 자도
▁10 8
▁10 시까지
▁9 명은
▁9 곳을
▁9 호선
▁좋 다”고
▁좋 겠다는
▁때문 이었다.
▁SK 실트론
▁고용 장려금
▁김 덕
▁김 미
▁김 장
▁김 주
▁김 학
해야 만
해야 할
하지 않
▁줄 거나
▁중소 도시
▁저 성장
▁휴 넷
▁제도 적으로
▁제도 화했다.
▁발생 하더라도
▁지역 내
▁지역 공동화
▁솔루션 '
▁취 준생
▁맞 서
▁시스템 '을
▁각 자가
▁각 지의
▁계획 과
▁계획 된
▁한국 형
▁한국 산업단지
▁한국 관광공사
▁한국 토지주택공사
▁알 수
▁당 근
▁이어 간
▁이어 져
▁입 는
▁입 출
▁입 구에
▁온 실가스
만원 ),
▁관리 한다.
▁관리 자들은
▁검 진
▁유연 성
▁유연 근로
▁I SO
▁I oT
▁△ 유
▁△ 화상회의
▁방역 마스크
▁방역 대책을
▁권 위
▁권 영진
▁대응 방안
▁편 ”이라고
▁편 이었다.
▁편 차는
▁삼 시세끼
▁명 과
▁명 작
▁명 에서
▁행 위가
▁들어 올
▁역 부족
▁금융 그룹
▁카 드를
▁클 러스터
▁과 감한
▁못 했다는
▁못 함.
▁요 가,
▁요 미우리
▁아니 다"라고
▁대비 할
▁올해 까지
▁올해 부터는
▁설명 을
▁설명 한다.
▁산 업계에
▁전환 기업
▁전환 점이
▁아이 들에게
▁아이 파크
▁전체 회의를
▁회의 의
▁회의 할
▁회의 적인
▁시작 된다.
▁시작 했다고
▁두 바이
▁어려 웠다.
▁지급 받는
▁지급 결정
▁물 에
▁물 을
▁양 도
▁중소기업 도
▁했 다
▁했 다가
▁했 어요
▁직원들 로
▁직원들 이다.
▁프로 그래밍
▁대표 ),
▁순 위를
▁고객 사가
▁고객 만족
▁연장 이
▁연장 된다.
▁강화 가
▁강화 하겠다”고
▁현재 도
▁파 트
▁구축 했다고
▁구축 되어
▁삼성 이
▁삼성 증권
▁작 고
▁월 등
노동 기구
▁출산 해
▁출산 ·육아휴직
▁열 고,
▁허 물
▁허 가를
하겠 다”면서
▁12 시간
대로 ,
▁응답 률은
▁응답 기업의
▁트 래
▁가족 ·
▁법 규
▁커 다
▁생각 합니다.
▁30 만원으로
▁15 00만
▁15 .9%로
▁C or
▁C CT
▁C TO는
▁출퇴근 제,
▁투 어
▁투 표
명이 며
그룹 웨어
▁문제 의
▁문제 해결
▁잘 하고
▁잘 되는
▁적용 ,
▁적용 에
▁적용 되고
▁심 하게
▁심 함.
▁PC 만
▁PC 오프
▁안전 성이
▁본사 ,
▁본사 인
▁필수 적으로
사회 에서
▁결정 해
▁추가 된
▁추가 한
▁추가 적으로
▁협업 의
▁문화 체육관광
▁학 력
▁학 원에
▁19 .9%
▁박 민
▁박 세
▁박 태
▁박 사는
▁교육 지원
.2 %였다.
▁리 듬
▁리 탈
사업 장이
▁넘 을
▁넘 겼다.
▁보고 할
▁롯데 마트
▁롯데 홈쇼핑
▁식 습
▁해당 되는
▁격 리를
▁격 주로
▁유지 하겠다고
.8 점으로
▁11 6
▁11 종의
▁공공 임대주택
▁팀 바
▁평가 했고,
▁기능 에
▁기능 인
▁경제 의
▁일본 에서도
▁확인 하고,
▁제외 하고,
▁장기 적
▁24 3개
▁곳 곳
▁중요 하지만
▁추진 하겠다"고
▁기술 지원
▁개발 에도
▁폐쇄 돼
▁폐쇄 할
▁폐쇄 했습니다.
▁비율 로
▁부모 ,
.4 %를
▁확진자 인
▁휴직 은
▁휴직 제도
▁사업장 )으로
▁될 까
▁전문 의
▁전문 계약
▁있다는 데요.
▁주요 기업
▁이를 테
▁우려 의
▁우려 되고
▁100 만원의
▁쓰 고,
▁쓰 거나
▁상담 업무
.3 %를
▁부담 스럽
▁뉴 저
▁1년 은
▁합 의를
▁생활 로
▁생활 치료
▁생활 권과
▁막 대한
▁외부 와
▁외부 인이
▁연구 는
▁연구 직
▁연구 ·개발
▁애 틀
▁휴가 사용
▁창 구
기술 직은
▁18 3
▁18 개
▁18 세가
▁힘 내
▁집중 되는
▁집중 도를
▁만들 겠다"고
▁참여 하지
▁계속 되자
업무 팀은
▁경험 에
▁경험 하게
▁건강 하고
▁건강 상태
▁시대 는
▁정도 에
▁이런 저런
▁업체 도
▁현대 해
▁현대 제철
▁3월 에
▁3월 까지
▁방안 까지
▁자율 출근
▁허용 하고,
▁허용 키로
▁책 은
▁책 상이
▁공유 를
▁공유 했다.
▁만족 스러
▁비상 한
▁비상 사태
▁영업 점은
▁우리 은행은
▁데이터 의
▁있을 까
▁지침 과
▁지침 '을
▁긴 장을
er i
▁권고 했다고
부분 의
▁23 %
▁23 2
▁23 .0%
▁접촉 자는
▁방문 할
▁방문 하지
교육 ,
▁정상 화를
▁정상 화에
▁높아 진다.
▁홈 플러스
업체 는
▁전년 (1만7665
▁전년 (6611명)보다
▁B 씨가
▁B Shw
▁감소 가
▁금지 되며
▁어려움 도
▁설치 가
▁설치 하거나
▁돌입 했고,
▁선정 ,
▁선정 했다고
▁26 %
▁평균 인
▁현장 실
▁의무 사용
▁최소화 하도록
▁통신 을
▁기대 에
▁기대 한다"며
▁준비 한
▁준비 해서
▁준비 해온
시설 의
▁늘어나 기
or e
▁아닌 데
▁백 준무
▁소통 ,
▁소통 하며
▁국가 ·공공기관
▁국가 인권
▁근로시간 의
▁사실 도
▁로 버트
▁이동 해
▁극 장
▁공공기관 에서
▁드 롭
▁드 라이클리닝
▁소프트 뱅크
▁국민 들이
▁인터넷 과
▁인터넷 망
▁인터넷 망과
▁복귀 해
▁복귀 했다.
▁오후 에
다’ 라고
▁내부 망과
▁떨어 진다.
▁보인 다"며
▁보인 다”며
▁내년 부터는
▁우선 ,
▁급증 으로
▁급증 하며
▁건물 .
▁일반 투자
▁판단 은
oo ming
▁대면 을
▁분야 별로
산업 단
▁예상 하는
▁돌아 가고
▁대체 했다.
▁대체 적으로
▁면 담
▁면 담을
▁상태 ”라고
▁중국 과
▁중국 에
▁연차 는
▁끝 낸
▁치 는
▁치 중
▁해결 책
▁독 보
▁노력 으로
▁단축 제도
▁전자 업계
▁판매 량을
▁판매 량도
▁V R
▁개정 이
▁개정 할
▁보호 해야
▁위험 요
▁비중 도
▁0 .7%
▁22 9
▁22 .5%에
▁브 루
▁3개월 까지는
▁연결 기준
명) ·
명) 으로
▁겪 지
▁조성 한
▁비롯 ,
▁채용 이
▁채용 한
▁G 밸리
▁G PT
▁수행 해야
▁태 세
▁자신 들의
▁“코로나19 에
▁행정 문서
▁2019년 까지
▁M D
▁M Z
▁인식 의
▁인식 하고
▁긴급 회의를
▁부문 과
▁2주 가
▁나눠 쓰
▁소프트웨어 에
ang @dt.co.kr
▁1만 2042
ju ng
▁들어갔 고
▁지금 보다
▁악 플
▁볼 멘
▁제조 업을
▁날 아
▁방법 에
▁지시 ,
▁워크 '
▁2018년 에
▁인천 도시공사
▁인천 공항
▁자가 용
▁활성화 되면서
▁국회 법
▁않아 서다.
▁정착 된
▁정착 에
▁정착 시킬
▁s te
▁소속 감
▁소속 은
▁T O
▁T 그룹통화
▁T ime
▁전화 는
▁않았 을
▁컴퓨터 ,
▁길 고
▁부족 을
▁모습 도
▁모습 은
▁망 연계
▁상승 하며
▁잠 복
▁소비 를
▁몰 렸다.
▁몰 아서
활동 은
▁현실 에
▁폭 등
▁인구 를
▁인구 절벽
▁연기 ,
▁공격 의
▁중단 하고,
▁취업 준비
▁넘어 설
ou t
▁뉴욕 에
▁책임 은
▁책임 지는
▁ESG 투자
▁앱 ,
▁군 부대
▁먹 거나
▁CEO 도
▁미래 학
▁미래 학자
▁받는 다
▁40 만원
▁향상 시킬
▁향상 시키는
이었 고,
이었 다”며
▁주목 받는다.
▁차단 ,
▁장점 인
▁도시 와
▁도시 공사
▁도시 공사는
▁점검 과
부모 가
▁담당 자의
▁상당 하다.
▁파악 된다.
▁불과 해
시간) 과
▁울산 은
▁울산 사회복지공동모금
▁논의 한
▁논의 됐다.
50 대
▁부여 한
▁육아휴직급여 가
▁상품 과
▁서울시 동부
▁j y
▁자택 근무
▁협력 사와
▁30% 는
▁9월 에
계획 도
▁재택근무제 '
▁"이 러한
▁달라 졌
▁컨설팅 ,
▁업종 에서
포인트 ,
▁개학 연기
▁한화 토
협회 가
▁5월 에
▁안내 문을
▁접근 성
▁접근 해
▁접근 성이
▁사용하는 데
▁인정 해주는
▁지방 세
▁지방 에
▁지방 으로
▁바로 가기
▁집계 된
▁매일 매일
▁돈 으로
▁받았 다”고
▁취소 됐다.
▁취소 하거나
▁가능하 지만,
코리아 도
▁전반 이
▁있고 요.
▁종사 하고
▁종사 자는
부문 은
▁일자리 우수기업
▁23일 로
▁인상 해
▁3단계 를
▁“이 제
▁의료 비와
~2 6일
~2 8일
▁7월 에는
▁축 협
▁라인 업을
0만 대
▁서버 용
▁전용 임대주택
▁기준으로 는
▁스트레스 도
▁맡 아
▁점심 도
▁참석 하는
▁보건 의료
re ss
▁수당 은
▁불가능 해
▁2단계 가
▁방송 이
▁방송 으로
▁농 담
▁해소 하고,
▁시설 에서
▁준수 하면서
안전 보건
▁36 0만원
▁윤 재
▁윤 선영기자
▁80% 는
)' 와
효율 적인
▁52 %
▁작년 에
▁의원 과
▁발전 하고
▁현황 '
▁의무화 한
▁대유행 )이
▁동기 부여
▁전략 이
▁전략 이다.
▁제시 한다.
감독 관
▁집단감염 에
▁쉬 지
▁있음 ,
▁역할 과
▁송 수신
▁VPN 은
▁카페 로
▁카페 테리아
▁H DC
▁뜻 에
▁밖 의
▁제기 되는
▁오늘 날
▁오늘 도
카드 도
(8 3
방식 으로
▁빨 대
▁임원 들은
▁어느 새
▁조금 이나마
▁교통 이
▁구조 가
▁두기 에
▁일시 금
▁프로젝트 에
▁개정안 도
▁이렇 듯
00만 달러(약
▁지자체 ,
평가 원
▁시민 들에게
▁건설 현장
▁2주간 의
am i@ajunews.com
▁공지 사항
▁식당 과
▁가이드 를
▁없었 다는
▁없었 다"고
▁벗 고
▁숙 명
▁위협 하는
▁b bang@ajunews.com
▁익 명을
▁제주 ,
▁정보통신 기술
▁착한기업 '
▁고령 사회
▁임시 폐쇄
▁도쿄 도
▁e 스포츠
▁아동 을
@k sil
▁주택 연금
▁야근 수당
▁가치 에
▁유통 망
▁종식 될
▁R O
▁가동 해
▁정기 국회
▁공장 에
▁공장 가동
▁설정 한
▁커뮤니케이션 의
▁녹 십
▁수립 ,
▁고위 공직자
▁주말 을
.8%) 이
▁드러 낸
▁'코로나19 로
▁법률 '
▁붙 이고
▁빈 도가
▁퍼 져
▁퍼 지는
▁보이 며
▁사고 와
▁전산 실
▁전산 망에
▁올라 갈
▁올라 온
▁터 진
▁설계 도
▁판교 의
▁이해 하고
▁수익 률이
▁35 %
▁내려 받아
▁소독 제를
▁U C
▁U I
▁넓 고
▁넓 혀
▁변경 했다.
▁저장 해
▁범위 도
(G DP
▁품 은
m2 )
11 @hankyung.com
▁40% 를
▁복무 지침을
▁느낌 .
▁맛 집
▁주민 들이
▁주민 들에게
▁지원금 도
▁움직 임을
▁천 연
▁있다 ,
▁있다 면서
▁2회 에
▁나라 별로는
▁위반 해
▁나가 서
▁내놓 을
▁아침 ,
▁차별 이
▁분양 하는
▁특수 업무팀은
▁끝나 더라도
▁캐 시
▁캐 주얼
▁34 %
.8% 의
▁흐 르는
▁회복 하기
▁구미 보건소
▁실행 하고
▁양성 판정을
▁끊 어
▁운용 체계
▁과거 에
25 일
25 일부터
▁엔씨소프트 도
’( 일과
▁카카오톡 으로
▁이슈 와
▁32 00여명을
▁고객센터 의
▁일환 으로,
▁제작 한
▁나와 도
▁교사 나
▁교사 들의
▁닫 으면
▁닫 으면서
▁중소·중 견
인터 내
▁유행 으로
▁선별 해
▁70 조
소득 세
▁체크 하는
▁체크 하고
▁100% (최대
▁라 면
▁사원 에게
▁o sk
▁가능해 질
▁견 책
▁대학 수학
▁1위 는
▁구내식당 에
▁확장 성을
24 일까지
▁p ark
▁시행해 오던
▁남편 은
▁부처 에
▁부처 와
.1%) 를
▁진정 세를
▁진정 되더라도
▁접종 률이
▁VDI 를
▁3만 2
▁적응 하기
▁피로 감
▁웃 는
계약 서
▁메일 로
!! !!
전문 기자
▁경찰 관
▁연말 연
(0 30
(D S)
보건 복지
▁상한 가를
▁상한 액이
▁만나 고
▁정상근무 로
▁데스크톱 ,
인사 법
▁체온 측
▁휴대 전화를
▁30분 까지
▁팀장 에게
▁낮아 진
▁조건 에
▁GS 홈쇼핑은
▁징 수
신문 이
▁확정 했다고
▁요즘 은
▁롯데지주 ,
st )
st artup
세요 "
▁배경 에는
▁노출 돼
▁노출 되는
▁구직 자들의
▁팀원 들이
▁(주) LG
▁토로 하고
▁구로구 의
▁2021년 에는
▁브랜드 로
▁더존비즈온 이
▁왔 는데
▁내달 부터
▁모니터링 ,
▁제안 한다.
▁2010년 에
▁시기 인
▁‘20 21
▁높았 던
▁낳 아
▁정리 한
▁들어가 면
▁은행권 은
▁남양유업 의
▁최종 환
▁경제활동 참
▁52시간 제
▁56 60
▁"직원 이
▁집안 에서
▁금융당국 의
▁치료 에
부담 금
증상 자
▁2000 만원까지
▁일터 에서
▁38 .4%였다.
▁절차 적
▁직업 훈련
▁정규직 과
▁토론 회를
▁65 %가
▁종목 이
▁벌어 진
▁벌어 졌다.
▁쏟 는
▁획 일
▁인간 적인
▁국제 기구
▁국제 노동기구
▁쌓 을
▁잔 여
▁잔 잔
▁지출 을
▁나왔 다고
▁55 .4%가
▁코로나19(COVID-19 )가
▁주식 형
▁구입 한
▁선도 적으로
▁중소벤처기업 부의
▁IT기업 들
▁지속가능 경영
▁지속가능 성에
▁믿 지
▁근무형태 가
▁유도 한다.
▁돌파 ...
▁촉진 을
▁메시지 에서
kim @dt.co.kr
▁빚 어지고
▁펀드 가
▁펀드 를
▁펀드 의
만9 000
만9 000여명
▁감안 할
▁권한 에
▁회장 과
▁9시 30분
(E TF
▁10만 명을
ct oday
▁위원 회는
▁공포 에
▁충족 하는
▁예측 된다.
▁1층 에
▁한도 에서
▁150 명
▁150 명이
▁a b
▁이행 하지
▁제어 ,
▁약속 을
▁움직임 에
▁회원 국
▁예전 과
▁예전 의
방안 에
▁'일 의
▁사무공간 의
▁사무공간 에서
▁성능 이
▁2~3 시간
~~ ~~
▁한달 에
▁참가 자
▁참가 할
(11 .5%)
▁정치 권
▁"일 본
▁"일 부
▁대한민국 의
▁의원실 이
▁1~2 인
▁민간기업 에서
▁공감 대가
▁워라 블
(30 )씨는
▁여기 에는
▁250만원 )로
▁가속화 될
▁가속화 하고
▁텐 핑
▁150만원 으로
▁150만원 에서
▁러 닝
▁재미 가
▁소프트캠프 가
▁100명 까지
▁슈 뢰퍼
▁직급 에
▁일ᆞ 생활균형
▁김정 희기자
▁덜어 주는
▁덜어 드리
▁앞장서 겠다"고
▁전기 통신사
▁성격 이나
la ck
▁싱 글
▁사건 은
▁분명 한
▁사진= 김
▁공직사회 에
▁포기 하고
▁4개월 째
▁‘아 파텔
▁근로기준법 은
▁KBS 는
▁셋째 주
~12 월
▁4단계 가
▁생겨 서
▁예고 한
▁게시 글
▁라인웍스 를
~6 개월
~6 월)
모델 로
▁체험 할
▁인공지능(AI ),
(상 무
▁시점 이다.
▁느낀 다고
▁악성코 드가
▁비효율 적
▁집합 금지
▁199 5년
▁밀접접촉 자로
·여 )씨는
▁생존 의
▁답답 한
기정 화
장기 적인
▁유동 성
▁발령 을
▁지방자치단체 가
▁2시간 씩
▁조짐 이
▁근무방식 도
▁근무방식 의
▁근무방식 이
▁어쩔 수
▁냉 정하게
▁것” 으로
▁다가 온
▁스웨덴 은
▁IP 를
▁청구 할
▁질환 을
자산운용 의
▁i H
▁i OS
▁뽑 는
▁시애틀 과
▁제2 항
▁재량 으로
▁jh akim
▁위축 된
▁6만 20
▁컨퍼런스 콜
▁풍경 을
▁쟁 점과
▁한계 에
▁동선 에
▁궁금 한
▁궁금 증을
▁상가 에서
트로 닉
▁미뤄 지면서
▁괴롭힘 을
되었 다는
▁국정 원
▁국정 감사
▁2013년 부터
▁보건복지 위원회
▁끌어올 리는
▁질병관리본부 의
▁숫 자가
▁안팎 에서
▁소득대체 율
▁정보통신기술(I CT
▁잃 어
안정 적인
▁필수인력 만
(45 .3%),
75 00
ma il
▁켜 면
▁선별진료 소
▁냈 습니다.
▁사각지 대가
만3 000
▁인용 ,
▁"기업 들이
▁평생 학습
▁난임 치료
?? ?
▁앤 커
▁부상 한
▁마무리 하고
▁양천 구
100 @ajunews.com
▁시달 리는
▁확산방 지
(46 .8%)
▁풍부 하다.
경찰 서
▁부작용 도
▁신세계 백화점
▁구청 장은
▁한국경영자총협회 가
▁물어 보
▁TF 는
▁TF T를
▁갤럭시 S7
▁신조 어가
▁내외 를
▁오르 며
▁삼성생 명이
▁삼성생 명은
▁가시 성을
▁지방공무원 을
▁'3 +3
▁조달 청
▁마인 드가
▁무인 복합
▁GC F
▁짓 을
▁서비스업 (66.7%),
▁시상 식
▁아버 지의
▁발간 했다.
▁집값 이
▁에너 지가
▁행정안전 부는
▁긴급사태 를
▁고통 을
(62 .5%),
▁빛 을
▁한국가스 공사는
마이 데스크
▁1주 년을
▁제재 를
▁교류 가
▁잡아 가고
▁지능 화
▁“다 양한
▁유료 방송
▁거세 지자
▁증설 ,
▁필요시 에는
▁플랜 티넷
▁가깝 게
▁토크 쇼
ok @joongang.co.kr
▁엉 이를
과정 에서
▁프라 이버시
▁메뉴 를
▁혈 액
▁텔레워크 를
▁이겨 내고
▁수월 하다.
▁인쇄 ,
▁주소 지
▁'전 사
▁늘린 다는
▁0.9 18
lex 는
▁한화솔루션 은
테크노 파크
▁밸 류
기본 법
라운 드
▁중대본 은
▁‘불 필요한
▁두려 움
▁1명꼴 이다.
에듀 테크
▁대답 했다.
▁‘리모트 뷰
▁건강보험 료를
▁긴급돌봄 을
▁악용 한
▁중앙방역대책본부 에
▁스튜디오 를
(가 명)
▁‘자 택
▁"확진 자
▁관행 과
▁매칭 플랫폼
▁김대 현
▁워크숍 ,
▁넷플릭 스의
▁흘 러
법률 사무소
▁PwC 는
▁오류 가
▁만만 찮
▁철회 하고
▁단체협약 ,
홀딩 스
▁장착 된
so ft
▁감수 하고
▁거창 군
▁알았 는데
▁방역관리 주간
▁비조치의견 서는
▁비조치의견 서를
▁승무원 은
▁넘어섰 습니다.
▁의사결 정이
ac ation
▁깃 랩
▁이례 적으로
▁기피 하는
▁생생 한
▁선거 에서
▁단기간 에
▁호평 을
ji @ajunews.com
▁젠 홈
아니 라
정치 하는
크로 스
▁지참 해
▁가득 한
▁‘오피스 가드
▁'고 메
▁4회 째를
▁초고속 인터넷
▁역삼 동
▁연장근로 를
▁영상편집 :
▁스마일게이트 는
▁듀 얼
지하 철
▁이창 열
▁외로움 을
▁환경노동 위원회
▁돌봄교 실
주민 센터
▁우아한형제 들은
▁로이터통신 은
▁나눈 다.
▁979 6
▁역사 상
▁좋은기업지배구조 연구소
▁IBK기업 은행이
~17 시
▁버튼 을
▁dor ami@ajunews.com
▁산업단 지를
▁시행해왔 고,
▁저출산·고령 화
▁VPN(가상사설망 )
▁신도림 동
▁원내 대표
▁PL US
▁걸맞 은
▁공개시스템 (알리오
▁잦아들 지
▁네오위 즈
▁관공 서
▁관저 에서
▁하버 드
▁유례 없는
▁게이 밍
▁bl ooming
▁전념 할
▁중위 소득
▁인사제도 로
▁컴플라이언 스
▁뉴욕타임스(NYT )는
▁‘페이스락커 ’를
▁부바 부
▁'가족친화 인증
▁여의 치
▁문턱 을
▁AXA 손보
▁jm 100@ajunews.com
▁궁극 적으로
bo .co.kr
금감 원
▁가맹 점
▁유은 혜
▁산모 와
▁아이패드 용
▁포스코에너 지는
▁스피어 피싱
kc al
▁갤러 리
차이나 모닝포스트
휴양 마을
▁임산 부는
▁8~12 시,
▁반사 이익
▁카운 티
▁허술 한
▁계속고용 제도
▁타인 과의
▁(주 )에
돌봄교 실
▁가상데스크톱 (VDI)
▁넥스트 콤플렉스
▁정례브리핑 에서
▁마곡사옥 의
.or .kr
▁꼰 대가
게시 판
▁이낙 연
▁이자 상환
▁가라 앉
▁'음성 '
▁불합 리한
▁여성과학기술 인
▁0~1 세
▁120다산 콜
▁한국인터넷진흥원(KISA )이
▁9.4개월 이었다.
▁사우스 차이나모닝포스트
▁일가정양립 지원
▁인슈어 테크
▁‘13 B
▁5만9 83
▁불문 하고
▁아이스크 림
▁허성 무
▁플랫폼사업 부문
pear l@asiae.co.kr
▁true pearl@asiae.co.kr
form ation
배움 카드
의민 족
▁사로 잡
▁제너 시스
▁사업추진 전략
▁한국노동 연구원
(2만2 297
▁손영 래
over n
병서 기자
▁이듬 해
▁서포터 즈
▁생필 품
▁동영 상을
▁반론 도
▁출근·2 일
▁O2 O
▁87.3% (여성
icro soft
▁dynamic @joongang.co.kr
▁보안인증(CSAP )도
@c ctoday
ymoon @heraldcorp.com
머티 리얼
▁실스- 코
▁CCT V
▁BShw ang@dt.co.kr
▁GPT W
▁일자리우수기업 인증,
@ksil bo.co.kr
▁osk ymoon@heraldcorp.com
▁대학수학 능력
▁전기통신사 기
▁jhakim @etnews.com
▁공개시스템(알리오 )에
@cctoday .co.kr
" 라면서
' 까지
( ·
( 위
( 청
( 총
( 파
( 현
( )에
( un
( 온라인
( 남성
( 구글
( 경기
( 재판
( 데스크톱
, 000원
- 6
- B
0 여
1 명으로
1 70
2 ,
2 억
2 2년
2 3일
5 명이
5 17
5 ~10년
6 일까지
6 000
6 95
6 ~2019년
7 .
7 명,
8 명의
9 인
9 %)
9 명으로
= 박
A 는
B ,
B A
B M
I N
O C
O D
P A
T )을
U P
V X
V iew
a z
a in
a ir
a ck
b oo
g n
h @segye.com
j a
j k
j ong
l ob
l etter
m ,
m an
n t
u ite
x per
~ ^^
· 고용
· 유연
· 전환
· 무선
· 엔씨
’ (27
’ (11
▁ ᄒ
▁ 슨
▁ 짝
▁ 탕
▁ 페이스
▁ mi
▁ life
▁ 됩니다
가 람
가 량은
강 대
강 좌
강 화된
강 력한
개 방
개 에
갤 럽
거 리는
건 보다
건 )보다
것 으로
경 색
경 을
골 드
공 사가
관 리는
구 단
국 토
군 요.
권 역
권 직장맘지원센터
규 칙을
금 주
기 ’
기 의
기 보다
기 기자
기 사,
길 을
꺼 운
꼬 동
난 다.
날 이
내 과
내 야
널 드
니 다"
다 !
다 수
닥 터
대 상을
데 이를
도 어
돈 이
돌 입
동 반
되 나
드 트로닉
들 만의
등 교
딩 톡
때 가
때 마다
라 클
라 ...
랙 티브
러 ,
련 의
렸 습니다.
례 품
로 가
롭 지
룸 에서
리 엄
리 퍼
리 거나
림 원
립 대
마 를
말 고
메 리카
명 에게
모 의
무 에
문 숙
미 니
미 글로벌
민 수
민 의
민 주
박 사
발 신
밸 런스
버 전
버 지
베 드
변 호사
보 ,
보 게
보 라
보 완
봤 더니
분 들이
브 리
블 루
비 한
뿐 이었다.
사 유
살 ,
살 을
삶 의
생 성
석 유
선 임
선 정
섬 유
세 게
소 나
소 속
소 영
수 )는
숙 사
슈 돌
스 킨
스 킹
스 24
시 고
시 히
시 스는
시 어지
실 현
심 판
아 동
안 도
았 다”고
앞 서
앤 서
야 마
약 한
어 링
억 4
엇 보다
었 다”며
에 이
여 름
여 건을
역 할
연 말
연 의
연 금을
였 으며
오 픈
요 ~
요 건
우 치
우 빌딩
운 송
워 드,
원 들이
위 와
유 진
으 려
을 지
의 에
이 니
이 야
이 드는
인 간
일 까
일 반
일 시
입 국
입 은
있 어도
자 니
잠 시
저 질환자
전 쟁
전 파
정 적으로
정 도로
제 련
제 ’가
졌 고
조 6
조 항
좋 아
좋 음
주 동
준 다
준 다고
줘 서
즈 니
증 과
지 대
지 우
지 진
지 는데
진 호
징 수
차 게
차 원에서
창 현
채 권
처 의
처 장은
철 학
체 국
춘 천
취 운전
측 이
층 간
치 매
치 인
친 환경
침 을
캡 스
커 머
컨 퍼런스
클 린
타 이
타 치는
태 세
태 호
토 니
투 자를
툴 을
트 러
특 구
특 화
틈 이
티 콘
파 이는
패 밀리
포 먼
프 탑
플 레이
피 로
피 프라이
함 은
해 가
해 보는
형 은
호 흡
화 영
화 의
휴 무를
근무 제
▁이 마저도
▁있 길
▁있 다"라며
재택근무 를
으로 )
▁재택근무 에는
▁재택근무 하면
▁재택근무 라고
▁재택근무 에서도
▁재택근무 자와
▁기 고
▁기 조가
▁사 원을
▁사 원의
▁사 티아
▁대 개
▁대 사
▁대 장
▁대 청
▁대 회를
▁대 내외
▁지 체
▁수 료
▁수 소
▁수 순
▁1 -
▁1 .7
▁시 킨
▁시 너지
▁시 놀로지
▁시 레이션
▁2 20
▁2 명은
▁2 000명
▁2 .7%
▁2 조원
▁전 임
▁전 주
▁전 한
▁전 하는
▁전 력을
▁전 시장
▁등 ,
▁등 )을
▁직 한
▁직 간접
▁직 시해야
▁가 평
▁가 하고
▁가 지가
▁것 '
▁것 보다는
▁일 ・
▁일 했던
19 일
▁중 개
▁중 이라
▁중 이었던
▁한 다"라고
▁보 임
▁보 증
▁보 조를
▁인 성
▁인 종
▁인 도는
▁인 물이
▁위 장
▁위 기도
▁있다. "
▁업 력
▁업 황
▁제 설
▁제 19
▁제 보를
▁제 각각
▁제 임스
▁정 답
▁정 반
▁정 선
▁정 하기
▁정 직원
▁자 란
▁자 존
▁자 리는
▁자 사가
▁자 전거
▁공 문
▁공 시가
▁공 휴일
▁공 기정화
▁3 40
▁3 번에
▁기업 '
▁기업 별로
▁기업 에선
▁기업 활동
▁기업 '의
▁기업 (32.1%),
▁경 제로의
▁상 사는
▁‘ M
▁‘ 내
▁‘ 메
▁‘ 보
▁‘ 사
▁‘ 성
▁‘ 안
▁‘ 업
▁‘ 예
▁‘ 올
▁‘ 라인
▁‘ 하이
▁‘ 70
▁‘ 한국
▁‘ 온라인
▁‘ 4차
▁‘ 생산성
▁‘ 기존
▁‘ 저출산
▁‘ 위드
▁‘ 승진
▁‘ 회사가
▁‘ 워라
▁‘ 연결
▁‘ 슬랙
▁‘ 남녀고용평등과
▁‘ 정상근무
▁코로나19 ,
▁육아 직원
▁육아 부담
▁육아 ·가사
▁아 프리카
▁“ 1
▁“ 양
▁“ 올
▁“ 유
▁“ 보안
▁“ 여성
▁“ 자녀
▁“ 개인
▁“ 대기업
▁“ 대구
▁“ 매일
▁“ 스타트업
▁“ 본사
▁“ 팬데믹
▁“ 엄마
▁“ 해외
▁부 실한
▁업무 비
▁근무 하고,
▁근무 인력을
▁근무 인원의
▁" 월
▁" 대면
▁" 노동
▁" 출산
▁" 젊은
▁" 삼성
▁" 메신저
▁" 평소
▁" 정부가
▁" 상황이
▁" 모두가
▁다 루
▁비 단
▁비 운
▁비 혼
▁비 자는
▁비 해서
▁최 전
▁최 준
▁주 를
▁주 에는
▁' C
▁' 노
▁' 모
▁' 올
▁' 하
▁' LG
▁' 신청
▁' 우한
▁' 경력단절
▁' 파수
▁' 효율적
▁' 전자금융감독규정
▁관 여
▁조 수
▁조 우
▁조 직원
▁하 기에
▁하 기가
▁하 시는
▁나 간다.
▁출 현
▁출 연금
▁출 ᆞ퇴근
▁원 대
▁원 청
▁원 형
▁원 했다.
▁원 하고
▁원 ·하
▁고 3
▁고 문
▁고 층
▁고 향
▁고 유의
▁고 가의
▁고 숙련
▁유 기적으로
▁유 경험
▁따 르
▁따 지면
▁따 르지
▁서 민
▁서 린빌딩
▁서 창석
▁연 대
▁연 도
▁연 휴가
▁신 약
▁신 산업
▁신 지로
▁신 중한
기업 이다.
▁있는 가
▁그 를
▁그 제
▁내 재
▁내 리는
▁구 역
▁구 성이
▁통 로
▁통 틀어
▁도 정
▁도 시는
▁도 전을
▁모 으면
▁모 드를
▁모 션데스크
▁실 ·
▁실 수
▁실 외
▁실 장은
▁실 수요
▁않 는데
▁않 겠다고
▁개 성
▁개 짜리
▁개 리의
▁없 다"
▁해 ,
▁해 군
▁해 에
▁해 러스
▁해 보고
▁해 주시
▁해 프닝
▁오 갈
▁오 뚜
▁오 롯
▁오 세
▁여 긴
▁여 신
▁소 매
▁소 문
▁소 화
▁소 장은
▁감 내
▁임 명
▁임 할
▁위해 서도
▁4 층
▁4 30
▁4 .3%로
▁5 명을
▁5 일(현지시간)
▁5 70
▁5 부제
들이 고
▁지원 한
▁지원 한다
▁지원 받는다.
▁지원 받게
▁지원 절차
▁어 든
▁어 때
▁어 릴
▁어 면
▁어 플
▁어 기고
▁어 차피
▁확산 ’
▁확산 하며
▁확산 이라는
하기 까지
하기 보다는
▁안 방
▁안 해
▁안 호
▁안 됨.
▁안 토니
▁현 저
▁강 동
▁강 아
▁강 현
▁마 흔
▁의 성
▁의 자가
▁의 하면
▁의 사에
▁계 절
▁사용 된다.
▁사용 하고,
▁사용 해도
▁사용 법을
▁사용 하실
▁사용 량과
▁거 꾸
▁거 란
▁거 기에
▁거 북목
▁문 진
▁분 들의
▁20 7
▁20 개
▁20 명을
▁예 능
▁예 민
▁예 쁜
▁만 기
▁만 연
▁미 즈
▁장 벽
▁장 세
▁필 히
▁회사 라고
▁동 관
▁동 력
▁동 생
▁동 석
▁동 구는
▁동 향을
▁집 무
▁집 체
▁늘 면
▁선 뜻
▁영 남
▁영 월
▁적 기
▁적 립
▁결 제,
▁높 낮
▁높 다
▁활 짝
▁밝혔 고,
%) 은
▁6 곳
▁6 시에
▁6 번째
▁우 드
▁우 신화장품
▁불 량
▁경우 와
▁감염 자는
▁감염 내과
▁도입 하며
▁도입 해서
▁스 펙
▁가능 하지
▁남 기
▁남 미
센터 장
▁특 례
▁차 가
▁차 기
▁차 량은
▁증 언
▁근로 의
▁근로 환경
▁운 항
▁매 력을
▁성 장은
▁성 격을
▁성 향이
▁성 적을
▁성 향을
▁8 .5
▁같 았다.
▁같 지만,
▁같 으면
▁S k
▁사업 '
▁사업 ,
▁사업 참여
▁금 리
▁금 일
▁진 천
▁본 원
▁본 다”고
▁교 류를
▁이상 헌
▁이상 이라는
▁올 리지
▁필요 ”
▁필요 하게
▁필요 합니다.
▁필요 인력을
▁세 밀
▁세 운
▁직장 관
▁직장 어린이집
▁직장 폐쇄
▁서비스 업체
▁반 전
▁재 구성
▁재 빨리
▁재 돌입
▁출근 ’
▁출근 자를
▁7 일(현지시간)
▁확대 ·
▁확대 한다고
▁상황 별
▁상황 이라고
▁할 만
▁할 까?
▁정부 로부터
▁복 사
▁복 장을
0% ,
▁운영 인력의
▁달 까지
▁달 렸다.
▁달 했고
▁외 환
▁환경 이나
▁환경 (E
▁환경 개선
▁돌 고
▁돌 연
▁돌 리고
▁돌 렸다.
▁무 을
▁판 시했다.
▁급 급
▁건 너
▁건 데,
▁서울 교통
▁원격근무 나
▁평 점
▁이후 부터는
▁접 한
▁보안 서
▁보안 프로그램
▁보안 관제
▁증가 와
▁증가 율
▁증가 하자
▁증가 했지만,
▁실시 는
▁포 드
▁제공 한다”고
▁관계 자들은
▁10 6
▁10 9
▁10 억
▁10 년간
▁9 년
▁9 00
▁9 일(현지시간)
솔루션 ,
▁효 력이
▁변 곡
▁변 할
▁변 수가
▁들 었습니다.
▁좋 으며
▁때문 ”이라며
▁고용 서비스
▁고용 주는
▁김 건
▁김 남
▁김 다
▁김 치
▁김 한
해야 하는
▁데 서
▁데 리고
▁줄 임
▁줄 지
▁이용 도
▁이용 률
▁이용 시
▁이용 료를
▁저 자가
▁휴 먼
▁휴 원을
▁휴 원과
▁사람 마다
▁후 배
▁후 의
▁후 회
▁발생 했던
▁지역 화
▁간 병
▁간 적
▁간 판
▁임직원 들
▁맞 췄다.
▁시스템 화를
▁각 료
▁남성 에게
▁한국 에선
▁한국 경영
▁한국 노총
▁한국 테크놀로지
▁종 말
▁당 직
▁당 하는
▁당 신이
▁이어 온
▁이어 폰
▁이어 나갈
▁이어 갔다.
▁입 덕
▁입 찰
▁진행 ,
▁진행 되면서
▁진행 되지
▁진행 하며,
▁온 도
▁온 전
▁초 고
20 명
만원 이
▁조치 와
▁조치 라고
▁조치 했다고
▁A P
▁관리 비
▁관리 자에게
▁처 방
▁유연 ·재택근무
▁신청 ’
▁신청 도
▁신청 자
▁△ 상
▁△ 육아휴직
▁대응 으로
▁편 할
▁편 하고
▁편 차가
▁삼 는
▁명 동
▁명 문화
▁자녀 에게
▁자녀 들의
▁행 동에
▁행 보를
▁들어 왔
▁직장인 과
▁재택 담임선생님
▁금융 ·
▁금융 사에
▁클 립
▁못 함
▁못 했다”고
▁되 찾
▁되 어야
▁되 려면
▁요 시히
▁아니 다"라며
▁미국 부터
▁설명 할
▁노동 시간을
▁노동 집약
▁산 업계는
▁전환 된
▁전환 근무
▁전환 해야
▁전환 한다는
▁아이 원
은행 권
▁LG ,
▁LG 그램
▁회의 로
▁회의 에서는
.5 3
.5 %를
▁두 께
▁두 면
▁두 통
▁어려 운데
▁지급 된
▁지급 액
▁지급 이
▁지급 하겠다고
▁지급 문화가
▁물 은
▁물 가에
▁양 재
▁양 쪽
▁중소기업 들을
▁중소기업 (20
▁다양 성과
▁했 더니
▁했 는지
▁있어 서는
▁거리두기 ,
▁거리두기 '를
▁대기업 (45.3%),
▁개인 은
▁일부 도
▁일부 에서
▁여성 들은
▁정보 기술(I
▁네 티
▁모두 에
▁사회적 기업
▁대표 도
▁순 매
▁가운데 서도
▁연장 으로
▁강화 된다.
▁현재 로선
▁파 급
▁파 는
▁파 생
▁파 업
▁조사 했다.
▁구축 형
이스 트
기관 에서
▁월 가
▁월 마트
▁답 해,
▁출산 에
▁K E
▁K F
▁K PC
▁크 다”고
▁크 다"며
▁크 다”며
▁열 려
▁열 감지
▁허 점이
하겠 지만
▁응답 해
▁응답 자도
▁수준 ,
▁가족 은
▁가족 들은
▁25 6
▁총 수
▁커 스터
▁피 하고,
▁피 하도록
▁생각 도
▁생각 으로
▁15 시간
▁15 %에
▁투 숙
▁약 화
▁적용 한다고
▁심 심
▁심 하고
▁PC 영상회의
▁안전 망이
▁수요 일,
▁결정 된
▁결정 될
▁결정 했다”며
▁결정 통지서
▁문화 체험
▁근로자 ,
▁19 .6
▁19 .1%
▁변화 도
▁변화 하기
▁변화 해야
▁교육 용
▁교육 청은
.2 시간
▁리 본
▁리 프트
▁넘 쳐
▁이에 따라
요. ”
▁IT 기업의
▁롯데 정보통신
▁부서 ,
▁부서 도
▁부서 장은
▁부서 장의
▁격 인
▁격 주
▁격 리가
▁유지 했다.
▁유지 해왔다.
▁구성 할
▁구성 하는
▁11 3
▁11 세대
▁11 .0%
▁공공 성
▁공공 보육을
▁팀 에
▁평가 ’
▁평가 받고
(3 만
▁기능 의
▁경제 계
▁경제 에도
▁완 결
▁스마트 한
▁제외 )
▁않는 다”며
▁않는 다며
▁24 개
▁곳 인
▁곳 에서는
▁곳 에선
▁곳 이라면
▁중요 성
▁중요 하지
▁중요 성을
▁추진 해야
▁발표 한다.
제도 ’를
▁기술 인
▁향 유
▁워라밸 빌리
▁형 편이
▁개발 자로
▁개발 자들이
▁개발 자들의
▁폐쇄 는
▁민 사
▁민 병철
▁이유 였다.
▁지속 하는
▁선택 근로제를
▁담 양
▁세계 보건기구(WHO
▁전문 적으로
▁전문 성을
▁주요 한
▁인사 ,
▁인사 와
▁인사 이트
▁손 가락
▁우려 된다.
▁100 명을
▁낮 췄
▁쓰 는데
▁쓰 이고
▁쓰 기로
▁상담 할
▁상담 원은
▁13 ~17시
▁1년 도
▁1년 간의
▁복지 나
▁복지 로
▁생활 수칙
▁막 자
▁연구 인력
▁애 드
▁16 .1
▁16 곳을
▁밀 고
▁휴가 비
▁창 작
▁오피스 '를
▁오피스 빌딩
▁오피스 ’로
▁정책 ,
기술 과
기술 이
▁18 .5%,
▁예방 할
▁집중 한다.
▁집중 적인
▁중심 인
문화 예술
문화 공간,
▁참여 하게
▁눈 물
▁균형 ,
▁균형 )이
▁호 출
▁호 남취재본부
▁계속 돼
▁계속 하고
지원 금을
▁경험 의
▁동안 에도
정보 기술(IT)
▁성과 로
▁전망 ”이라고
▁전망 되고
▁전망 "이라고
▁마스크 ·
▁영향 력이
▁업체 들
▁업체 와
▁업체 들이다.
▁앞서 ,
▁걸 러
▁접속 되도록
▁강조 하면서
▁방안 과
▁방안 은
▁자율 과
▁자율 에
▁허용 되는
▁허용 해왔다.
▁공유 가
▁공유 하고,
▁임신 을
▁만족 을
▁만족 스러운
▁된 다
▁27 명을
▁영업 ,
▁영업 일
▁영업 점을
▁있을 지에
▁컨 텐츠
er t
▁산업 에서
▁권고 가
▁권고 도
▁불가 한
서비스 에
▁접촉 자가
▁자유 로워
▁방문 은
▁방문 하는
▁방문 자,
▁형태 나
▁형태 와
▁살 인
▁플랫폼 이
▁( 이
▁경영 관리
▁2월 말부터
▁제한 될
▁제한 한다.
▁투자 자들은
▁홈 케어
▁17 .8
▁17 분까지
▁14 만
▁B AT
▁B VX
▁감소 세를
▁감소 했다는
통신 망
통신 망과
▁인프라 만
▁인프라 의
▁인프라 구축
▁어려움 으로
▁검토 를
▁설치 하면
▁토 니모
▁선정 에
▁분위기 "라고
▁평균 은
▁이전 인
▁가정 ,
▁현장 근무가
▁현장 점검을
▁최소화 하기로
▁최소화 한다는
▁최소화 하려는
근로 종사
▁통신 망
▁통신 에
▁등으로 부터
▁기대 해
▁기대 하는
▁기대 되는
▁기대 된다"고
▁준비 된
or i
▁공급 했다고
▁백 년
▁국가 들은
▁국가 별로
▁N ews
▁성장 하면서
▁성장 률을
▁용 납
▁근로시간 제,
▁로 비
▁로 켓
▁음 압
▁지적 에
시스템 인
시스템 (VPN
소프트 는
▁국민 들에게
▁국민 행복
▁국민 들께
▁인터넷 망을
▁복귀 하게
▁복귀 시킬
▁네이버 웍스
▁내부 의
▁내부 에서는
▁병 가를
▁나오 며
▁자체 적인
▁인증 기업으로
▁보인 다는
▁내년 에도
▁직접 일자리
▁우선 으로
▁급증 했다고
▁건물 인
▁확보 로
▁판단 하고
oo d
▁싶 지
▁연봉 상승
▁돌봄 의
▁순환 ’
▁면 이
▁면 제,
▁상태 라
▁상태 인
▁메신저 에
▁중국 ,
▁알려 지면서
▁알려 졌습니다.
▁문서 가
▁문서 로
▁문서 와
▁설문 을
▁방지 ,
억원 )에
▁노력 도
▁단축 한
부가 가치
(C h
▁전자 문서
▁안정 성이
▁안정 적이고
▁계열사 별로
▁판매 한다.
▁부산 닷컴
▁보호 가
▁보호 하면서도
▁위험 도
▁0 .3%
▁꼽 고
▁꼽 니다.
▁300 만원의
▁/ 백
▁/ 윤
▁3개월 의
si m
si t
▁버 릴
▁연결 ,
▁연결 되어
명) 가
명) 로
▁겪 었
▁위치 ,
▁50% (월
▁50% (최대
▁의견 이다.
▁그룹 은
▁그룹 이
▁혁신 은
▁혁신 성장
▁태 그
▁태 아
▁환 매
▁없어 "
▁기본 급의
▁"재택근무 의
▁50 ~2
▁50 .5%였다.
▁엔 코
레이 시아
자리 에
▁긴급 히
▁테 라스
▁1만 4
▁기회 다.
▁됐 는데,
▁울 주군
▁분산 돼
▁분산 형
▁지금 이
▁지금 처럼
▁희망 을
▁통상 적으로
▁퇴근 길
▁퇴근 은
▁위기 의
▁3일 만
▁200 7년
▁200 만원,
▁200 만원으로
▁200 만원의
▁사이 클
▁지시 로
▁워크 ’
▁2018년 에는
▁인천 시가
▁부분 적인
▁활성화 ,
10 세
30 일
▁전사 에
▁전사 적인
▁정착 이
▁정착 시키
▁정착 시켜
▁출입 구
▁맞춰 야
▁맞춰 져
▁맞춰 진
kyung.com /
▁자동 생성
▁신규 로
▁네트워크 ,
▁네트워크 가
▁네트워크 로
▁s ay
▁s um
▁s ongh
▁T WC
▁T SMC
▁않았 기
▁않았 으면
▁길 에서
▁부족 할
▁부족 하다.
경제 과학
▁상승 률
▁상승 하고
▁상승 세가
▁몰 두
▁가입 하는
▁가입 자에
on ment
▁연기 하기로
정책 과장은
▁공격 ,
▁공격 하는
in do
▁중단 한
▁중단 하는
▁중단 하거나
달러 )
▁넘어 야
기간 도
▁착용 하고,
▁추세 적으로
▁추세 ”라며
▁뉴욕 ,
▁6월 말까지
▁군 내
▁군 부
▁먹 기
▁그렇 고
▁규정 상
▁규정 한
▁규정 으로
▁보험 설계
▁청년 층의
▁청년 문화공간,
▁대신 ,
▁CEO 들이
▁29 개국
이었 다면
▁저출산 을
▁통합 보육
▁점검 도
▁점검 하는
▁권장 할
▁권장 하고,
▁A씨 를
보고 서를
▁경쟁 을
▁파악 이
▁핵심 으로
▁분리 근무
▁언제 나
▁논의 한다.
개발 공사
▁구매 에
50 만
50 원에
▁만들어 주는
▁차지 한다.
▁상품 안내
▁서울시 장이
▁j kme
▁종합 상황
▁종합 컨설팅
▁종합 소득세
▁2만 7500
▁자택 이나
▁상반기 에는
▁근무자 에게
▁협력 하는
▁완화 될
(6 5
▁30% 의
▁소득 에
계획 구역
▁씨 .
▁고용노동부 에서
▁웹 과
▁업종 에서는
▁상황에서 ,
▁특별 계획구역
▁학교 나
▁한화 ,
▁한화 투자증권
(S aaS)
(S CMP
▁귀 여
▁근무환경 에
▁근무환경 개선
▁전문가 의
·중 견기업
▁접근 성도
▁접근 제어
(W P
(W EF
▁팬데믹 에
▁아울러 ,
▁'재택근무 를
▁'재택근무 '가
▁바로 잡
▁받았 기
▁받았 던
▁받았 으며,
▁취소 하고,
▁취소 소송
▁스마트워크 센터,
▁k w
▁k jin
▁h ee
▁반영 됐다.
▁반영 하지
▁전달 한
부문 장
·재택근무 ...
▁인원 으로
~2 4일
▁동참 할
▁입장 문을
▁눈치 보지
▁양육 권
▁라인 이
▁나서 면서
▁동료 들
▁퇴 출
하자 면
▁서버 에서
▁사진 과
▁스트레스 와
▁힘들 다고
▁힘들 었던
▁▶ 업무
▁점심 시간이
▁참석 할
▁종료 되면
▁요청 을
re en
▁트렌 드는
▁불가능 하다고
▁사무직 과
▁방송 은
▁농 림
▁둘 을
▁외국 인이
▁외국 인과
▁준수 하기
▁당시 에는
▁5일 ,
▁찾아 온
▁아마존 도
▁유럽 연합
▁36 주
▁36 0만
▁얻 게
12 6
12 개월
12 명을
12 명)
)' ,
)' 에서
▁남녀 고용평등
▁다니 면서
▁발전 에
▁발전 한
▁코로나바이러스감염증(코로나19) 으로
▁현황 에
▁질문 에도
▁가격 대비
