{"<unk>":0,"!":1,"\"":2,"#":3,"%":4,"&":5,"'":6,"(":7,")":8,"*":9,"+":10,",":11,"-":12,".":13,"/":14,"0":15,"1":16,"2":17,"3":18,"4":19,"5":20,"6":21,"7":22,"8":23,"9":24,":":25,";":26,"<":27,"=":28,">":29,"?":30,"@":31,"A":32,"B":33,"C":34,"D":35,"E":36,"F":37,"G":38,"H":39,"I":40,"J":41,"K":42,"L":43,"M":44,"N":45,"O":46,"P":47,"Q":48,"R":49,"S":50,"T":51,"U":52,"V":53,"W":54,"X":55,"Y":56,"Z":57,"[":58,"]":59,"^":60,"_":61,"`":62,"a":63,"b":64,"c":65,"d":66,"e":67,"f":68,"g":69,"h":70,"i":71,"j":72,"k":73,"l":74,"m":75,"n":76,"o":77,"p":78,"r":79,"s":80,"t":81,"u":82,"v":83,"w":84,"x":85,"y":86,"z":87,"~":88,"·":89,"ᄏ":90,"ᄒ":91,"ᅮ":92,"ᅲ":93,"ᆞ":94,"‘":95,"’":96,"“":97,"”":98,"‧":99,"↑":100,"→":101,"∼":102,"━":103,"▁":104,"■":105,"▲":106,"△":107,"▶":108,"▷":109,"◀":110,"◆":111,"◇":112,"○":113,"・":114,"中":115,"企":116,"日":117,"美":118,"가":119,"각":120,"간":121,"갈":122,"감":123,"갑":124,"값":125,"갔":126,"강":127,"갖":128,"같":129,"개":130,"객":131,"갤":132,"거":133,"걱":134,"건":135,"걷":136,"걸":137,"검":138,"겁":139,"것":140,"게":141,"겐":142,"겠":143,"겨":144,"격":145,"겪":146,"견":147,"결":148,"겸":149,"겹":150,"겼":151,"경":152,"계":153,"고":154,"곡":155,"곤":156,"곧":157,"골":158,"곳":159,"공":160,"과":161,"곽":162,"관":163,"괄":164,"광":165,"괜":166,"괴":167,"굉":168,"교":169,"구":170,"국":171,"군":172,"굳":173,"굴":174,"굿":175,"궁":176,"권":177,"귀":178,"규":179,"균":180,"그":181,"극":182,"근":183,"글":184,"금":185,"급":186,"긍":187,"기":188,"긴":189,"길":190,"김":191,"깃":192,"깊":193,"까":194,"깔":195,"깜":196,"깝":197,"깨":198,"꺼":199,"꺾":200,"께":201,"껴":202,"꼬":203,"꼭":204,"꼰":205,"꼴":206,"꼼":207,"꼽":208,"꽃":209,"꾸":210,"꾼":211,"꿀":212,"꿈":213,"꿔":214,"꿨":215,"뀌":216,"뀐":217,"끄":218,"끈":219,"끊":220,"끌":221,"끔":222,"끝":223,"끼":224,"낀":225,"낄":226,"낌":227,"나":228,"낙":229,"난":230,"날":231,"남":232,"납":233,"났":234,"낭":235,"낮":236,"낯":237,"낳":238,"내":239,"낸":240,"낼":241,"냈":242,"냉":243,"냐":244,"냥":245,"너":246,"널":247,"넓":248,"넘":249,"넣":250,"네":251,"넥":252,"넷":253,"녀":254,"녁":255,"년":256,"념":257,"녕":258,"노":259,"녹":260,"논":261,"놀":262,"농":263,"높":264,"놓":265,"놨":266,"뇌":267,"누":268,"눈":269,"눔":270,"눠":271,"뉴":272,"느":273,"는":274,"늘":275,"능":276,"늦":277,"니":278,"닉":279,"닌":280,"닐":281,"님":282,"닛":283,"닝":284,"다":285,"닥":286,"단":287,"닫":288,"달":289,"담":290,"답":291,"닷":292,"당":293,"대":294,"더":295,"덕":296,"던":297,"덜":298,"덧":299,"데":300,"덴":301,"델":302,"도":303,"독":304,"돈":305,"돌":306,"돕":307,"동":308,"돼":309,"됐":310,"되":311,"된":312,"될":313,"됨":314,"됩":315,"두":316,"둔":317,"둘":318,"둥":319,"뒀":320,"뒤":321,"뒷":322,"듀":323,"드":324,"득":325,"든":326,"듣":327,"들":328,"듬":329,"듭":330,"듯":331,"등":332,"디":333,"딜":334,"딩":335,"따":336,"딱":337,"딸":338,"때":339,"땐":340,"떠":341,"떡":342,"떤":343,"떨":344,"떻":345,"떼":346,"또":347,"똑":348,"뚜":349,"뛰":350,"뜨":351,"뜻":352,"띄":353,"띠":354,"라":355,"락":356,"란":357,"람":358,"랐":359,"랑":360,"래":361,"랙":362,"랜":363,"램":364,"랩":365,"랫":366,"략":367,"량":368,"러":369,"럭":370,"런":371,"럴":372,"럼":373,"럽":374,"렀":375,"렇":376,"레":377,"렉":378,"렌":379,"려":380,"력":381,"련":382,"렴":383,"렵":384,"렷":385,"렸":386,"령":387,"례":388,"로":389,"록":390,"론":391,"롭":392,"롯":393,"롱":394,"뢰":395,"료":396,"루":397,"룰":398,"룸":399,"룹":400,"뤄":401,"류":402,"률":403,"륭":404,"르":405,"른":406,"를":407,"름":408,"릉":409,"리":410,"릭":411,"린":412,"릴":413,"림":414,"립":415,"릿":416,"링":417,"마":418,"막":419,"만":420,"많":421,"말":422,"맘":423,"맛":424,"망":425,"맞":426,"맡":427,"매":428,"맥":429,"맨":430,"맵":431,"맹":432,"맺":433,"머":434,"먹":435,"먼":436,"멀":437,"멈":438,"메":439,"멘":440,"며":441,"면":442,"멸":443,"명":444,"몇":445,"모":446,"목":447,"몫":448,"몬":449,"몰":450,"몸":451,"못":452,"무":453,"문":454,"묻":455,"물":456,"뭐":457,"뭔":458,"뮤":459,"므":460,"미":461,"믹":462,"민":463,"믿":464,"밀":465,"밍":466,"및":467,"밑":468,"바":469,"박":470,"밖":471,"반":472,"받":473,"발":474,"밝":475,"밤":476,"밥":477,"방":478,"배":479,"백":480,"밴":481,"밸":482,"뱅":483,"버":484,"번":485,"벌":486,"범":487,"법":488,"벗":489,"베":490,"벤":491,"벨":492,"벼":493,"벽":494,"변":495,"별":496,"병":497,"보":498,"복":499,"본":500,"볼":501,"봄":502,"봇":503,"봉":504,"봐":505,"봤":506,"부":507,"북":508,"분":509,"불":510,"붙":511,"뷰":512,"브":513,"블":514,"비":515,"빅":516,"빈":517,"빌":518,"빙":519,"빚":520,"빛":521,"빠":522,"빨":523,"빼":524,"뽑":525,"뿌":526,"뿐":527,"쁘":528,"쁜":529,"사":530,"삭":531,"산":532,"살":533,"삶":534,"삼":535,"상":536,"새":537,"색":538,"샌":539,"샘":540,"생":541,"샤":542,"서":543,"석":544,"섞":545,"선":546,"설":547,"섬":548,"섭":549,"섯":550,"섰":551,"성":552,"세":553,"섹":554,"센":555,"셀":556,"셈":557,"셋":558,"셔":559,"션":560,"셜":561,"셧":562,"셨":563,"소":564,"속":565,"손":566,"솔":567,"송":568,"쇄":569,"쇼":570,"숍":571,"수":572,"숙":573,"순":574,"술":575,"숨":576,"숫":577,"쉬":578,"쉴":579,"쉽":580,"슈":581,"스":582,"슨":583,"슬":584,"습":585,"슷":586,"승":587,"시":588,"식":589,"신":590,"실":591,"싫":592,"심":593,"십":594,"싱":595,"싶":596,"싸":597,"싼":598,"쌍":599,"쌓":600,"써":601,"썼":602,"쏟":603,"쏠":604,"쓰":605,"쓴":606,"쓸":607,"씀":608,"씨":609,"씩":610,"씬":611,"아":612,"악":613,"안":614,"앉":615,"않":616,"알":617,"암":618,"압":619,"았":620,"앙":621,"앞":622,"애":623,"액":624,"앤":625,"앱":626,"앵":627,"야":628,"약":629,"양":630,"얘":631,"어":632,"억":633,"언":634,"얻":635,"얼":636,"엄":637,"업":638,"없":639,"엇":640,"었":641,"엉":642,"에":643,"엑":644,"엔":645,"엘":646,"엠":647,"여":648,"역":649,"연":650,"열":651,"염":652,"엽":653,"였":654,"영":655,"옆":656,"예":657,"오":658,"옥":659,"온":660,"올":661,"옮":662,"옵":663,"옷":664,"와":665,"완":666,"왔":667,"왕":668,"왜":669,"외":670,"요":671,"욕":672,"용":673,"우":674,"욱":675,"운":676,"울":677,"움":678,"웃":679,"웅":680,"워":681,"웍":682,"원":683,"월":684,"웠":685,"웨":686,"웰":687,"웹":688,"위":689,"윈":690,"윌":691,"윗":692,"유":693,"육":694,"윤":695,"율":696,"융":697,"으":698,"은":699,"을":700,"음":701,"응":702,"의":703,"이":704,"익":705,"인":706,"일":707,"읽":708,"잃":709,"임":710,"입":711,"잇":712,"있":713,"자":714,"작":715,"잔":716,"잖":717,"잘":718,"잠":719,"잡":720,"장":721,"잦":722,"재":723,"잭":724,"쟁":725,"저":726,"적":727,"전":728,"절":729,"젊":730,"점":731,"접":732,"정":733,"제":734,"젝":735,"젠":736,"젤":737,"져":738,"졌":739,"조":740,"족":741,"존":742,"졸":743,"좀":744,"좁":745,"종":746,"좋":747,"좌":748,"죄":749,"죠":750,"주":751,"죽":752,"준":753,"줄":754,"줌":755,"중":756,"줘":757,"줬":758,"즈":759,"즉":760,"즐":761,"즘":762,"증":763,"지":764,"직":765,"진":766,"질":767,"짐":768,"집":769,"짓":770,"징":771,"짜":772,"짝":773,"짧":774,"째":775,"쩔":776,"쪽":777,"쯤":778,"찌":779,"찍":780,"차":781,"착":782,"찬":783,"찮":784,"찰":785,"참":786,"창":787,"찾":788,"채":789,"책":790,"챗":791,"챙":792,"처":793,"척":794,"천":795,"철":796,"첨":797,"첫":798,"청":799,"체":800,"쳐":801,"쳤":802,"초":803,"촉":804,"촌":805,"총":806,"촬":807,"최":808,"추":809,"축":810,"춘":811,"출":812,"춤":813,"충":814,"춰":815,"췄":816,"취":817,"츠":818,"측":819,"층":820,"치":821,"칙":822,"친":823,"칠":824,"침":825,"칫":826,"칭":827,"카":828,"칸":829,"칼":830,"캐":831,"캘":832,"캠":833,"캡":834,"커":835,"컨":836,"컬":837,"컴":838,"컸":839,"케":840,"켓":841,"켜":842,"켰":843,"코":844,"콕":845,"콘":846,"콜":847,"콤":848,"콩":849,"쾌":850,"쿄":851,"쿠":852,"쿡":853,"쿨":854,"퀘":855,"큐":856,"크":857,"큰":858,"클":859,"큼":860,"키":861,"킨":862,"킬":863,"킴":864,"킹":865,"타":866,"탁":867,"탄":868,"탈":869,"탐":870,"탑":871,"탓":872,"탕":873,"태":874,"택":875,"탠":876,"터":877,"턱":878,"턴":879,"털":880,"텅":881,"테":882,"텍":883,"텐":884,"텔":885,"템":886,"토":887,"톡":888,"톤":889,"톱":890,"통":891,"퇴":892,"투":893,"툴":894,"튜":895,"트":896,"특":897,"튼":898,"틀":899,"틈":900,"티":901,"틱":902,"틴":903,"틸":904,"팀":905,"팅":906,"파":907,"팎":908,"판":909,"팔":910,"팡":911,"패":912,"팩":913,"팬":914,"퍼":915,"펀":916,"펄":917,"페":918,"펙":919,"펜":920,"펴":921,"편":922,"펼":923,"평":924,"폐":925,"포":926,"폭":927,"폰":928,"폴":929,"폼":930,"표":931,"푸":932,"풀":933,"품":934,"풍":935,"퓨":936,"프":937,"픈":938,"플":939,"피":940,"픽":941,"핀":942,"필":943,"핑":944,"하":945,"학":946,"한":947,"할":948,"함":949,"합":950,"항":951,"해":952,"핵":953,"했":954,"행":955,"향":956,"허":957,"헌":958,"험":959,"헤":960,"헬":961,"혀":962,"혁":963,"현":964,"혈":965,"협":966,"혔":967,"형":968,"혜":969,"호":970,"혹":971,"혼":972,"홀":973,"홈":974,"홍":975,"화":976,"확":977,"환":978,"활":979,"황":980,"회":981,"획":982,"횟":983,"효":984,"후":985,"훈":986,"훌":987,"훨":988,"휘":989,"휴":990,"흐":991,"흔":992,"흘":993,"흡":994,"흥":995,"희":996,"히":997,"힌":998,"힐":999,"힘":1000,"다.":1001,"근무":1002,"▁이":1003,"▁있":1004,"재택":1005,"재택근무":1006,"으로":1007,"▁재택근무":1008,"▁기":1009,"▁사":1010,"▁대":1011,"▁지":1012,"▁수":1013,"했다.":1014,"▁1":1015,"▁시":1016,"하는":1017,"에서":1018,"▁2":1019,"▁전":1020,"▁등":1021,"로나":1022,"코로나":1023,"▁직":1024,"하고":1025,"▁가":1026,"▁것":1027,"▁확":1028,"▁일":1029,"19":1030,"▁중":1031,"▁코로나":1032,"▁한":1033,"▁보":1034,"▁인":1035,"▁위":1036,"▁있다.":1037,"▁업":1038,"▁직원":1039,"이다.":1040,"▁제":1041,"▁정":1042,"▁자":1043,"육아":1044,"▁공":1045,"▁3":1046,"▁기업":1047,"▁경":1048,"▁상":1049,"휴직":1050,"▁‘":1051,"▁코로나19":1052,"▁육아":1053,"▁아":1054,"▁“":1055,"▁부":1056,"▁업무":1057,"▁근무":1058,"▁\"":1059,"▁방":1060,"▁다":1061,"▁비":1062,"▁최":1063,"▁재택근무를":1064,"▁주":1065,"▁'":1066,"▁관":1067,"▁조":1068,"▁하":1069,"▁나":1070,"▁출":1071,"▁원":1072,"▁고":1073,"..":1074,"▁육아휴직":1075,"▁회":1076,"▁유":1077,"▁따":1078,"00":1079,"▁서":1080,"▁연":1081,"▁신":1082,"기업":1083,"▁있는":1084,"부터":1085,"▁그":1086,"까지":1087,"▁내":1088,"▁구":1089,"▁지난":1090,"▁통":1091,"▁도":1092,"▁모":1093,"니다.":1094,"▁실":1095,"▁않":1096,"다고":1097,"▁개":1098,"이라":1099,"▁없":1100,"면서":1101,"▁해":1102,"다는":1103,"▁오":1104,"다”":1105,"▁여":1106,"▁소":1107,"다\"":1108,"▁감":1109,"적으로":1110,"▁임":1111,"▁위해":1112,"▁4":1113,"▁말":1114,"▁5":1115,"▁생":1116,"한다.":1117,"들이":1118,"▁발":1119,"▁지원":1120,"▁어":1121,"▁확산":1122,"하기":1123,"지만":1124,"도록":1125,"▁안":1126,"▁국":1127,"▁현":1128,"▁강":1129,"▁마":1130,"▁의":1131,"▁계":1132,"▁사용":1133,"▁원격":1134,"▁거":1135,"▁문":1136,"▁노":1137,"▁시행":1138,"▁분":1139,"▁20":1140,"▁예":1141,"▁만":1142,"▁때":1143,"▁미":1144,"▁많":1145,"▁장":1146,"자는":1147,"▁필":1148,"시간":1149,"▁회사":1150,"▁근":1151,"▁동":1152,"▁받":1153,"co":1154,"▁집":1155,"▁밝":1156,"▁늘":1157,"▁선":1158,"▁것으로":1159,"▁영":1160,"▁바":1161,"▁적":1162,"비스":1163,"▁결":1164,"▁높":1165,"적인":1166,".co":1167,"▁활":1168,"▁밝혔":1169,"▁및":1170,"▁더":1171,"▁추":1172,"▁확진":1173,"▁했다.":1174,"%)":1175,"▁6":1176,"▁우":1177,"▁설":1178,"환경":1179,"▁또":1180,"습니다.":1181,"▁불":1182,"▁사무":1183,"▁경우":1184,"에게":1185,"▁감염":1186,"▁밝혔다.":1187,"▁대상":1188,"▁도입":1189,"▁스":1190,"자가":1191,"▁가능":1192,"▁남":1193,"센터":1194,"▁특":1195,"▁말했다.":1196,"들의":1197,"▁차":1198,"▁증":1199,"...":1200,"▁단":1201,"이라고":1202,"하게":1203,"▁근로":1204,"코로나19":1205,"다”고":1206,"▁운":1207,"▁매":1208,"▁따라":1209,"▁대한":1210,"들은":1211,"직원":1212,"▁성":1213,"▁8":1214,"▁기자":1215,"▁같":1216,"고,":1217,"▁S":1218,"▁사업":1219,"▁금":1220,"▁진":1221,"▁본":1222,"▁시간":1223,"에도":1224,"러스":1225,"▁통해":1226,"▁교":1227,"에는":1228,"▁이상":1229,"▁올":1230,"다\"고":1231,"▁필요":1232,"었다.":1233,"▁위한":1234,"▁하는":1235,"▁세":1236,"▁직장":1237,"▁서비스":1238,"▁사무실":1239,"▁반":1240,"▁재":1241,"▁출근":1242,"▁7":1243,"된다.":1244,"▁확대":1245,"▁상황":1246,"▁할":1247,"▁정부":1248,"▁복":1249,"▁등을":1250,"0%":1251,"스템":1252,"▁운영":1253,"▁달":1254,"▁외":1255,"▁환경":1256,"▁돌":1257,"▁무":1258,"르면":1259,"회의":1260,"▁판":1261,"라인":1262,"▁급":1263,"▁따르면":1264,"▁건":1265,"▁서울":1266,"▁원격근무":1267,"▁평":1268,"일부터":1269,"▁이후":1270,"▁접":1271,"▁화":1272,".com":1273,"▁사회":1274,"▁보안":1275,"퇴근":1276,"▁활용":1277,"▁증가":1278,"▁실시":1279,"▁포":1280,"▁제공":1281,"▁관계":1282,"보다":1283,"▁10":1284,"▁9":1285,"▁점":1286,"루션":1287,"솔루션":1288,"됐다.":1289,"이러스":1290,"▁효":1291,"▁체":1292,"▁변":1293,"▁들":1294,"▁좋":1295,"▁때문":1296,"▁관련":1297,"▁SK":1298,"▁고용":1299,"▁김":1300,"되는":1301,"▁대해":1302,"해야":1303,"하지":1304,"▁대상으로":1305,"▁데":1306,"▁줄":1307,"▁있도록":1308,"▁지난해":1309,"▁중소":1310,"▁이용":1311,"▁같은":1312,"▁저":1313,"▁휴":1314,"▁앞":1315,"았다.":1316,"▁협":1317,"▁제도":1318,"▁사람":1319,"▁후":1320,"▁발생":1321,"▁육아휴직을":1322,"▁지역":1323,"▁간":1324,"▁솔루션":1325,"▁최근":1326,"▁임직원":1327,"▁취":1328,"▁맞":1329,"▁거리":1330,"▁프":1331,"▁시스템":1332,"▁각":1333,"▁L":1334,"제를":1335,"▁남성":1336,"▁워":1337,"▁계획":1338,"하고,":1339,"▁한국":1340,"▁알":1341,"장은":1342,"▁종":1343,"ng":1344,"일까지":1345,"▁당":1346,"▁국내":1347,"▁이어":1348,"▁입":1349,"대면":1350,"이나":1351,"▁진행":1352,"▁온":1353,"▁초":1354,"20":1355,"▁재택근무가":1356,"▁관계자는":1357,"하면":1358,"▁최대":1359,"만원":1360,"▁기간":1361,"▁함":1362,"▁배":1363,"두기":1364,"▁조치":1365,"▁A":1366,"바이러스":1367,"▁사태":1368,"▁신종":1369,"▁관리":1370,"무원":1371,"자의":1372,"▁검":1373,"▁처":1374,"▁유연":1375,"▁I":1376,"▁결과":1377,"▁늘어":1378,"증(":1379,"▁방식":1380,"▁신청":1381,"▁△":1382,"성을":1383,"▁방역":1384,"▁권":1385,"▁대응":1386,"콜센터":1387,"▁편":1388,"▁가장":1389,"▁삼":1390,"▁코로나바이러스":1391,"▁명":1392,"▁자녀":1393,"▁행":1394,"코로나19)":1395,"정을":1396,"▁들어":1397,"▁직장인":1398,"▁함께":1399,"▁규":1400,"▁재택":1401,"▁역":1402,"라밸":1403,"▁금융":1404,"▁카":1405,"▁클":1406,"▁이번":1407,"개월":1408,"거나":1409,"▁과":1410,"증(코로나19)":1411,"▁한다.":1412,"▁못":1413,"▁되":1414,"▁생산":1415,"▁요":1416,"000":1417,"스크":1418,"▁아니":1419,"라우":1420,"▁대비":1421,"▁것이다.":1422,"▁올해":1423,"▁미국":1424,"▁설명":1425,"▁노동":1426,"▁201":1427,"▁산":1428,"▁전환":1429,"▁게":1430,"▁아이":1431,"은행":1432,"▁전체":1433,"▁LG":1434,"▁나타":1435,"▁회의":1436,".5":1437,"▁시작":1438,"▁두":1439,"다\"며":1440,"라고":1441,"다”며":1442,"화를":1443,"▁어려":1444,"▁응":1445,"피스":1446,"▁지급":1447,"▁P":1448,"▁물":1449,"▁재택근무에":1450,"사를":1451,"▁양":1452,"▁중소기업":1453,"▁콜센터":1454,"▁다양":1455,"▁절":1456,"▁했":1457,"▁있어":1458,"라우드":1459,"상회의":1460,"▁거리두기":1461,"며,":1462,"▁대기업":1463,"▁예정":1464,".k":1465,"▁새":1466,"▁참":1467,"에서는":1468,"▁개인":1469,"▁일부":1470,"▁여성":1471,".kr":1472,"▁것이":1473,"▁정보":1474,"마트":1475,"▁직원들":1476,"▁네":1477,"하면서":1478,"▁온라인":1479,"▁이날":1480,"▁모두":1481,"▁사회적":1482,"▁프로":1483,"하다.":1484,"운데":1485,"▁대표":1486,"▁효율":1487,"▁비대면":1488,"▁메":1489,"지를":1490,"▁순":1491,"▁고객":1492,"였다.":1493,"▁청":1494,"▁많은":1495,"▁가운데":1496,"▁디":1497,"▁연장":1498,"▁강화":1499,"▁공무원":1500,"▁현재":1501,"▁파":1502,"▁하고":1503,"▁조사":1504,"▁구축":1505,"이스":1506,".co.kr":1507,"▁삼성":1508,"▁작":1509,"기관":1510,"하기로":1511,"리는":1512,"▁월":1513,"에서도":1514,"노동":1515,"▁다른":1516,"▁답":1517,"▁출산":1518,"▁K":1519,"▁크":1520,"▁열":1521,"▁기준":1522,"▁허":1523,"워크":1524,"▁감염증(코로나19)":1525,"▁채":1526,"하겠":1527,"▁12":1528,"대로":1529,"지만,":1530,"성이":1531,"는데":1532,"프트":1533,"▁준":1534,"▁응답":1535,"▁트":1536,"▁수준":1537,"▁가족":1538,"▁특히":1539,"▁25":1540,"▁법":1541,"▁총":1542,"▁커":1543,"력을":1544,"▁공간":1545,"났다.":1546,"▁피":1547,"▁클라우드":1548,"관리":1549,"원은":1550,"▁업무를":1551,"▁생각":1552,"▁30":1553,"▁15":1554,"▁다양한":1555,"▁C":1556,"▁출퇴근":1557,"(1":1558,"▁폐":1559,"씨는":1560,"▁투":1561,"명이":1562,"▁약":1563,"▁따른":1564,"%),":1565,"하도록":1566,"로운":1567,"그룹":1568,"▁문제":1569,"▁잘":1570,"▁적용":1571,"▁일하는":1572,"▁심":1573,"▁등의":1574,"▁PC":1575,"롯데":1576,"▁마련":1577,"▁안전":1578,"지는":1579,"”이라고":1580,"▁본사":1581,"▁사내":1582,"스트":1583,"▁모든":1584,"한다고":1585,"▁필수":1586,"▁수요":1587,"사회":1588,"▁결정":1589,"▁확진자가":1590,"▁추가":1591,"▁급여":1592,"▁뒤":1593,"텔레":1594,"▁협업":1595,"▁큰":1596,"▁때문에":1597,"기도":1598,"▁문화":1599,"하며":1600,"▁근로자":1601,"▁학":1602,"이버":1603,"▁화상회의":1604,"ne":1605,"졌다.":1606,"▁19":1607,"기자":1608,"▁변화":1609,"▁박":1610,"▁없는":1611,"▁교육":1612,"▁설명했다.":1613,".2":1614,"▁리":1615,"사업":1616,"생활":1617,"▁넘":1618,"▁플":1619,"▁목":1620,"▁보고":1621,"라는":1622,"지고":1623,"되고":1624,"▁이에":1625,"요.":1626,"▁IT":1627,"▁롯데":1628,"▁부서":1629,"▁식":1630,"▁해당":1631,"▁격":1632,"▁속":1633,"▁유지":1634,"단계":1635,"▁구성":1636,"▁기존":1637,".8":1638,"이터":1639,"▁최소":1640,"▁11":1641,"제로":1642,"▁공공":1643,"▁팀":1644,"▁평가":1645,"(3":1646,"▁기능":1647,"▁경제":1648,"▁완":1649,"▁수도":1650,"▁지난달":1651,"균형":1652,"▁일본":1653,"부는":1654,"입니다.":1655,"▁갖":1656,"▁시장":1657,"▁하지만":1658,"▁적극":1659,"▁필요한":1660,".9":1661,"an":1662,"▁확인":1663,"회사":1664,"▁직원이":1665,"▁스마트":1666,"▁제외":1667,"▁않는":1668,"▁장기":1669,"원을":1670,"▁24":1671,"▁곳":1672,"지털":1673,"▁오는":1674,"▁중요":1675,"▁추진":1676,"▁발표":1677,"▁나타났다.":1678,"제도":1679,"▁기술":1680,"텔레콤":1681,"▁향":1682,"▁것을":1683,"▁워라밸":1684,"▁형":1685,"들을":1686,"▁개발":1687,"▁폐쇄":1688,"▁민":1689,"(2":1690,".1":1691,"▁직원들의":1692,"▁비율":1693,"▁부모":1694,"▁이유":1695,"▁개선":1696,"▁포함":1697,".4":1698,"▁확진자":1699,"▁다시":1700,"▁지속":1701,"▁선택":1702,"▁방침":1703,"기를":1704,"▁등이":1705,"▁휴직":1706,"서는":1707,"▁사업장":1708,"%로":1709,"\"이라고":1710,"▁담":1711,"▁세계":1712,"▁될":1713,"그램":1714,"▁전문":1715,"▁있다는":1716,"▁주요":1717,"▁이를":1718,"▁것은":1719,"▁기업의":1720,"▁SK텔레콤":1721,"▁언":1722,"별로":1723,"▁인사":1724,"카오":1725,"▁손":1726,"▁우려":1727,"보험":1728,"▁아니라":1729,".6":1730,"▁기반":1731,"이라는":1732,"웨어":1733,"▁100":1734,"▁낮":1735,"▁내용":1736,"▁쓰":1737,"▁상담":1738,"이고":1739,"),":1740,".3":1741,"다면":1742,"▁부담":1743,"▁유연근무":1744,"▁KT":1745,"▁직원들이":1746,"▁뉴":1747,"▁13":1748,"▁1년":1749,".7":1750,"▁복지":1751,"▁합":1752,"이는":1753,"왔다.":1754,"▁계획이다.":1755,"휴가":1756,"▁착":1757,"▁있다고":1758,"▁집에서":1759,"ws":1760,"▁생활":1761,"▁막":1762,"▁충":1763,"▁외부":1764,"▁측":1765,"사는":1766,"프라":1767,"▁글":1768,"했다고":1769,"▁조직":1770,"▁연구":1771,"▁애":1772,"▁높은":1773,"▁16":1774,"▁업계":1775,"기로":1776,"▁밀":1777,"▁휴가":1778,"▁고려":1779,"▁창":1780,"▁오피스":1781,"▁사용할":1782,"▁정책":1783,"▁번":1784,"명을":1785,"▁질":1786,"원이":1787,"news":1788,"기술":1789,"▁많이":1790,"▁삶":1791,"▁다음":1792,"▁있으":1793,"▁18":1794,"▁대구":1795,"▁예방":1796,"▁힘":1797,"▁빠":1798,"업계":1799,"▁집중":1800,"▁느":1801,"▁매출":1802,"▁중심":1803,"▁기업이":1804,"▁하나":1805,"%,":1806,"문화":1807,"▁없이":1808,"▁만들":1809,"(4":1810,"랫폼":1811,"▁참여":1812,"▁눈":1813,"▁균형":1814,"▁호":1815,"자를":1816,"▁계속":1817,"▁카카오":1818,"업무":1819,"장을":1820,"지원":1821,"▁중인":1822,"이라며":1823,"▁경험":1824,"▁근무를":1825,"▁동안":1826,"▁건강":1827,"▁디지털":1828,"▁중이다.":1829,"▁하루":1830,"▁있습니다.":1831,"▁인터":1832,"▁삼성전":1833,"정보":1834,"▁성과":1835,"▁된다.":1836,"▁전망":1837,"▁제품":1838,"▁프로그램":1839,")는":1840,"위기":1841,"▁마스크":1842,"▁규모":1843,"들도":1844,"▁시대":1845,"이션":1846,"@a":1847,"’를":1848,"▁정도":1849,"▁새로운":1850,"▁이런":1851,"▁않고":1852,"▁또한":1853,"해서":1854,"혁신":1855,"▁영향":1856,"%가":1857,"▁업체":1858,"▁앞서":1859,"▁걸":1860,"▁현대":1861,"▁접속":1862,"▁강조":1863,"들에게":1864,"시에":1865,"▁최고":1866,"▁3월":1867,"▁판정을":1868,"▁첫":1869,"▁타":1870,"페이스":1871,"▁방안":1872,"▁한편":1873,"▁자율":1874,"▁구글":1875,"▁그러":1876,"▁가능한":1877,"▁허용":1878,"▁책":1879,"▁분석":1880,"처럼":1881,"▁근무하는":1882,"출산":1883,"트북":1884,"▁또는":1885,"감염":1886,"▁공유":1887,"▁비용":1888,"▁임신":1889,"▁만족":1890,"▁광":1891,"▁된":1892,"▁비상":1893,"▁27":1894,"▁않은":1895,"news.com":1896,"▁영업":1897,"▁처음":1898,"▁전국":1899,"▁우리":1900,"▁코로나19로":1901,"▁만큼":1902,"▁예정이다.":1903,"▁에":1904,"▁데이터":1905,"'를":1906,"▁등에":1907,"▁환경을":1908,"▁있을":1909,"육아휴직":1910,"▁컨":1911,"명으로":1912,"▁지침":1913,"원격":1914,"▁긴":1915,"▁E":1916,"▁인력":1917,"er":1918,"▁산업":1919,"▁절반":1920,"’을":1921,"▁권고":1922,"▁고용노동":1923,"리고":1924,"▁누":1925,"부분":1926,"▁불가":1927,"▁좋은":1928,"서비스":1929,"▁23":1930,"▁접촉":1931,"▁오전":1932,"기에":1933,"▁자유":1934,"장이":1935,"▁방문":1936,"▁형태":1937,"@h":1938,"▁재택근무로":1939,"▁노트북":1940,"▁살":1941,"▁때문이다.":1942,"se":1943,"▁별":1944,"▁플랫폼":1945,"▁직원의":1946,"교육":1947,"원의":1948,"▁논":1949,"▁정상":1950,"▁(":1951,"▁경영":1952,"▁높아":1953,"▁기업들이":1954,"▁찾":1955,"▁2월":1956,"주는":1957,"로벌":1958,"라도":1959,"▁제한":1960,"▁투자":1961,"▁잡":1962,"리를":1963,"▁다만":1964,"▁서비스를":1965,"▁홈":1966,"사가":1967,"▁시간을":1968,"▁육아휴직자":1969,"라이":1970,"업체":1971,"▁17":1972,"▁이미":1973,"▁14":1974,"▁그는":1975,"▁전년":1976,"▁역시":1977,"▁직원은":1978,"▁인해":1979,"▁B":1980,"주일":1981,"▁대부분":1982,"▁일을":1983,"▁감소":1984,"통신":1985,"▁인프라":1986,"▁금지":1987,"▁어려움":1988,"▁검토":1989,"▁설치":1990,"yu":1991,"▁이하":1992,"▁크게":1993,"▁토":1994,"▁돌입":1995,"▁인한":1996,"▁선정":1997,"▁분위기":1998,"▁효과":1999,"▁홍":2000,"한다는":2001,"▁26":2002,"▁평균":2003,"▁이전":2004,"조사":2005,"▁가정":2006,"▁물론":2007,"▁기록":2008,"▁현장":2009,"▁의무":2010,"▁최소화":2011,"근로":2012,"▁사례":2013,"▁통신":2014,"▁승":2015,"했습니다.":2016,"'을":2017,"▁일과":2018,"금을":2019,"되면서":2020,"▁등으로":2021,"al":2022,"▁기업은":2023,"▁수도권":2024,"바일":2025,"▁기대":2026,"▁준비":2027,"▁쉽":2028,"시설":2029,"▁늘어나":2030,"or":2031,"▁아닌":2032,"▁재택근무는":2033,"▁공급":2034,"▁백":2035,"▁소통":2036,"하거나":2037,"▁국가":2038,"▁N":2039,"음.":2040,"▁성장":2041,"▁용":2042,"이트":2043,"19년":2044,"도가":2045,"▁계열":2046,"▁근로시간":2047,"▁사실":2048,"▁글로벌":2049,"▁것”이라고":2050,"▁정부는":2051,"▁이달":2052,"▁로":2053,"▁이동":2054,"▁음":2055,"▁28":2056,"▁지적":2057,"시스템":2058,"▁극":2059,"신저":2060,"▁공공기관":2061,"▁드":2062,"▁아빠":2063,"▁소프트":2064,"%에":2065,"소프트":2066,"지역":2067,"▁떨":2068,"▁국민":2069,"▁제도를":2070,"▁인터넷":2071,"기가":2072,"▁있다”고":2073,"▁복귀":2074,"▁있게":2075,"▁있다\"고":2076,"▁오후":2077,"▁네이버":2078,"▁전했다.":2079,"EO":2080,"다’":2081,"이었다.":2082,"학교":2083,"▁내부":2084,"페이스북":2085,"위원":2086,"▁병":2087,"▁나오":2088,"▁202":2089,"으면":2090,"▁장기화":2091,"워라밸":2092,"▁자체":2093,"▁인증":2094,"(5":2095,")를":2096,"▁떨어":2097,"스코":2098,"이지":2099,"▁보인":2100,"▁키":2101,"리가":2102,"▁내년":2103,"▁직접":2104,"▁우선":2105,"▁급증":2106,"▁건물":2107,"상을":2108,"▁일반":2109,"▁직원을":2110,"에선":2111,"▁받은":2112,"▁확보":2113,"수는":2114,"▁판단":2115,"oo":2116,"▁대면":2117,"▁나온":2118,"▁분야":2119,"급여":2120,"▁쓸":2121,"▁엄":2122,"산업":2123,"성과":2124,"점을":2125,"▁예상":2126,"▁돌아":2127,"kyu":2128,"▁싶":2129,"▁페이스북":2130,"경영":2131,"본부":2132,"▁연봉":2133,")을":2134,"컴퓨":2135,"했던":2136,"▁더욱":2137,"▁코로나19가":2138,"▁돌봄":2139,"▁대체":2140,"가는":2141,"▁순환":2142,"▁면":2143,"▁상태":2144,"▁메신저":2145,"▁중국":2146,"▁연차":2147,"▁끝":2148,"복지":2149,"▁알려":2150,"▁치":2151,"▁문서":2152,"▁활동":2153,"▁설문":2154,"▁해결":2155,"▁독":2156,"▁방지":2157,"▁단계":2158,"▁코":2159,"들과":2160,"8년":2161,"도를":2162,"억원":2163,"▁노력":2164,"▁단축":2165,"▁반면":2166,"부가":2167,"▁이는":2168,"▁재택근무의":2169,"(C":2170,"▁출시":2171,"▁받을":2172,"▁활성":2173,"▁시스템을":2174,"스는":2175,"연구":2176,"플러스":2177,"▁시간이":2178,"@se":2179,"상이":2180,"▁앞으로":2181,"▁장소":2182,"kyung":2183,"고용":2184,"▁전자":2185,"▁안정":2186,"▁직원들은":2187,"▁계열사":2188,"▁판매":2189,"트워크":2190,"▁V":2191,"밖에":2192,"▁부산":2193,"리아":2194,"▁개정":2195,"▁희":2196,"▁보호":2197,"▁위험":2198,"▁방침이다.":2199,"▁장려":2200,"▁정부가":2201,"산부":2202,"▁삶의":2203,"▁너":2204,"▁비중":2205,"▁0":2206,"▁꼽":2207,"▁야":2208,"▁자리":2209,"▁22":2210,"PN":2211,"반기":2212,"전히":2213,"▁300":2214,"▁/":2215,"▁브":2216,"▁3개월":2217,"임금":2218,"▁중심으로":2219,"si":2220,"오피스":2221,"확산":2222,"▁보면":2223,"▁버":2224,"없이":2225,"▁업무에":2226,"▁연결":2227,"명)":2228,"▁관심":2229,"%는":2230,"▁겪":2231,"▁위치":2232,"▁해외":2233,"▁50%":2234,"▁▲":2235,"▁확산을":2236,"▁의견":2237,"▁그룹":2238,"시는":2239,"▁대책":2240,"▁중앙":2241,"▁조성":2242,"컴퓨터":2243,"▁혁신":2244,"르게":2245,"쇼핑":2246,"공간":2247,"▁21":2248,"▁3년":2249,"▁우수":2250,"▁직원들에게":2251,"▁것\"이라고":2252,"ae":2253,"▁비롯":2254,"▁채용":2255,"(I":2256,"▁고민":2257,"▁확산에":2258,"▁각각":2259,"▁G":2260,"▁받아":2261,"▁줄어":2262,"으며":2263,"▁수행":2264,"▁보도":2265,"원격근무":2266,"▁태":2267,"▁혼":2268,"▁환":2269,"▁없어":2270,"▁여러":2271,")가":2272,"▁기본":2273,"▁비해":2274,"▁가능하다.":2275,"▁자신":2276,"▁“코로나19":2277,"▁행정":2278,"▁받았다.":2279,"돌봄":2280,"▁2019년":2281,"▁답했다.":2282,"▁강조했다.":2283,"▁있었":2284,"▁\"재택근무":2285,"▁선제":2286,"렸다.":2287,"위터":2288,"하려":2289,"▁여부":2290,"▁50":2291,"▁증가했다.":2292,"▁M":2293,"▁엔":2294,"포트":2295,"▁사옥":2296,"▁것도":2297,"▁인식":2298,"레이":2299,"자리":2300,"▁해야":2301,"▁집단":2302,"▁긴급":2303,"더라도":2304,"▁처리":2305,"▁━":2306,"기는":2307,"▁부문":2308,"▁바이러스":2309,"▁원격근무를":2310,"▁비교":2311,"▁도움":2312,"드는":2313,"▁2주":2314,"▁임금":2315,"▁테":2316,"▁“재택근무":2317,"분기":2318,"▁어렵":2319,"▁어려운":2320,"@han":2321,"▁나눠":2322,"▁실제":2323,"▁소프트웨어":2324,"ang":2325,"일(":2326,"▁1만":2327,"ju":2328,"이익":2329,"인트":2330,"합니다.":2331,"▁기회":2332,"▁자녀를":2333,"▁너무":2334,"▁됐":2335,"▁울":2336,"이가":2337,"▁분산":2338,"▁조치를":2339,"5년":2340,"▁임산부":2341,"▁상황이":2342,"▁들어갔":2343,"▁피해":2344,"명의":2345,"▁지금":2346,"▁희망":2347,"▁D":2348,"▁악":2349,"▁통상":2350,"▁표":2351,"되지":2352,"▁시차":2353,"▁경기도":2354,"SG":2355,"▁철":2356,"▁재택근무와":2357,"▁대표는":2358,"▁격상":2359,"▁제외한":2360,"▁볼":2361,"▁퇴근":2362,"▁이뤄":2363,"▁어린":2364,"▁확산으로":2365,"▁둔":2366,"케이션":2367,"▁-":2368,"롭게":2369,"▁위기":2370,"▁트위터":2371,"▁3일":2372,"으며,":2373,"▁제조":2374,"▁활용해":2375,"금융":2376,"▁200":2377,".0":2378,"▁민간":2379,"▁그러나":2380,"▁머":2381,"▁날":2382,"▁사이":2383,"▁방법":2384,"▁모바일":2385,"▁스트":2386,"▁상황에":2387,"하여":2388,"▁지시":2389,"▁미만":2390,"▁워크":2391,"▁지원하는":2392,"▁늘고":2393,"▁2018년":2394,"▁일할":2395,"▁한다는":2396,"▁인천":2397,"▁부분":2398,"▁조정":2399,"동안":2400,"▁자가":2401,"▁최초":2402,"▁늘었다.":2403,"▁유연근무제":2404,"▁활성화":2405,"10":2406,"계를":2407,"자,":2408,"▁국회":2409,"▁않아":2410,"30":2411,"치를":2412,"▁전사":2413,"▁일상":2414,"▁정착":2415,"▁아직":2416,"▁애플":2417,"▁패":2418,"수당":2419,"시장":2420,"월부터":2421,"▁구성원":2422,"공사":2423,"유플러스":2424,"▁되는":2425,"원에서":2426,"▁상시":2427,"▁출입":2428,"▁재확산":2429,"▁맞춰":2430,"kyung.com":2431,"▁자동":2432,"▁신규":2433,"분의":2434,"▁늘어난":2435,"대책":2436,"▁전면":2437,"--":2438,"▁공동":2439,"▁노동자":2440,"▁별도":2441,"▁없다.":2442,"▁거주":2443,"▁네트워크":2444,"▁s":2445,"▁소속":2446,"▁사태로":2447,"료를":2448,"지면서":2449,"▁자제":2450,"▁T":2451,"식을":2452,"▁전화":2453,"▁않았":2454,"▁컴퓨터":2455,"데,":2456,"출퇴근":2457,"▁솔루션을":2458,"위원회":2459,"@hankyung.com":2460,"▁길":2461,"관은":2462,"시키":2463,"▁부족":2464,"▁LG유플러스":2465,"▁막기":2466,"택트":2467,"▁\"코로나19":2468,"▁모습":2469,"▁어디":2470,"▁많아":2471,"▁망":2472,"▁은행":2473,"경제":2474,"니스":2475,"도시":2476,"▁상승":2477,"▁잠":2478,"일을":2479,"▁통한":2480,"▁소비":2481,")에":2482,"▁몰":2483,"▁기능을":2484,"\"이라며":2485,"et":2486,"사의":2487,"▁LG전":2488,"▁갈":2489,"했고,":2490,"활동":2491,"▁현실":2492,"가지":2493,"니다":2494,"수가":2495,"▁가입":2496,"’에":2497,"▁덧":2498,"▁폭":2499,"▁인구":2500,"on":2501,"등학교":2502,"▁등은":2503,"▁일정":2504,"▁연기":2505,"마다":2506,"▁1회":2507,"▁동시에":2508,"정책":2509,"친화":2510,"▁시범":2511,"▁공격":2512,"▁근무시간":2513,"▁덧붙":2514,"▁일·":2515,"▁무료":2516,"▁향후":2517,"@asi":2518,"ae.co.kr":2519,"@asiae.co.kr":2520,"명은":2521,"in":2522,"▁중단":2523,"▁보장":2524,"▁취업":2525,"▁수요가":2526,"감을":2527,"▁필요하":2528,"으나":2529,"이크":2530,"▁지원한다.":2531,"▁즉":2532,"설팅":2533,"달러":2534,"▁원하는":2535,"▁넘어":2536,"기간":2537,"▁방지를":2538,"▁사용자":2539,"▁스타":2540,"▁착용":2541,"▁빠르게":2542,"ou":2543,"▁기업들은":2544,"▁회사가":2545,")이":2546,"▁경력":2547,"▁특성":2548,"▁생산성":2549,"▁이유로":2550,"▁측은":2551,"레스":2552,"▁추세":2553,"▁뉴욕":2554,"규모":2555,"▁2일":2556,"세대":2557,"▁작업":2558,"▁책임":2559,"▁ESG":2560,"▁벌":2561,"떻게":2562,"▁앱":2563,"▁가상":2564,"▁일주일":2565,"▁6월":2566,"▁상황을":2567,"▁군":2568,"▁먹":2569,"▁그렇":2570,"타워":2571,"▁얼":2572,"다가":2573,"다”면서":2574,"▁규정":2575,"T)":2576,"▁먼":2577,"명,":2578,"비대면":2579,"▁일이":2580,"▁보험":2581,"▁청년":2582,"▁목표":2583,"▁핵":2584,"▁대신":2585,"▁CEO":2586,"긍정":2587,"▁29":2588,"▁미래":2589,"▁받는":2590,"▁사태가":2591,"데믹":2592,"수를":2593,"▁기업에":2594,"▁40":2595,"▁영상":2596,"▁요구":2597,"▁향상":2598,"▁덧붙였다.":2599,"이었":2600,"▁주목":2601,"▁저출산":2602,"▁삼성전자":2603,"▁범":2604,"▁차단":2605,"▁차질":2606,"이를":2607,"▁통합":2608,"▁장점":2609,")의":2610,"▁도시":2611,"▁시행하고":2612,"▁점검":2613,"▁권장":2614,"보는":2615,"부모":2616,"▁하면":2617,"▁담당":2618,"라며":2619,"서포트":2620,"우처":2621,"▁있지만":2622,"▁A씨":2623,"@aju":2624,"▁보인다.":2625,"@ajunews.com":2626,"▁됐다.":2627,"니터":2628,"보고":2629,"화된":2630,"▁경쟁":2631,"▁상당":2632,"▁의미":2633,"▁파악":2634,"▁핵심":2635,"▁긍정":2636,"비를":2637,"▁하지":2638,"▁어떻게":2639,"▁팬":2640,"▁항":2641,"뮤니":2642,"보안":2643,"'는":2644,"당국":2645,"벤처":2646,"▁있다\"며":2647,"▁사이버":2648,"▁가구":2649,"▁불과":2650,"le":2651,"▁분리":2652,"시간)":2653,"▁울산":2654,"▁꾸":2655,"▁블":2656,"가족":2657,"▁24일":2658,"▁SK텔레콤은":2659,"하던":2660,"▁이와":2661,"▁31":2662,"▁제공한다.":2663,"▁방식으로":2664,"▁언제":2665,"▁논의":2666,"▁콘":2667,"개발":2668,"평등":2669,"▁구매":2670,"▁회사는":2671,"▁영향을":2672,"50":2673,"인이":2674,"▁상대":2675,"▁제공하는":2676,"20년":2677,")’":2678,"▁부여":2679,"▁게임":2680,"▁만들어":2681,"이기":2682,"이집":2683,"▁보다":2684,"▁육아휴직급여":2685,"▁차지":2686,"▁회사에":2687,"▁고용보험":2688,"▁상품":2689,"▁동일":2690,"▁근로자의":2691,"▁서울시":2692,"▁방안을":2693,"▁있다”며":2694,"▁것이라고":2695,"▁불편":2696,"”이라며":2697,"▁j":2698,"▁인력을":2699,"▁종합":2700,"상공":2701,"지가":2702,"▁2만":2703,"▁자택":2704,"▁많았다.":2705,"▁등도":2706,"▁상반기":2707,"▁근무자":2708,"▁협력":2709,"명에":2710,"▁있었다.":2711,"▁바우처":2712,"▁완화":2713,"(6":2714,"▁30%":2715,"사회적":2716,"▁친":2717,"세가":2718,"원에":2719,"현지":2720,"▁있기":2721,"▁소득":2722,"▁4월":2723,"▁받고":2724,"▁본격":2725,"▁9월":2726,"▁25일":2727,"계획":2728,"되면":2729,"▁보내":2730,"▁나왔다.":2731,"▁여전히":2732,"▁알서포트":2733,"▁아이를":2734,"@d":2735,"▁떠":2736,"▁잇":2737,"▁재택근무제":2738,"▁의원은":2739,"▁씨":2740,"사무":2741,"인력":2742,"일과":2743,"▁\"이":2744,"▁그런":2745,"뿐만":2746,"▁경우가":2747,"▁달라":2748,"▁포스코":2749,"▁통상임금":2750,"▁1월":2751,"▁않을":2752,"▁컨설팅":2753,"7년":2754,"▁고용노동부":2755,"▁웹":2756,"▁업종":2757,"▁불안":2758,"▁정부의":2759,"▁발표했다.":2760,"▁어려움을":2761,"일(현지":2762,"견기업":2763,"즈니스":2764,"포인트":2765,"▁상황에서":2766,"▁체제로":2767,"계가":2768,"▁개학":2769,"▁특별":2770,"▁A씨는":2771,")은":2772,"▁학교":2773,"ork":2774,"웍스":2775,"▁한화":2776,"▁출장":2777,"'에":2778,"(S":2779,"섰다.":2780,"협회":2781,"▁5월":2782,"▁지원을":2783,"▁안내":2784,"▁귀":2785,"▁않도록":2786,"▁중요한":2787,"▁나온다.":2788,"량이":2789,"▁발생한":2790,"▁기간을":2791,"▁직원들을":2792,"▁NH":2793,"▁근무환경":2794,"▁모니터":2795,"▁실적":2796,"▁심각":2797,"▁전문가":2798,"▁극복":2799,"▁아울":2800,"▁업무가":2801,"▁비율은":2802,"다\"면서":2803,"▁각종":2804,"는데,":2805,"▁커뮤니":2806,"▁고려해":2807,"ong":2808,"·중":2809,"력이":2810,"유행":2811,"▁접근":2812,"(W":2813,"도로":2814,"▁여파":2815,"▁어떤":2816,"▁사용하는":2817,"▁매우":2818,"▁문제가":2819,"▁급여를":2820,"da":2821,"선을":2822,"정부":2823,"진다.":2824,"▁인정":2825,"▁사람이":2826,"▁취약":2827,"▁팬데믹":2828,"39":2829,"버그":2830,"▁지방":2831,"▁‘재택근무":2832,"▁알려졌다.":2833,"▁아울러":2834,"ye":2835,"이드":2836,"▁'재택근무":2837,"▁바로":2838,"▁도입한":2839,"제가":2840,"▁인원을":2841,"▁마음":2842,"▁집계":2843,"▁매일":2844,"▁지침을":2845,"▁돈":2846,"트업":2847,"▁이같":2848,"▁1일":2849,"▁받았":2850,"▁화상":2851,"▁취소":2852,"▁불가피":2853,"▁백신":2854,"▁스마트워크":2855,"세를":2856,"▁실천":2857,"▁가능하":2858,"▁방식을":2859,"▁k":2860,"혜택":2861,"▁제대로":2862,"▁공간을":2863,"▁밀집":2864,"%를":2865,"il":2866,"▁h":2867,"인의":2868,"▁반영":2869,"경영자":2870,"되어":2871,"안을":2872,"코리아":2873,"▁전반":2874,"▁출근하는":2875,"▁내용을":2876,"상황":2877,"▁있고":2878,"▁공개":2879,"▁실시간":2880,"▁종사":2881,"▁수는":2882,"▁전달":2883,"▁경기":2884,"러한":2885,"▁있고,":2886,"▁유출":2887,"동산":2888,"부문":2889,"하기도":2890,"▁증가한":2891,"▁기관":2892,"▁일자리":2893,"▁23일":2894,"이크로":2895,"1년":2896,"·재택근무":2897,"어나":2898,"▁재택근무,":2899,"▁하도록":2900,"▁필요가":2901,"▁풀":2902,"▁인상":2903,"▁인원":2904,"▁3단계":2905,"▁“이":2906,"▁업무용":2907,"▁나머":2908,"▁실제로":2909,"▁의료":2910,"~2":2911,"쳤다.":2912,"▁전날":2913,"▁직무":2914,"▁동참":2915,"▁7월":2916,"▁입장":2917,"▁과정":2918,"그룹은":2919,"▁적극적으로":2920,"▁눈치":2921,"▁존":2922,"의를":2923,"인은":2924,"▁비즈니스":2925,"▁차원에서":2926,"▁검사":2927,"▁축":2928,"마존":2929,"▁이용할":2930,"▁양육":2931,"▁도움이":2932,"▁들어갔다.":2933,"▁라인":2934,"자로":2935,"▁가까":2936,"▁나서":2937,"▁동료":2938,"▁번째":2939,"▁자가격":2940,"▁퇴":2941,"뉴스":2942,"하자":2943,"▁화면":2944,"은행은":2945,"▁철저":2946,"0만":2947,"▁침":2948,"▁회식":2949,"00여":2950,"▁서버":2951,"▁실시한":2952,"▁초등학교":2953,"▁사진":2954,"▁전용":2955,"▁가능성이":2956,"▁기준으로":2957,"▁스트레스":2958,"▁맡":2959,"모트":2960,"▁이제":2961,"▁그동안":2962,"▁코로나바이러스감염":2963,"▁힘들":2964,"▁▶":2965,"지지":2966,"▁기업들의":2967,"▁4일":2968,"▁늘었":2969,"▁이내":2970,"▁점심":2971,"▁참석":2972,"▁먼저":2973,"디어":2974,"위를":2975,"자인":2976,"▁보건":2977,"▁환경에서":2978,"▁26일":2979,"’는":2980,"▁좀":2981,"요일":2982,"▁2년":2983,"▁보니":2984,"해도":2985,"▁회사의":2986,"▁종료":2987,"▁요청":2988,"re":2989,"▁촉":2990,"조치":2991,"▁재택근무제를":2992,"▁수당":2993,"▁검사를":2994,"▁두고":2995,"하겠다고":2996,"▁트렌":2997,"0만원":2998,"▁탄":2999,"수록":3000,"지,":3001,"투자":3002,"▁양립":3003,"▁27일":3004,"▁불가능":3005,"▁자유롭게":3006,"대표":3007,"▁모델":3008,"▁않았다.":3009,"▁사무직":3010,"▁당부":3011,"▁자녀가":3012,"▁행복":3013,"▁착한":3014,"@et":3015,"치는":3016,"▁2단계":3017,"▁방송":3018,"▁어린이집":3019,"▁일·생활":3020,"벤처기업":3021,"▁농":3022,"▁해소":3023,"▁계약":3024,"▁근로자가":3025,"▁사람들이":3026,"▁우려가":3027,"@etnews.com":3028,"ᄏᄏ":3029,"▁넷":3030,"▁둘":3031,"가정":3032,"요?":3033,"통령":3034,"▁이메":3035,"▁수가":3036,"▁시설":3037,"▁한다고":3038,"▁같이":3039,"▁외국":3040,"▁좋아":3041,"▁준수":3042,"기술(I":3043,"ce":3044,"▁갑":3045,"닷컴":3046,"히려":3047,"▁이러한":3048,"▁처음으로":3049,"▁어디서":3050,"PC":3051,"공무원":3052,"하다":3053,"▁직원에게":3054,"▁당시":3055,"▁홈페":3056,"교통":3057,"▁전원":3058,"▁5일":3059,"▁이후에도":3060,"BC":3061,"▁몇":3062,"▁혜택":3063,"만큼":3064,"서를":3065,"안전":3066,"▁하게":3067,"▁찾아":3068,"구조":3069,"보다는":3070,"자체":3071,"▁기업을":3072,"▁아마존":3073,"▁유럽":3074,"▁결과를":3075,"▁W":3076,"▁돕":3077,"▁36":3078,"▁대해서는":3079,"▁2017년":3080,"르는":3081,"서울":3082,"▁통계":3083,"사업장":3084,"▁부담을":3085,"▁여부를":3086,"▁돼":3087,"▁얻":3088,"▁윤":3089,"랜드":3090,"로,":3091,"어서":3092,"점이":3093,"▁80%":3094,"▁스타트업":3095,"▁NHN":3096,"12":3097,"자들이":3098,"출근":3099,"▁오히려":3100,"▁회사에서":3101,"▁했습니다.":3102,"▁제외하고":3103,"▁마스크를":3104,"▁키우":3105,"▁최초로":3106,")'":3107,"▁모임":3108,"▁성공":3109,"▁특성상":3110,"효율":3111,"▁52":3112,"▁대비해":3113,"▁삼성전자는":3114,"단절":3115,"대를":3116,"▁한다”고":3117,"▁원칙":3118,"▁도입을":3119,"▁비율이":3120,"▁트렌드":3121,"▁놓":3122,"▁능":3123,"들에":3124,"자와":3125,"▁3분의":3126,"▁근무가":3127,"▁주거":3128,"▁계기로":3129,"▁시행한":3130,"▁사무실로":3131,"▁체제를":3132,"▁작년":3133,"▁KT는":3134,"0년":3135,"~3":3136,"▁덜":3137,"▁의원":3138,"▁남녀":3139,"▁반응":3140,"▁변화를":3141,"▁편의":3142,"교육청":3143,"▁육아기":3144,"▁다니":3145,"▁유급":3146,"▁신한":3147,"▁발전":3148,"▁6개월":3149,"▁합니다.":3150,"▁코로나바이러스감염증(코로나19)":3151,"로부터":3152,"사진":3153,"▁원활":3154,"▁현황":3155,"▁분할":3156,"▁때까지":3157,"시간을":3158,"▁활용할":3159,"하겠다”고":3160,"▁13일":3161,"▁질문":3162,"▁의무화":3163,"률이":3164,"빌딩":3165,"인증":3166,"▁대유행":3167,"▁인근":3168,"▁주는":3169,"▁그래":3170,"▁동기":3171,"▁활용한":3172,"일(현지시간)":3173,"▁베":3174,"▁사전":3175,"▁수밖에":3176,"▁전략":3177,"▁가격":3178,"▁제시":3179,"▁문화가":3180,"▁쉽지":3181,"▁잇따":3182,"이크로소프트":3183,"▁셈":3184,"사에":3185,"스를":3186,"스마트":3187,"업을":3188,"인을":3189,"▁하겠":3190,"▁실시한다.":3191,"▁부모가":3192,"▁다음달":3193,"%였다.":3194,"(7":3195,"(V":3196,"감독":3197,"▁대통령":3198,"▁소재":3199,"▁거래":3200,"▁조사됐다.":3201,"▁엄마":3202,"▁집단감염":3203,"감이":3204,"과의":3205,"아빠":3206,"지에":3207,"테크":3208,"▁집에":3209,"000여":3210,"▁나머지":3211,"▁쉬":3212,"▁있음":3213,"00만원":3214,"▁문의":3215,"▁무엇":3216,"▁역할":3217,"▁송":3218,"▁라이":3219,"▁보여":3220,"▁문제를":3221,"▁따르면,":3222,"▁못한":3223,"▁답변":3224,"▁병행":3225,"▁앉":3226,"▁와":3227,"▁씨는":3228,"세계":3229,"스로":3230,"식당":3231,"지로":3232,"▁운영하는":3233,"▁가족친화":3234,"▁VPN":3235,"건을":3236,"인데":3237,"으로,":3238,"▁해도":3239,"▁의심":3240,"▁카페":3241,"▁14일":3242,"▁설문조사":3243,"DI":3244,"▁H":3245,"▁캠":3246,"자에":3247,"접속":3248,"제,":3249,"지침":3250,"▁영화":3251,"▁차이가":3252,"▁전망이다.":3253,"▁걱":3254,"▁공백":3255,"▁진단":3256,"▁이상의":3257,"▁점을":3258,"▁비롯해":3259,"▁상대적으로":3260,"▁통상임금의":3261,"2년":3262,"▁골":3263,"▁얘":3264,"▁좌":3265,"보호":3266,"서도":3267,"젝트":3268,"주의":3269,"▁부동산":3270,"▁영국":3271,"▁운영하고":3272,"▁체계":3273,"▁뜻":3274,"▁밖":3275,"운영":3276,"▁제기":3277,"▁연속":3278,"▁그리고":3279,"▁오늘":3280,"하겠다\"고":3281,"it":3282,"도는":3283,"사용":3284,"▁인재":3285,"▁관한":3286,"▁해킹":3287,"▁최대한":3288,"▁안전을":3289,"▁언택트":3290,"▁충분":3291,"▁여파로":3292,"▁자가격리":3293,"서다.":3294,"자에게":3295,"카드":3296,"▁달리":3297,"▁입주":3298,"(8":3299,"joo":3300,"방식":3301,"보니":3302,"소기업":3303,"여성":3304,"▁의사":3305,"▁거의":3306,"cor":3307,"▁편리":3308,"▁쓰는":3309,"▁넥":3310,"▁빨":3311,"드시":3312,"▁보완":3313,"▁경북":3314,"▁임원":3315,"▁밀접":3316,"▁기록했다.":3317,"’이":3318,"▁층":3319,"상담":3320,"스(":3321,"▁이들":3322,"▁기획":3323,"▁부정":3324,"▁어느":3325,"건설":3326,"▁지정":3327,"▁조금":3328,"▁소개":3329,"▁시행한다.":3330,"▁예산":3331,"▁만에":3332,"▁사업을":3333,"▁들어간":3334,"▁목소":3335,"▁보도했다.":3336,"▁즐":3337,"가능":3338,"뉴얼":3339,"▁지켜":3340,"▁나선":3341,"▁프로그램을":3342,"단체":3343,"불어":3344,"자들은":3345,"파트":3346,"했고":3347,"▁1인":3348,"▁않다.":3349,"▁교통":3350,"▁회의를":3351,"장,":3352,"점은":3353,"주)":3354,"▁자료":3355,"▁나섰다.":3356,"▁바뀌":3357,"▁출근을":3358,"▁평소":3359,"하겠다는":3360,"▁광주":3361,"▁쉽게":3362,"▁외출":3363,"▁홈페이지":3364,"르고":3365,"방역":3366,"봤다.":3367,"분리":3368,"▁없도록":3369,"▁도입했다.":3370,"▁사무실에":3371,"▁10명":3372,"▁시작한":3373,"▁느끼":3374,"▁자신의":3375,"위로":3376,"▁등에서":3377,"▁하기":3378,"▁신속":3379,"▁구조":3380,"▁선보":3381,"▁반드시":3382,"▁유연한":3383,"▁리더":3384,"▁휴가를":3385,"eral":3386,"erald":3387,")과":3388,"en":3389,"p.com":3390,"▁두기":3391,"가고":3392,"했다는":3393,"▁가사":3394,"▁제출":3395,"▁유치":3396,"▁서로":3397,"▁말까지":3398,"▁선호":3399,"▁걱정":3400,"률은":3401,"필요":3402,"해진":3403,"▁일시":3404,"▁시행하는":3405,"▁확진자는":3406,"▁이상이":3407,"▁프로젝트":3408,"▁발표한":3409,"@herald":3410,"corp.com":3411,"@heraldcorp.com":3412,")로":3413,"는다.":3414,"해왔다.":3415,"▁아니다.":3416,"▁주장":3417,"▁실험":3418,"▁근태":3419,"▁임직원의":3420,".5%)":3421,"제도를":3422,"▁포함한":3423,"ch":3424,"티브":3425,"했지만":3426,"▁코로나19의":3427,"▁부부":3428,"▁하락":3429,"▁시행한다고":3430,"▁70%":3431,"▁개정안":3432,"▁꾸준":3433,"@joo":3434,"다'":3435,"자녀":3436,"▁이렇":3437,"▁이야":3438,"00만":3439,"▁실시하고":3440,"▁수준으로":3441,"▁장려금":3442,"▁뛰":3443,"▁육":3444,"기한":3445,"▁제약":3446,"▁공식":3447,"▁교수는":3448,"▁사무실에서":3449,"@joong":3450,"▁하고,":3451,"율은":3452,"점으로":3453,"▁있지만,":3454,"▁대법":3455,"▁대형":3456,"▁지자체":3457,"▁회장은":3458,"▁있는데":3459,"▁소상공":3460,"▁강남":3461,"▁장애":3462,"▁회사로":3463,"▁세종":3464,"▁체제":3465,"▁금융권":3466,")와":3467,"텐츠":3468,"평가":3469,"▁10%":3470,"▁시민":3471,"▁위해서는":3472,"▁더불어":3473,"▁환경이":3474,"▁무상":3475,"▁선택할":3476,"▁제조업":3477,".0%":3478,"im":3479,"▁북":3480,"리스":3481,"▁건설":3482,"▁메시":3483,"▁2주간":3484,"▁셈이다.":3485,"성에":3486,"스럽":3487,"앞으로":3488,"▁1명":3489,"▁직원과":3490,"▁기업과":3491,"▁'워라밸":3492,"▁현행":3493,"▁8월":3494,"▁이날부터":3495,"▁CEO는":3496,"am":3497,"▁툴":3498,"규직":3499,"리지":3500,"하이":3501,"▁대폭":3502,"▁자기":3503,"▁비슷":3504,"▁감염병":3505,"▁열린":3506,"▁스마트폰":3507,"▁있으며,":3508,"at":3509,"냈다.":3510,"비즈":3511,"원,":3512,"으면서":3513,"해졌다.":3514,"▁공지":3515,"▁배우":3516,"▁생산성을":3517,".5%":3518,"▁식당":3519,"▁낮은":3520,"▁균형을":3521,"▁늦":3522,"네요":3523,"받고":3524,"▁이외":3525,"▁이틀":3526,"▁가이드":3527,"▁하면서":3528,"▁롯데지":3529,"▁18일":3530,"연구소":3531,"▁선제적으로":3532,"@joongang":3533,"▁O":3534,"청사":3535,"형태":3536,"▁것이라는":3537,"▁마이크로소프트":3538,"▁2020년":3539,"▁많다.":3540,"▁10일":3541,"▁기반으로":3542,"▁최고경영자":3543,"리드":3544,"▁지하":3545,"▁없었":3546,"▁없다는":3547,"▁임대":3548,"▁문화를":3549,"▁복직":3550,"▁지역사회":3551,"▁설명이다.":3552,"▁업계에":3553,"@joongang.co.kr":3554,"▁끌":3555,"▁벗":3556,"▁숙":3557,"어도":3558,"키로":3559,"으로써":3560,"▁수원":3561,"▁44":3562,"▁금융회사":3563,"▁조사한":3564,"▁시대에":3565,"▁줌":3566,"▁대중":3567,"▁위협":3568,"▁근무할":3569,"▁거쳐":3570,"▁단순":3571,"▁세대":3572,"▁한편,":3573,"▁사실상":3574,"▁22일":3575,"',":3576,"(20":3577,"▁▷":3578,"밸리":3579,"사와":3580,"▁1주일":3581,"▁주변":3582,"▁강력":3583,"▁늘어날":3584,"▁시작했다.":3585,"▁추가로":3586,"▁지적했다.":3587,"ily":3588,"▁b":3589,"▁익":3590,"로구":3591,"▁코로나19에":3592,"▁개최":3593,"▁데스크":3594,"▁방역을":3595,"▁호소":3596,"▁넥슨":3597,"15":3598,"ar":3599,"▁◇":3600,"량을":3601,"인구":3602,"▁원격접속":3603,"▁6일":3604,"▁단체":3605,"▁제공하고":3606,"▁2015년":3607,"▁난":3608,"▁택":3609,"의도":3610,"제공":3611,"▁제주":3612,"▁높이는":3613,"▁정보통신":3614,"▁경력단절":3615,"▁착한기업":3616,"이즈":3617,"▁자세":3618,"▁기업문화":3619,"▁고령":3620,"▁임시":3621,"▁지원하고":3622,"▁환경에":3623,"▁갖추":3624,"▁뉴스":3625,"▁있으며":3626,"▁사례가":3627,"▁28일":3628,"(A":3629,"”라고":3630,"벌이":3631,"펀드":3632,"▁한다\"고":3633,"▁도쿄":3634,"▁불이익":3635,".9%)":3636,"▁유연근무제를":3637,"▁e":3638,"리콘":3639,"사항":3640,"으로는":3641,"▁아동":3642,"▁아파트":3643,"▁도입해":3644,"▁본부":3645,"▁재택·":3646,"▁되고":3647,"휴가를":3648,"▁예방을":3649,"▁위치한":3650,"70":3651,"@k":3652,"CT":3653,"거리":3654,"▁직원에":3655,"▁주택":3656,"▁때는":3657,"▁17일":3658,"▁음성":3659,"▁야근":3660,"▁얼마":3661,"daily":3662,"기술(IT)":3663,"규정":3664,"이노":3665,"클라우드":3666,"▁가치":3667,"▁‘워라밸":3668,"▁유통":3669,"▁신설":3670,"▁많았":3671,"▁스스로":3672,"▁종식":3673,"▁여성의":3674,"▁15일":3675,"@sedaily":3676,"@sedaily.com":3677,"▁R":3678,"▁풍":3679,"적이":3680,"▁가동":3681,"▁아내":3682,"▁늘면서":3683,"▁사무실을":3684,"▁휴식":3685,"▁맞는":3686,"▁응답자의":3687,".2%":3688,"----":3689,"·고":3690,"▁<":3691,"▁쓴":3692,"격을":3693,"국민":3694,"됩니다.":3695,"▁대규모":3696,"▁정기":3697,"▁공장":3698,"▁그쳤다.":3699,"▁설정":3700,"▁90%":3701,"▁초기":3702,"▁나타나":3703,"▁지급하는":3704,"▁갖춰":3705,"다’는":3706,"▁커뮤니케이션":3707,"\"...":3708,"(약":3709,"▁괜":3710,"▁녹":3711,"기준":3712,"데이":3713,"로드":3714,"생산":3715,"소통":3716,"스,":3717,"하지만":3718,"▁수립":3719,"▁1분기":3720,"▁고위":3721,"▁구체":3722,".1%":3723,"&#":3724,"에만":3725,"▁주말":3726,"▁내에서":3727,"▁여행":3728,"▁식사":3729,".8%)":3730,".6%)":3731,"▁책상":3732,"▁드러":3733,"▁시차출퇴근":3734,"▁집계됐다.":3735,"▁:":3736,"▁은":3737,"도체":3738,"리어":3739,"면세":3740,"증권":3741,"학년":3742,"학생":3743,"▁'코로나19":3744,"▁AI":3745,"▁개인정보":3746,"▁법률":3747,"▁결정했다.":3748,"▁19일":3749,".2%)":3750,"▁기술을":3751,"▁창의":3752,"▁줄어들":3753,"39;":3754,"&#39;":3755,"40":3756,"’의":3757,"▁붙":3758,"아이":3759,"어야":3760,"▁1명이":3761,"▁최적":3762,"▁여가":3763,"▁상황이다.":3764,"▁못하는":3765,".5단계":3766,"▁격리":3767,"(CEO":3768,")씨는":3769,"t.co.kr":3770,"▁빈":3771,"▁왜":3772,"▁퍼":3773,"공단":3774,"나라":3775,"스러":3776,"자도":3777,"중앙":3778,"▁이른":3779,"▁보이":3780,"▁그대로":3781,"▁시행할":3782,"▁바탕":3783,"▁관련해":3784,"▁KB":3785,"▁변화가":3786,"▁경제적":3787,"▁승진":3788,"'로":3789,"’가":3790,"▁뿐":3791,"젊은":3792,"차를":3793,"▁사고":3794,"▁지나":3795,"▁전산":3796,"▁정말":3797,"▁‘코로나19":3798,"▁하이":3799,"▁연계":3800,"▁장비":3801,"▁운동":3802,"▁사업주":3803,"▁올라":3804,"▁재개":3805,"▁행사":3806,"▁정책을":3807,"@dt.co.kr":3808,"▁터":3809,"마블":3810,"없는":3811,"연금":3812,"▁주문":3813,"▁확산세가":3814,"▁영역":3815,"▁설계":3816,"▁매뉴얼":3817,"▁판교":3818,"▁정보를":3819,"▁수준의":3820,"▁안전한":3821,".7%)":3822,"▁활동을":3823,"필요한":3824,"▁슬":3825,"모비스":3826,"실을":3827,"한다”고":3828,"▁이해":3829,"▁수익":3830,"▁35":3831,"▁아무":3832,"▁방향":3833,"▁내려":3834,"▁모집":3835,"▁소독":3836,"▁영구":3837,"▁바꾸":3838,"▁결과,":3839,"▁신청할":3840,"000명":3841,"▁정보기술(IT)":3842,"▁효율성을":3843,"▁12월":3844,"▁넘는":3845,"▁망분리":3846,"▁U":3847,"▁압":3848,"니까":3849,"시아":3850,"프라인":3851,"▁재택근무·":3852,"▁한해":3853,"▁출생":3854,"▁구현":3855,"▁국내외":3856,"▁명확":3857,"▁25일부터":3858,"▁측면":3859,"▁16일":3860,"▁형태로":3861,"다’고":3862,"▁최고경영자(CEO":3863,"65":3864,"▁넓":3865,"▁움":3866,"거래":3867,"관계":3868,"관이":3869,"됨에":3870,"영업":3871,"우리":3872,"케팅":3873,"하다고":3874,"한다\"고":3875,"▁2배":3876,"▁실리콘":3877,"▁사용한":3878,"▁변경":3879,"▁저장":3880,"▁프리":3881,"▁부서별":3882,"▁현대모비스":3883,"▁자유로운":3884,"▁늘어나고":3885,"▁비롯한":3886,"▁엔씨":3887,"▁범위":3888,"'가":3889,"(G":3890,"TF":3891,"▁암":3892,"▁품":3893,"리적":3894,"소를":3895,"스플":3896,"인력을":3897,"주시":3898,"하다는":3899,"했다\"고":3900,"▁바람":3901,"▁생산성이":3902,"▁CN":3903,"▁영업이익":3904,"▁우수기업":3905,"m2":3906,"om":3907,"했다”고":3908,"▁다수":3909,"▁여의도":3910,"▁본점":3911,"▁계획을":3912,"▁학생":3913,"▁변화에":3914,"▁차질이":3915,"▁캠페":3916,"11":3917,"6년":3918,"▁d":3919,"고객":3920,"전을":3921,"직장":3922,"▁사항":3923,"▁가지":3924,"▁것\"이라며":3925,"▁40%":3926,"▁결혼":3927,"▁7일":3928,"▁복무":3929,"▁포함해":3930,"▁느낌":3931,"mi":3932,"▁맛":3933,"▁탑":3934,"상의":3935,"있는":3936,"타임":3937,"▁사라":3938,"▁업무의":3939,"▁주민":3940,"▁지원금":3941,"▁높았다.":3942,"▁매년":3943,"▁방침을":3944,"하려는":3945,"▁움직":3946,"▁천":3947,"▁혹":3948,"기금":3949,"메라":3950,"적이다.":3951,"조사를":3952,"함.":3953,"▁있다":3954,"에서의":3955,"▁2회":3956,"▁것에":3957,"▁나라":3958,"▁시간과":3959,"▁남성의":3960,"▁입사":3961,".9%":3962,"▁데이터를":3963,"▁누구":3964,"▁얘기":3965,"li":3966,"·경":3967,"모바일":3968,"베이션":3969,"사람":3970,"원과":3971,"▁중기":3972,"▁위반":3973,"▁나가":3974,"▁육아휴직이":3975,"▁내놓":3976,"▁결국":3977,"▁줄여":3978,"▁이용해":3979,"’으로":3980,"▁탈":3981,"만5":3982,"분간":3983,"▁아침":3984,"▁업무환경":3985,"기업의":3986,"▁차별":3987,"▁어려워":3988,"▁온라인으로":3989,"▁응답이":3990,"▁27일부터":3991,"▁괜찮":3992,"()":3993,"(대표":3994,"▁낸":3995,"▁봉":3996,"디지털":3997,"방송":3998,"주택":3999,"항공":4000,"▁분양":4001,"▁미팅":4002,"▁특수":4003,"▁명령":4004,"▁금융사":4005,"▁중소기업의":4006,"▁효율적으로":4007,"▁30일":4008,"▁확인할":4009,"▁분석했다.":4010,"▁끝나":4011,"'의":4012,"▁캐":4013,"받을":4014,"지도":4015,"하며,":4016,"▁구분":4017,"▁8세":4018,"▁저녁":4019,"▁비중이":4020,"gye":4021,"▁중이":4022,"▁34":4023,"00명":4024,"▁발열":4025,"▁경우에는":4026,"...\"":4027,"▁되면":4028,".8%":4029,"▁11일":4030,"▁지속적으로":4031,"▁꼽았다.":4032,"대책본부":4033,"▁바탕으로":4034,"(M":4035,"Z세대":4036,"▁횟":4037,"▁흐":4038,"뱅크":4039,"장의":4040,"질환":4041,"최근":4042,"▁등록":4043,"▁33":4044,"▁회복":4045,"▁구미":4046,"▁실행":4047,"▁원격으로":4048,"▁비율을":4049,"▁정도로":4050,"▁이메일":4051,"▁꾸준히":4052,"원으로":4053,"준다.":4054,"커버그":4055,"▁자연":4056,"▁최우":4057,"까지는":4058,"▁여건":4059,"▁여유":4060,"▁지역에":4061,"▁LS":4062,"▁양성":4063,"@segye":4064,"▁자택에서":4065,"▁이렇게":4066,"@segye.com":4067,"IT":4068,"a.com":4069,"▁끊":4070,"겠다는":4071,"내식당":4072,"노무":4073,"담당":4074,"시부터":4075,"치고":4076,"▁이들은":4077,"▁3개":4078,"▁상관":4079,"▁주로":4080,"▁48":4081,"▁운용":4082,"▁저커버그":4083,"▁당국":4084,"▁명이":4085,"▁과거":4086,"▁있어서":4087,"▁휴직을":4088,"▁내용의":4089,"▁국민의":4090,"▁안정적인":4091,"▁즉시":4092,"25":4093,"▁챙":4094,"구에":4095,"아서":4096,"자들의":4097,"근무를":4098,"▁수평":4099,"▁것과":4100,"▁기업들":4101,"▁상향":4102,"▁아예":4103,"▁연간":4104,"▁60":4105,"▁기간은":4106,"▁관심이":4107,"▁무료로":4108,"▁과정에서":4109,"이노베이션":4110,"▁엔씨소프트":4111,"'이":4112,"-19":4113,"3년":4114,"fe":4115,"’(":4116,"’,":4117,"’은":4118,"받는":4119,"성,":4120,"와대":4121,"율이":4122,"파이":4123,"▁사유":4124,"▁대화":4125,"▁시험":4126,"▁공직":4127,"▁통제":4128,"▁특정":4129,"▁8일":4130,"▁포스트":4131,"▁발생할":4132,"▁롯데면세":4133,"▁갖고":4134,"▁갖춘":4135,"▁매출이":4136,"▁카카오톡":4137,"▁고용노동부는":4138,"▁의견을":4139,"▁당부했다.":4140,"▁덕":4141,"려고":4142,"와의":4143,"운용":4144,"했으며,":4145,"▁이슈":4146,"▁32":4147,"▁감사":4148,"▁문을":4149,"▁사람은":4150,"▁고객센터":4151,"▁성과를":4152,"▁걸쳐":4153,"▁만족도":4154,"▁논란":4155,"▁싶은":4156,"▁콘텐츠":4157,"▁좌석":4158,"▁젊은":4159,"니어":4160,"되며":4161,"명),":4162,"이자":4163,"제는":4164,"청은":4165,"품을":4166,"▁120":4167,"▁일환":4168,"▁37":4169,"▁회계":4170,"▁맞벌이":4171,"▁시스템이":4172,"▁방식의":4173,"▁12일":4174,"▁그러면서":4175,"▁블룸":4176,"’로":4177,"▁옮":4178,"너스":4179,"어요":4180,"체계":4181,"▁있음.":4182,"▁1차":4183,"▁인원이":4184,"▁제작":4185,"▁나와":4186,"▁육아휴직자는":4187,"▁신입":4188,"▁밝혔습니다.":4189,"▁교사":4190,"▁조치다.":4191,"▁살펴":4192,"▁면접":4193,"▁겪고":4194,"oul":4195,")으로":4196,"ww":4197,"▁닫":4198,"▁티":4199,"공공":4200,"대에":4201,"리트":4202,"오는":4203,"유연":4204,"지능":4205,"▁이직":4206,"▁보편":4207,"▁나갈":4208,"▁높일":4209,"▁감염증":4210,"▁재직":4211,"▁원격근무가":4212,"▁SK그룹":4213,"▁중소·중":4214,"▁권고했다.":4215,"▁다니는":4216,"로는":4217,"수도":4218,"시까지":4219,"인터":4220,"포스트":4221,"▁유행":4222,"▁시행에":4223,"▁가능하도록":4224,"▁유연하게":4225,"▁카메라":4226,"▁안전하게":4227,"▁보고서":4228,"▁상담사":4229,"▁긍정적인":4230,"▁대중교통":4231,"▁삭":4232,"▁팔":4233,"년간":4234,"런스":4235,"려는":4236,"유업":4237,"주당":4238,"하라":4239,"▁대전":4240,"▁통화":4241,"▁4명":4242,"▁선별":4243,"▁70":4244,"▁10월":4245,"▁당분간":4246,"▁초과":4247,"소득":4248,"재단":4249,"칙을":4250,"한국":4251,"▁다르":4252,"▁최선을":4253,"▁바란":4254,"▁체크":4255,"▁절감":4256,"▁결정할":4257,"▁100%":4258,"▁카카오는":4259,"▁경험을":4260,"▁비용을":4261,"▁돌입했다.":4262,"▁나오고":4263,"▁상태다.":4264,"▁LG유플러스는":4265,"▁넷마블":4266,"▁어디서나":4267,"YT":4268,"▁라":4269,"브리드":4270,"했지만,":4271,"▁사원":4272,"▁않으면":4273,"▁단말":4274,"▁반도체":4275,"▁후보":4276,"▁간접":4277,"▁배치":4278,"▁임신부":4279,"▁접촉을":4280,"▁동일한":4281,"사무실":4282,"\"라고":4283,"▁o":4284,"▁밥":4285,"너지":4286,"태원":4287,"▁수출":4288,"▁일하고":4289,"▁보는":4290,"▁보였다.":4291,"▁유튜":4292,"▁확산이":4293,"▁회사를":4294,"▁시간에":4295,"▁승인":4296,"▁이같은":4297,"un":4298,"곳에":4299,"부처":4300,"의회":4301,"지난":4302,"▁지키":4303,"▁전직원":4304,"▁한부모":4305,"▁기업들도":4306,"▁적은":4307,"▁경우,":4308,"▁가능해":4309,"▁디자인":4310,"▁뒤를":4311,"▁않는다.":4312,"▁2022년":4313,"고용평등":4314,"▁머물":4315,"▁탄력":4316,"te":4317,"▁견":4318,"▁꼭":4319,"▁쿠":4320,"구는":4321,"망을":4322,"찬가지":4323,"▁대학":4324,"▁1위":4325,"▁구내식당":4326,"▁마찬가지":4327,"▁만든":4328,"▁남양":4329,"만원을":4330,"▁12개월":4331,"▁확진자와":4332,"▁매출액":4333,"ID":4334,"▁◆":4335,"대상":4336,"번째":4337,"성도":4338,"습니다":4339,"적이고":4340,"▁것”이라며":4341,"▁확장":4342,"▁중에":4343,"▁자주":4344,"▁실태":4345,"▁20일":4346,"▁적합":4347,"▁9일":4348,"▁진행하고":4349,"▁ICT":4350,"▁인터뷰":4351,"▁분위기가":4352,"▁관심을":4353,"▁악화":4354,"24":4355,"80":4356,"▁p":4357,"▁곧":4358,"▁몸":4359,"대비":4360,"도,":4361,"시가":4362,"접촉":4363,"화문":4364,"▁한경":4365,"▁업무와":4366,"부터는":4367,"▁없을":4368,"▁45":4369,"▁마케팅":4370,"▁시행해":4371,"▁높여":4372,"▁6일까지":4373,"▁남편":4374,"▁무기한":4375,"▁저하":4376,"▁배달":4377,"▁되지":4378,"▁했다고":4379,"▁기반의":4380,"▁2025년":4381,"▁대책을":4382,"▁MS":4383,"▁존재":4384,"▁소상공인":4385,"NS":4386,"▁놀":4387,"리티":4388,"이고,":4389,"평균":4390,"회를":4391,"▁대다":4392,"▁시도":4393,"▁시청":4394,"하는데":4395,"▁2.5단계":4396,"▁가져":4397,"▁한시":4398,"▁보상":4399,"▁부처":4400,"▁주고":4401,"▁맞게":4402,"▁조직문화":4403,"▁있으면":4404,"▁빠른":4405,"lee":4406,"▁중소·중견기업":4407,"13":4408,"▁니":4409,"고를":4410,"진흥":4411,"▁사는":4412,"▁지식":4413,"▁1일부터":4414,"▁“육아휴직":4415,"▁불필요한":4416,"▁달했다.":4417,"▁사태를":4418,"▁답한":4419,".1%)":4420,".3%)":4421,"▁영업점":4422,"▁독일":4423,"'으로":4424,"”고":4425,"▁멀":4426,"▁묻":4427,"▁봐":4428,"공지능":4429,"디오":4430,"어난":4431,"▁기초":4432,"▁인원은":4433,"▁없음":4434,"▁20%":4435,"▁매주":4436,"▁진정":4437,"▁접종":4438,"▁SK이노베이션":4439,"▁휴게":4440,"▁제도다.":4441,".3%":4442,"▁VDI":4443,"▁기회를":4444,"▁이같이":4445,"aa":4446,"▁깨":4447,"▁끼":4448,"느냐":4449,"로우":4450,"률을":4451,"리에":4452,"리모트":4453,"비용":4454,"죠.":4455,"주로":4456,"▁수업":4457,"▁중에도":4458,"▁공기업":4459,"▁3만":4460,"▁조언":4461,"▁거점":4462,"▁늘리":4463,"▁적응":4464,"▁불만":4465,"▁경우도":4466,"▁확대하고":4467,"회의를":4468,"▁실시하는":4469,"▁직장인이":4470,"▁청사":4471,"▁공간에서":4472,"▁피로":4473,"▁담은":4474,"명으로,":4475,"▁가정의":4476,"▁300인":4477,"▁역할을":4478,"▁유튜브":4479,"▁웃":4480,"겠다”고":4481,"계약":4482,"이에":4483,"주간":4484,"토록":4485,"향이":4486,"▁기여":4487,"▁보유":4488,"이라도":4489,"▁오프라인":4490,"▁지원할":4491,"▁특징":4492,"▁교대":4493,"▁남성이":4494,"▁과학":4495,"▁메일":4496,"!!":4497,"권을":4498,"돼야":4499,"사,":4500,"시로":4501,"신종":4502,"전문":4503,"화학":4504,"▁보육":4505,"▁인원의":4506,"▁위메":4507,"▁경찰":4508,"▁\"육아휴직":4509,"▁해제":4510,"▁더존":4511,"▁특화":4512,"▁증가하고":4513,"▁좋다.":4514,"▁진행할":4515,"▁신청을":4516,"▁효율적인":4517,"▁청와대":4518,"▁열고":4519,"▁확인됐다.":4520,"▁규모가":4521,"▁자율적으로":4522,"▁에스":4523,"▁않아도":4524,"▁LG전자는":4525,"▁암호":4526,")도":4527,"▁페":4528,"두고":4529,"▁대출":4530,"▁수치":4531,"▁최저":4532,"▁신경":4533,"▁적지":4534,"▁맞춤":4535,"▁자녀에":4536,"▁2016년":4537,"▁폐쇄하고":4538,"▁구글은":4539,"▁돌아가":4540,"▁길어":4541,"▁그런데":4542,"▁실리콘밸리":4543,"▁한경닷컴":4544,"▁탓":4545,"함에":4546,"함을":4547,"▁있다면":4548,"▁1,":4549,"▁전에":4550,"▁자사":4551,"▁연령":4552,"▁연말":4553,"▁받지":4554,"▁도입하는":4555,"▁금감":4556,"▁확대할":4557,"▁되어":4558,"▁속속":4559,".7%":4560,"▁경험이":4561,"▁처음이다.":4562,"▁일상화":4563,"@dong":4564,"▁잇따라":4565,"▁가이드라인":4566,"@donga.com":4567,"'은":4568,"(0":4569,"▁겸":4570,"▁깊":4571,"▁센터":4572,"놨다.":4573,"니아":4574,"량은":4575,"레이스":4576,"했는데":4577,"▁이었다.":4578,"▁1000":4579,"▁근무하고":4580,"▁53":4581,"시간이":4582,"▁확대해":4583,"▁임직원을":4584,"▁투입":4585,".6%":4586,"▁대부분의":4587,"▁네이버는":4588,"▁장기화로":4589,"aaS":4590,"(D":4591,"99":4592,"되기":4593,"보건":4594,"부서":4595,"▁이루":4596,"▁시는":4597,"▁상한":4598,"▁육아휴직은":4599,"▁연동":4600,"▁실내":4601,"▁만나":4602,"▁88":4603,"▁작성":4604,"▁광화문":4605,"▁정상근무":4606,"▁늘어나면서":4607,"▁혜택을":4608,"▁데스크톱":4609,"\"고":4610,"▁J":4611,"▁Q":4612,"▁랜":4613,"▁잦":4614,"▁훨":4615,"가를":4616,"구를":4617,"인사":4618,"하우":4619,"함으로써":4620,"▁통근":4621,"▁장관은":4622,"▁우한":4623,"▁체온":4624,"▁휴대":4625,"▁개인의":4626,"▁30분":4627,"▁팀장":4628,"▁낮아":4629,"▁부담이":4630,"▁질병":4631,"▁전망했다.":4632,"비즈온":4633,"교대":4634,"다며":4635,"대응":4636,"명이다.":4637,"문을":4638,"스타":4639,"아야":4640,"영상":4641,"인지":4642,"프로":4643,"▁재택근무자":4644,"▁대처":4645,"▁전파":4646,"▁상위":4647,"▁조건":4648,"▁나누":4649,"▁간편":4650,"▁취지":4651,"▁이어질":4652,"▁전체의":4653,"▁순이었다.":4654,".4%":4655,".4%)":4656,"업계에":4657,"@seoul":4658,"▁GS":4659,"▁자동차":4660,"▁강력한":4661,"@seoul.co.kr":4662,"▁솔":4663,"▁징":4664,"데이터":4665,"려면":4666,"신문":4667,"윈타워":4668,"▁기울":4669,"▁확정":4670,"▁정해":4671,"▁기업도":4672,"▁부당":4673,"▁통과":4674,"▁실현":4675,"▁밝힌":4676,"▁영상회의":4677,"...재택근무":4678,"▁활용하는":4679,"▁요즘":4680,"▁미국의":4681,"▁늘어나는":4682,"▁추세다.":4683,"▁얼굴":4684,"▁롯데지주":4685,"OV":4686,"st":4687,"▁헤":4688,"노멀":4689,"세요":4690,"▁기기":4691,"▁도내":4692,"▁개념":4693,"▁영아":4694,"▁고용부":4695,"▁배경":4696,"▁순차":4697,"▁채널":4698,"▁커지고":4699,"▁모습을":4700,"▁듯":4701,"▁석":4702,"달라":4703,"랐다.":4704,"버스":4705,"설망":4706,"성장":4707,"▁재택근무...":4708,"▁시각":4709,"하고자":4710,"▁일하기":4711,"▁신뢰":4712,"▁해서":4713,"▁안에":4714,"▁강원":4715,"▁노출":4716,"▁예외":4717,"▁외에":4718,"▁점차":4719,"▁당연":4720,"▁출산휴가":4721,"▁리모트":4722,"▁창원":4723,"▁제품을":4724,"▁충분히":4725,"▁이른바":4726,"인터넷":4727,"▁훨씬":4728,"OVID":4729,"hy":4730,"▁꺼":4731,"▁샌":4732,"행정":4733,"▁육아휴직자가":4734,"▁구직":4735,"▁통보":4736,"▁46":4737,"▁노력을":4738,"▁출근하지":4739,"▁지역의":4740,"▁커피":4741,"▁팀원":4742,"▁복지가":4743,"▁(주)":4744,"▁토로":4745,"▁비중은":4746,"▁패키":4747,"▁철저히":4748,"▁최우선":4749,"▁w":4750,"단지":4751,"리핑":4752,"린다.":4753,"시,":4754,"시켜":4755,"일이":4756,"자동":4757,"지방":4758,"현재":4759,"▁근무에":4760,"▁구로구":4761,"▁여기에":4762,"다\"라고":4763,"▁말부터":4764,"▁조치가":4765,"▁협업툴":4766,"▁완료":4767,"별로는":4768,"▁2021년":4769,"▁브랜드":4770,"▁선제적":4771,"▁트위터는":4772,"▁별도의":4773,"▁종사자":4774,"▁더존비즈온":4775,"OVID-19":4776,"4년":4777,"VPN":4778,"▁레":4779,"▁왔":4780,"간의":4781,"까.":4782,"대체":4783,"임을":4784,"제품":4785,"조건":4786,"지면":4787,"했다\"며":4788,"▁수급":4789,"▁2차":4790,"▁‘사회적":4791,"▁개별":4792,"▁노무":4793,"▁적절":4794,"▁추구":4795,"▁학습":4796,"▁눈에":4797,"▁노트북을":4798,"▁경영진":4799,"하려면":4800,"▁차지했다.":4801,"SD":4802,"▁겨":4803,"▁캘":4804,"가가":4805,"겠다\"고":4806,"법을":4807,"서관":4808,"장려":4809,"지니어":4810,"한다면":4811,"했을":4812,"▁기저":4813,"▁대변":4814,"▁일자":4815,"▁보이고":4816,"▁내달":4817,"▁하는데":4818,"▁급격":4819,"▁점이":4820,"▁임직원이":4821,"▁당초":4822,"▁배려":4823,"▁가운데,":4824,".7%),":4825,"▁집중할":4826,"▁검토하고":4827,"▁모니터링":4828,"78":4829,"대한":4830,"캠프":4831,"▁대우":4832,"▁제안":4833,"▁자산":4834,"▁기업으로":4835,"▁서초":4836,"▁생기":4837,"▁2010년":4838,"▁마련해":4839,"▁충북":4840,"▁영향으로":4841,"▁효과가":4842,"고용노동":4843,"▁일주일에":4844,"스플레이":4845,"▁블룸버그":4846,"60":4847,"▁왔다.":4848,"드를":4849,"무는":4850,"법인":4851,"주고":4852,"▁시기":4853,"▁‘20":4854,"▁부총":4855,"다”는":4856,"▁사용이":4857,"▁노사":4858,"▁높았":4859,"에게는":4860,"▁대상은":4861,"▁특허":4862,"▁운영을":4863,"▁곳은":4864,"▁창출":4865,"▁호텔":4866,"▁건강을":4867,"▁높아졌":4868,"▁홍콩":4869,"▁줄어든":4870,"▁비교적":4871,"'(":4872,"▁m":4873,"▁낳":4874,"다운":4875,"대가":4876,"선이":4877,"섬웨어":4878,"센티브":4879,"아가":4880,"전자":4881,"퍼런스":4882,"▁전해졌다.":4883,"▁정리":4884,"▁육아를":4885,"▁42":4886,"▁발굴":4887,"▁미리":4888,"▁근거":4889,"▁선언":4890,"▁외에도":4891,"▁보안을":4892,"▁이용하는":4893,"▁남성은":4894,"▁진행한":4895,"▁아이디어":4896,"▁현대차":4897,"▁인프라를":4898,"▁홍보":4899,"▁사실을":4900,"▁떨어진":4901,"▁\"이번":4902,"▁대다수":4903,"▁t":4904,"▁겁":4905,"▁괴":4906,"리케이션":4907,"점에서":4908,"정에":4909,"▁이주":4910,"▁수입":4911,"▁일에":4912,"▁중구":4913,"....":4914,"▁오른":4915,"▁사용을":4916,"▁만드는":4917,"▁늘려":4918,"▁차례":4919,"▁확대하는":4920,"▁제도가":4921,"▁간의":4922,"▁알고":4923,"▁배송":4924,"▁편집":4925,"▁들어가":4926,"▁거리두기가":4927,"▁이유는":4928,"▁창업":4929,"▁힘든":4930,"▁효과를":4931,"▁공급기업":4932,"▁혼자":4933,".0%)":4934,"▁은행권":4935,"▁돕는":4936,"▁남양유업":4937,")에서":4938,"17":4939,"KT":4940,"b.co.kr":4941,"▁써":4942,"▁밖에":4943,"다른":4944,"부를":4945,"세종":4946,"수급":4947,"이지만":4948,"전화":4949,"중소기업":4950,"화상회의":4951,"▁있던":4952,"▁경남":4953,"▁\"코로나":4954,"▁최종":4955,"▁개편":4956,"▁4차":4957,"▁강제":4958,"▁80":4959,"▁재난":4960,"▁맞아":4961,"▁아이가":4962,"▁채택":4963,"▁경제활동":4964,"▁민원":4965,"▁우리나라":4966,"▁어려움이":4967,"▁위험이":4968,"▁TV":4969,"▁1인당":4970,"▁익숙":4971,"▁상관없이":4972,"&D":4973,"~5":4974,"과학":4975,"보면":4976,"이블":4977,"정이":4978,"지자":4979,"해주는":4980,"▁있지":4981,"▁1시간":4982,"▁전염":4983,"▁전혀":4984,"▁가속":4985,"▁보이는":4986,"▁하반기":4987,"▁서류":4988,"▁오래":4989,"▁사용자가":4990,"▁노조":4991,"▁분류":4992,"▁때도":4993,"▁본인":4994,"▁이번에":4995,"▁연장하기로":4996,"▁응답자":4997,"▁유지할":4998,"▁곳에서":4999,"(COVID-19":5000,"▁워크플":5001,"▁52시간":5002,"스러운":5003,"LG":5004,"SJ":5005,"▁납":5006,"▁을":5007,"문화를":5008,"비가":5009,"성은":5010,"억원을":5011,"자산":5012,"점,":5013,"책을":5014,"트너":5015,"▁전후":5016,"▁등장":5017,"▁가진":5018,"▁그냥":5019,"▁임금을":5020,"▁56":5021,"▁분위":5022,"▁동의":5023,"▁설립":5024,"▁가능성을":5025,"▁증상이":5026,"▁제공할":5027,"▁체계를":5028,"▁사태에":5029,"▁전환했다.":5030,"▁수준을":5031,"▁문제는":5032,"▁화상회의를":5033,"▁평가를":5034,"▁24일부터":5035,"▁언급":5036,"▁낮추":5037,"▁쓰고":5038,"▁최고의":5039,"▁방법을":5040,"▁LG전자":5041,"18":5042,"~4":5043,"됐다고":5044,"래픽":5045,"시킬":5046,"이오":5047,"확진":5048,"▁\"직원":5049,"▁없었다.":5050,"▁43":5051,"▁5명":5052,"▁시행을":5053,"▁집안":5054,"▁활발":5055,"▁앞장":5056,"▁금융당국":5057,"(10":5058,"▁평가했다.":5059,"▁측정":5060,"▁18일부터":5061,"(40":5062,"▁치료":5063,"▁축소":5064,"▁비슷한":5065,"▁벗어나":5066,"▁재택·원격근무":5067,"@kmi":5068,"YTN":5069,"@kmib.co.kr":5070,"ri":5071,"▁YTN":5072,"가량":5073,"부담":5074,"비,":5075,"시큐":5076,"인원":5077,"증상":5078,"▁이사":5079,"▁2000":5080,"▁일터":5081,"▁정신":5082,"▁38":5083,"▁상사":5084,"▁상대로":5085,"▁따라서":5086,"▁교수":5087,"▁필요하다.":5088,"▁75":5089,"▁원격근무에":5090,"▁결과가":5091,"▁결과에":5092,"▁절차":5093,"▁30일까지":5094,"▁고용노동부가":5095,"▁겪는":5096,"▁21일":5097,"수당을":5098,"▁A씨가":5099,"▁탑재":5100,"▁흐름":5101,"▁위메프":5102,"(9":5103,"▁황":5104,"개의":5105,"규칙":5106,"사설망":5107,"스가":5108,"▁직업":5109,"▁인공지능":5110,"▁정규직":5111,"▁자회사":5112,"▁자료를":5113,"▁공약":5114,"▁다녀":5115,"▁조례":5116,"▁단절":5117,"▁단위로":5118,"▁방역당국":5119,"▁가족돌봄":5120,"▁넘게":5121,"ance":5122,"▁토론":5123,"▁재확산에":5124,"▁거주하는":5125,"으나,":5126,"··":5127,"▁똑":5128,"▁쪽":5129,"인가":5130,"재난":5131,"지막":5132,"통화":5133,"하나":5134,"▁일단":5135,"▁인센티브":5136,"▁정확":5137,"▁다소":5138,"▁'20":5139,"▁높이":5140,"▁매장":5141,"▁확대를":5142,"▁10년":5143,"▁변호":5144,"▁대해서도":5145,"▁진행하는":5146,"▁방식이":5147,"▁역학":5148,"▁것이란":5149,"▁청소":5150,"▁강화하고":5151,"▁작은":5152,"▁시장을":5153,"▁찾는":5154,"▁26일부터":5155,"▁지적이":5156,"▁도움을":5157,"▁커뮤니티":5158,"▁풀이":5159,"▁삭감":5160,"▁듣":5161,"다보니":5162,"분에":5163,"앵커":5164,"온라인":5165,"테리어":5166,"학과":5167,"▁확실":5168,"▁자금":5169,"▁3회":5170,"▁상업":5171,"▁업무는":5172,"▁근무제":5173,"▁65":5174,"▁감염이":5175,"▁출근하고":5176,"▁접수":5177,"▁관련한":5178,"▁후에도":5179,"▁종목":5180,"▁명의":5181,"▁연장했다.":5182,"▁중심의":5183,"▁급증했다.":5184,"▁앞으로도":5185,"▁혼란":5186,"▁비교해":5187,"▁벌어":5188,"▁전문가들은":5189,"▁가까운":5190,"▁가까이":5191,"▁멈":5192,"므로":5193,"제어":5194,"▁이처럼":5195,"▁2학년":5196,"▁가지고":5197,"▁한번":5198,"▁내다":5199,"이라면":5200,"▁없다고":5201,"▁소송":5202,"▁위해서다.":5203,"▁반복":5204,"▁중소기업에":5205,"▁채팅":5206,"▁PC에":5207,"▁1년간":5208,"▁최소화하기":5209,"▁나오는":5210,"▁불과했다.":5211,"다'고":5212,"▁지하철":5213,"▁CNBC":5214,"▁캠페인":5215,"▁누구나":5216,"▁지식산업":5217,"~20":5218,"▁델":5219,"▁쏟":5220,"▁짜":5221,"▁획":5222,"게임":5223,"민국":5224,"었던":5225,"이며":5226,"일은":5227,"일자리":5228,"조원":5229,"하라고":5230,"해온":5231,"▁재택근무도":5232,"▁인간":5233,"▁기업에서":5234,"▁업무상":5235,"▁있는지":5236,"▁지난주":5237,"▁국제":5238,"▁바꿔":5239,"▁증권":5240,"▁진행한다.":5241,"▁산재":5242,"▁순으로":5243,"▁최소한":5244,".1%),":5245,"▁힘을":5246,"▁피해를":5247,"▁악성":5248,"(Work":5249,"▁취약한":5250,"▁그래서":5251,"▁압박":5252,"▁맞춤형":5253,"21":5254,"▁쌓":5255,"▁웨":5256,"▁잔":5257,"기구":5258,"블릿":5259,"상은":5260,"책임":5261,"▁신고":5262,"▁내렸다.":5263,"▁4개":5264,"▁추후":5265,"▁불구":5266,"▁줄일":5267,"▁협약":5268,"▁기간이":5269,"▁산하":5270,"▁절약":5271,"▁거리두기를":5272,"▁구축을":5273,"▁응답은":5274,"▁협업을":5275,"▁속에서":5276,"▁팀즈":5277,"▁접촉한":5278,"라이브":5279,"▁의무적으로":5280,"▁희망하는":5281,"시키는":5282,"▁점심시간":5283,"스럽게":5284,"▁봉쇄":5285,"▁지식산업센터":5286,"us":5287,"”라며":5288,"▁띄":5289,"▁빅":5290,"만족":5291,"민주당":5292,"스의":5293,"였던":5294,"위는":5295,"유출":5296,"▁지출":5297,"▁2개":5298,"▁나왔":5299,"▁원을":5300,"▁없고":5301,"▁해석":5302,"▁55":5303,"▁높다.":5304,"▁재정":5305,"회의에서":5306,"▁증가하는":5307,"▁90":5308,"▁못하고":5309,"▁외부에서":5310,"근로자":5311,"▁독려":5312,"▁불가피한":5313,"▁수당을":5314,"▁혹은":5315,"▁국민의힘":5316,"(O":5317,"29":5318,"▁y":5319,"▁◀":5320,"▁밤":5321,"▁찍":5322,"기,":5323,"네트":5324,"센트":5325,"수준":5326,"아차":5327,"액을":5328,"음을":5329,"필수":5330,"했다”며":5331,"혔다.":5332,"▁보수":5333,"▁코로나19(COVID-19":5334,"▁“앞으로":5335,"▁주식":5336,"▁하며":5337,"▁구입":5338,"▁없애":5339,"▁선도":5340,"▁도입할":5341,"▁근로자는":5342,"▁재계":5343,"▁실시한다고":5344,"▁좋음":5345,"▁중소벤처기업":5346,"▁이용한":5347,"▁당장":5348,"▁조치했다.":5349,"▁관리를":5350,"▁시작된":5351,"▁프로세":5352,"(15":5353,"▁IT기업":5354,"▁지속가능":5355,".3%),":5356,"▁절반이":5357,"▁28일까지":5358,"▁MZ세대":5359,"▁표준":5360,"▁동일하게":5361,"▁본격화":5362,"(R":5363,"26":5364,"ing":5365,"▁믿":5366,"기고":5367,"다,":5368,"인으로":5369,"조합":5370,"하다”고":5371,"▁대리":5372,"▁1명은":5373,"▁시장은":5374,"▁중견기업":5375,"▁관광":5376,"▁내가":5377,"▁도심":5378,"▁49":5379,"▁지원하기":5380,"▁줄었":5381,"▁발생하지":5382,"▁조치는":5383,"▁방식이다.":5384,"▁올해는":5385,"▁노동자가":5386,"▁중소기업은":5387,"생활균형":5388,"▁완전":5389,"▁100대":5390,"▁인증을":5391,"▁몰입":5392,"(VPN":5393,"▁고위험":5394,"가상":5395,"같은":5396,"겼다.":5397,"만의":5398,"시하는":5399,"신청":5400,"일)":5401,"점에":5402,"플랫폼":5403,"▁보낸":5404,"▁자리를":5405,"▁3차":5406,"▁상장":5407,"▁근무형태":5408,"▁주재":5409,"▁유도":5410,"▁모여":5411,"▁실질":5412,"▁국무":5413,"▁마지막":5414,"▁예약":5415,"▁많음":5416,"▁추정":5417,"▁도입하고":5418,"▁사무실이":5419,"▁달하는":5420,"▁돌파":5421,"▁제공해":5422,"▁줄이기":5423,"▁발생하는":5424,"▁간담":5425,"▁시스템에":5426,"▁신청한":5427,"▁행사를":5428,"▁나타났":5429,"▁일부를":5430,"▁여성이":5431,"▁효율적":5432,"(14":5433,"(29":5434,"▁컨택":5435,"▁끝난":5436,"▁촉진":5437,"▁원활한":5438,"▁메시지":5439,"▁겁니다.":5440,"(주":5441,"kim":5442,"▁빚":5443,"▁셋":5444,"▁펀드":5445,"됐습니다.":5446,"라면":5447,"만9":5448,"인데,":5449,"치단체":5450,"했으며":5451,"▁재택근무나":5452,"▁2분기":5453,"▁‘일":5454,"▁아주":5455,"▁업무지":5456,"▁육아휴직에":5457,"▁시행하기로":5458,"▁도입이":5459,"▁매니":5460,"▁반려":5461,"▁달간":5462,"▁화장":5463,"▁협의":5464,"▁직장인들이":5465,"▁있어야":5466,"▁생각이":5467,"▁화상회의,":5468,"▁격려":5469,"▁완전히":5470,"▁합의":5471,"▁건물을":5472,"▁반면,":5473,"뉴스1":5474,"▁놓고":5475,"사진=":5476,"▁빨리":5477,"자동차":5478,"48":5479,"’(3":5480,"▁액":5481,"가구":5482,"구역":5483,"싱턴":5484,"언택트":5485,"지급":5486,"▁이재":5487,"▁직원도":5488,"▁업무효율":5489,"▁출장을":5490,"▁감안":5491,"▁지원해":5492,"▁확산하면서":5493,"▁진짜":5494,"▁필요성이":5495,"▁실시했다.":5496,"▁임직원들의":5497,"▁권한":5498,"▁새로":5499,"▁여성은":5500,"▁파일":5501,"▁월급":5502,"▁롯데그룹":5503,"▁롯데쇼핑":5504,"▁삶을":5505,"▁매출은":5506,"▁높아지고":5507,"▁방지하기":5508,"▁애플리케이션":5509,"▁29일":5510,"▁알서포트는":5511,"▁통계청":5512,"▁키우는":5513,"▁끌어":5514,"▁한시적으로":5515,"'와":5516,"’과":5517,"겠다고":5518,"기기":5519,"대학":5520,"동을":5521,"수업":5522,"심히":5523,"종의":5524,"주근":5525,"진단":5526,"▁3명":5527,"▁회장":5528,"▁연락":5529,"▁47":5530,"▁강의":5531,"▁재판":5532,"▁급속":5533,"▁9시":5534,"▁관련된":5535,"▁워킹":5536,"▁관리가":5537,"▁IB":5538,"▁대응할":5539,"▁물류":5540,"▁여성가족":5541,"▁크다.":5542,"▁마련했다.":5543,"스트리트":5544,"▁음식":5545,"▁브리핑":5546,"▁사이에":5547,"▁갈등":5548,"▁친환경":5549,"▁신한은행":5550,"스마트워크":5551,"▁이야기":5552,"▁보편화":5553,"(E":5554,"ss":5555,"▁숨":5556,"▁쇼핑":5557,"▁뿐만":5558,"▁빌딩":5559,"개사":5560,"까?":5561,"남성":5562,"네요.":5563,"대화":5564,"더니":5565,"데스크":5566,"령사회":5567,"분을":5568,"사태":5569,"응답":5570,"자기":5571,"자료":5572,"제한":5573,"▁이중":5574,"▁이탈":5575,"▁수능":5576,"▁전일":5577,"▁코로나로":5578,"▁조항":5579,"▁출연":5580,"▁41":5581,"▁발의":5582,"▁63":5583,"▁단지":5584,"▁달성":5585,"▁10만":5586,"▁검색":5587,"▁효율성":5588,"▁준다.":5589,"▁11월":5590,"▁적극적인":5591,"▁부모의":5592,"▁경험한":5593,"▁규모의":5594,"▁용산":5595,"▁병원":5596,"▁인식이":5597,"▁출입을":5598,"▁근무시간을":5599,"▁“이번":5600,"▁얼마나":5601,"▁암호화":5602,"주근접":5603,"(이":5604,"ct":5605,"▁옆":5606,"▁케":5607,"결과":5608,"곳을":5609,"되자":5610,"병원":5611,"보드":5612,"심각":5613,"올해":5614,"이며,":5615,"제와":5616,"해왔":5617,"▁등이다.":5618,"▁위원":5619,"▁공포":5620,"▁기업용":5621,"▁따로":5622,"▁오픈":5623,"▁지원에":5624,"▁도입한다.":5625,"만원,":5626,"▁전환을":5627,"▁문제로":5628,"▁일본의":5629,"▁워라밸을":5630,"▁충족":5631,"▁페이스북은":5632,"억원으로":5633,"▁태블릿":5634,"▁일·가정":5635,"▁퇴직":5636,"▁둘째":5637,"▁앉아":5638,"▁와이":5639,"▁랜섬웨어":5640,"52":5641,"79":5642,"SK":5643,"▁n":5644,"▁봤":5645,"▁헌":5646,"▁별로":5647,"로움":5648,"망에":5649,"물을":5650,"부의":5651,"사옥":5652,"율을":5653,"착한":5654,"▁사랑":5655,"▁사흘":5656,"▁말한다.":5657,"▁생후":5658,"▁지원사업":5659,"▁경우는":5660,"▁앞두고":5661,"▁맞추":5662,"▁기간에":5663,"▁직장인은":5664,"▁절대":5665,"▁모두가":5666,"▁응답했다.":5667,"▁트래픽":5668,"▁수준이다.":5669,"▁필수인력을":5670,"▁기존에":5671,"▁지침에":5672,"▁자체가":5673,"▁무엇보다":5674,"▁워크플레이스":5675,"4일":5676,"76":5677,"기능":5678,"리후":5679,"으니":5680,"주가":5681,"첨단":5682,"홈쇼핑":5683,"화에":5684,"▁전송":5685,"▁“직원":5686,"기업은":5687,"▁국방":5688,"▁예측":5689,"▁대상이다.":5690,"▁SW":5691,"▁이상을":5692,"▁점점":5693,"▁대응하기":5694,"▁요소":5695,"▁콜센터에서":5696,"▁현재까지":5697,"▁PC를":5698,"▁있으나":5699,"▁하나의":5700,"▁형태의":5701,"▁소통을":5702,"▁근로시간을":5703,"▁로그":5704,"▁비중을":5705,"▁자리잡":5706,"▁우수한":5707,"▁기본계획":5708,"▁처리할":5709,"▁즉각":5710,"▁작업을":5711,"▁긍정적":5712,"▁능력":5713,"▁더불어민주당":5714,"▁최고경영자(CEO)는":5715,"고용평등법":5716,"리후생":5717,"16":5718,"BS":5719,"~8":5720,"·출산":5721,"▁굳":5722,"▁궁":5723,"되고,":5724,"부산":5725,"실에서":5726,"엑스":5727,"조로":5728,"지금":5729,"투어":5730,"▁재택근무하는":5731,"▁대기":5732,"▁1층":5733,"▁전세계":5734,"▁한도":5735,"▁자영업":5736,"▁상호":5737,"▁회장이":5738,"▁근본":5739,"▁이용자":5740,"▁늘어났다.":5741,"▁법적":5742,"▁150":5743,"▁기존의":5744,"▁기능이":5745,"▁인사담당":5746,"▁하나로":5747,"▁만족도가":5748,"▁테크":5749,"▁그렇게":5750,"▁퇴사":5751,"42":5752,"is":5753,"ion":5754,"▁a":5755,"▁펼":5756,"겠지만":5757,"마스크":5758,"머스":5759,"임신":5760,"트를":5761,"협업":5762,"▁이행":5763,"▁이태원":5764,"▁등과":5765,"▁제어":5766,"▁39":5767,"▁근무한":5768,"▁육아휴직자의":5769,"이라면서":5770,"▁소셜":5771,"▁강릉":5772,"▁2020":5773,"▁선임":5774,"▁60%":5775,"▁운영에":5776,"▁저렴":5777,"▁워싱턴":5778,"거나,":5779,"▁공무원은":5780,"▁파트너":5781,"▁약속":5782,"▁곳이":5783,"(27":5784,"▁사업장의":5785,"지원센터":5786,"정보통신":5787,"▁접속할":5788,"▁첫째":5789,"▁현장에서":5790,"▁수행할":5791,"▁지금까지":5792,"▁상당히":5793,"▁31일":5794,"▁의사소통":5795,"▁공지했다.":5796,"청사에서":5797,"▁하이브리드":5798,"▁움직임":5799,"&G":5800,"’라는":5801,"구청":5802,"기적으로":5803,"받은":5804,"순환":5805,"식품":5806,"이란":5807,"인과":5808,"전략":5809,"차이":5810,"화가":5811,"▁가전":5812,"▁일정을":5813,"▁보너스":5814,"▁인테리어":5815,"▁‘아빠":5816,"▁코로나19를":5817,"▁나올":5818,"▁회원":5819,"▁확산되고":5820,"▁현지":5821,"▁거부":5822,"▁예전":5823,"▁증상":5824,"▁시간은":5825,"▁이상으로":5826,"▁반대":5827,"▁줄었다.":5828,"▁줄이고":5829,"▁간단":5830,"▁임직원은":5831,"▁대응을":5832,"▁직원들에":5833,"▁효율을":5834,"▁법안":5835,"▁공간에":5836,"▁장기적으로":5837,".6%로":5838,"alance":5839,"▁떠오":5840,"▁실시간으로":5841,"▁외출을":5842,"▁갖추고":5843,"▁순차적으로":5844,"’도":5845,"▁美":5846,"▁겹":5847,"▁뭐":5848,"공장":5849,"방안":5850,"시스코":5851,"이면":5852,"조직":5853,"조차":5854,"하라는":5855,"한다":5856,"▁전화를":5857,"▁아래":5858,"▁최악":5859,"▁'일":5860,"▁그만":5861,"▁없다”고":5862,"▁의원이":5863,"▁받게":5864,"▁사무공간":5865,"▁성능":5866,"▁73":5867,"▁판결":5868,"▁사람들은":5869,"▁편성":5870,"▁투자를":5871,"▁추진한다.":5872,"(28":5873,"▁개선을":5874,"▁생활의":5875,"▁방안도":5876,"▁잡코리아":5877,"▁통신사":5878,"▁순환근무":5879,"▁위험을":5880,"▁주목받고":5881,"▁포스코는":5882,"▁느끼는":5883,"▁체제에":5884,"▁일환으로":5885,"(T":5886,"4차":5887,"▁딱":5888,"▁썼":5889,"▁엘":5890,"도와":5891,"배구조":5892,"승민":5893,"워킹":5894,"의료":5895,"이용":5896,"하다\"고":5897,"협약":5898,"화점":5899,"▁2~3":5900,"▁소규모":5901,"▁강요":5902,"▁더해":5903,"▁추천":5904,"▁매달":5905,"▁복합":5906,"▁복리후생":5907,"▁발생해":5908,"▁규제":5909,"▁대표적인":5910,"▁생각을":5911,"▁CJ":5912,"▁해당하는":5913,"▁연봉이":5914,"▁문서를":5915,"▁혼잡":5916,"▁소비자":5917,"▁보내는":5918,"▁나서고":5919,"▁현황을":5920,"▁사전에":5921,"유연근무":5922,"~~":5923,"리포":5924,"만으로":5925,"시의":5926,"식이":5927,"일에":5928,"정한":5929,"카카오":5930,"토리":5931,"하더라도":5932,"▁직주근접":5933,"▁가치를":5934,"▁한달":5935,"▁조기":5936,"▁유명":5937,"▁유사":5938,"▁모르":5939,"▁위해서":5940,"▁4만":5941,"▁높이고":5942,"▁성남":5943,"▁사업은":5944,"▁달러":5945,"▁10시":5946,"▁초등":5947,"▁명을":5948,"▁시작으로":5949,"▁참가":5950,"▁비대면으로":5951,"▁공무원이":5952,"▁월스트리트":5953,"▁수준이":5954,"(11":5955,"▁적용해":5956,"▁본사와":5957,"▁성과급":5958,"▁용인":5959,"▁3개월간":5960,"명)보다":5961,"▁기회가":5962,"▁받는다.":5963,"▁협력사":5964,"▁주장했다.":5965,"공공기관":5966,"ay":5967,"”...":5968,"▁#":5969,"▁습":5970,"▁윈":5971,"▁히":5972,"▁&#39;":5973,"결재":5974,"모임":5975,"사고":5976,"심을":5977,"프란":5978,"▁이름":5979,"▁이스트":5980,"▁수혜":5981,"▁직종":5982,"▁확충":5983,"▁정치":5984,"▁자발":5985,"▁“일":5986,"▁“코로나":5987,"▁근무지":5988,"▁\"일":5989,"▁주도":5990,"▁신동":5991,"▁도구":5992,"다\"는":5993,"▁감염을":5994,"▁대한민국":5995,"▁출근할":5996,"▁운영한다.":5997,"▁사람들":5998,"▁이어지고":5999,"만원으로":6000,"▁배포":6001,"▁대응에":6002,"▁작용":6003,"▁공간이":6004,"▁개발한":6005,".4%가":6006,"▁선택해":6007,"▁메신저,":6008,"▁장소에서":6009,"▁“코로나19로":6010,"▁비교하면":6011,"▁농촌":6012,"▁의원실":6013,"▁답변이":6014,"▁기획재":6015,"▁출생아":6016,"▁풀이된다.":6017,"리포니아":6018,"@kyung":6019,"ir":6020,"’이라는":6021,"▁뒷":6022,"▁컸":6023,"▁헬":6024,"개인":6025,"건강":6026,"공사는":6027,"달라고":6028,"로그":6029,"바이스":6030,"베이":6031,"소독":6032,"시켰":6033,"자들에게":6034,"저널":6035,"전환":6036,"정규직":6037,"▁이들이":6038,"▁수집":6039,"▁1~2":6040,"▁시급":6041,"▁일의":6042,"▁중순":6043,"▁인기":6044,"▁“그":6045,"▁“아":6046,"▁주의":6047,"▁'사회적":6048,"▁유형":6049,"▁지원이":6050,"▁마크":6051,"▁계기가":6052,"▁장관":6053,"▁대상이":6054,"▁서비스가":6055,"▁사무실과":6056,"▁돌보":6057,"▁최근에는":6058,"▁계획이":6059,"▁강화된":6060,"▁열심히":6061,".8%),":6062,"▁28일부터":6063,"▁의견이":6064,"ang.com":6065,"▁민간기업":6066,"▁별도로":6067,"이었던":6068,"▁신한은행은":6069,"▁질문에":6070,"▁가족친화인증":6071,"▁목소리가":6072,"기준법":6073,"hyang.com":6074,"프란시스코":6075,"@kyunghyang.com":6076,"·기":6077,"▁는":6078,"▁욕":6079,"▁훈":6080,"감소":6081,"대본":6082,"동에":6083,"되며,":6084,"많은":6085,"매우":6086,"모레":6087,"아웃":6088,"진료":6089,"처리":6090,"프레":6091,"현장":6092,"으로부터":6093,"▁기한":6094,"▁사망":6095,"▁전통":6096,"▁인도":6097,"▁공감":6098,"▁“회사":6099,"▁최신":6100,"▁64":6101,"▁같다.":6102,"▁서비스는":6103,"▁SKT":6104,"▁고용부는":6105,"▁휴업":6106,"▁워라":6107,"▁직장인들의":6108,"▁금융감독":6109,"▁LG화학":6110,".5%),":6111,"▁대기업의":6112,"▁열어":6113,"▁12일부터":6114,"▁마련한":6115,"(30":6116,"▁시장의":6117,"▁내용이":6118,"▁13일까지":6119,"▁16일부터":6120,"▁오피스를":6121,"▁참여를":6122,"시스템을":6123,"▁장기화에":6124,"▁연차를":6125,"▁육아휴직급여를":6126,"▁귀가":6127,"▁'재택근무'":6128,"▁불가능한":6129,"▁공백을":6130,"(AI":6131,"·경북":6132,"▁간접노무":6133,"▁내다봤다.":6134,"==":6135,"S)":6136,"SA":6137,"번호":6138,"비상":6139,"조정":6140,"합뉴스":6141,"했다":6142,"힌다.":6143,"▁기사":6144,"▁사후":6145,"▁수시로":6146,"▁인텔":6147,"▁‘육아휴직":6148,"▁하더라도":6149,"▁여기":6150,"▁지원,":6151,"▁바라":6152,"▁높이기":6153,"▁69":6154,"센터를":6155,"▁편안":6156,"▁생산직":6157,"▁전체를":6158,"▁직원들도":6159,"▁효율성이":6160,"▁메모":6161,"▁허리":6162,"▁250만원":6163,"▁생각하는":6164,"(18":6165,"▁형태를":6166,"▁사례를":6167,"▁극대화":6168,"▁사이에서":6169,"▁필요하다고":6170,"▁항공":6171,"▁밀집도를":6172,"▁침해":6173,"▁갑작":6174,"▁베이":6175,"▁집단감염이":6176,"제공=":6177,"▁불이익을":6178,"--------":6179,"▁인터뷰에서":6180,"▁2025년까지":6181,"▁토로했다.":6182,"▁캘리포니아":6183,"▁기저질환":6184,"▁대변인은":6185,"▁가속화":6186,"▁불구하고":6187,"\"라며":6188,"·퇴근":6189,"▁렌":6190,"▁짧":6191,"▁텐":6192,"개를":6193,"곳에서":6194,"관광":6195,"급적":6196,"등록":6197,"부,":6198,"외부":6199,"원(":6200,"자치단체":6201,"적을":6202,"파크":6203,"화상":6204,"▁이끌":6205,"▁기다":6206,"▁중에는":6207,"▁코로나가":6208,"▁한정":6209,"▁보이지":6210,"▁기업인":6211,"▁‘업무":6212,"▁\"회사":6213,"▁유입":6214,"▁있는데,":6215,"▁내고":6216,"▁내놨다.":6217,"▁안심":6218,"▁동시":6219,"▁늘리는":6220,"▁높였다.":6221,"▁SNS":6222,"회의소":6223,"▁서울시는":6224,"▁조치에":6225,"▁되면서":6226,"▁효율이":6227,"▁150만원":6228,"▁심사":6229,"▁유지하고":6230,"▁시장에":6231,".9%),":6232,"지원금":6233,"▁구글이":6234,"▁돌입한다.":6235,"▁국민연금":6236,"▁떨어져":6237,"▁혁신을":6238,"▁어렵다는":6239,"▁격상에":6240,"▁심각한":6241,"▁이내에":6242,"▁촉구":6243,"▁선호하는":6244,"▁품질":6245,"__":6246,"’에서":6247,"▁꿈":6248,"▁러":6249,"▁칼":6250,"▁핀":6251,"라스":6252,"릭스":6253,"어진":6254,"있음":6255,"즈는":6256,"집에서":6257,"해질":6258,"▁이로":6259,"▁가는":6260,"▁제정":6261,"▁\"그":6262,"▁조절":6263,"▁하던":6264,"▁유일":6265,"▁58":6266,"▁확산될":6267,"▁국회의":6268,"▁이상은":6269,"▁재미":6270,"▁점에서":6271,"▁체결":6272,"▁방역수":6273,"▁직장인들은":6274,"▁노동자의":6275,"▁LG디":6276,"▁트윈타워":6277,"▁생각보다":6278,"▁공공부문":6279,"▁사업장에":6280,"▁세계적으로":6281,"▁플랫폼을":6282,"▁최소화하고":6283,"▁소프트캠프":6284,"▁활성화를":6285,"▁장소에":6286,"▁중앙재난":6287,"▁있었던":6288,"▁폭증":6289,"▁가상사설망":6290,"▁고용보험법":6291,"▁수평적인":6292,"▁샌프란시스코":6293,"(B":6294,"work":6295,"’와":6296,"▁객":6297,"▁윗":6298,"가스":6299,"발전":6300,"사인":6301,"시킨":6302,"작용":6303,"중에":6304,"출생":6305,"판정을":6306,"화,":6307,"▁수용":6308,"▁위생":6309,"▁3배":6310,"▁\"앞으로":6311,"▁다운":6312,"▁고정":6313,"▁도와":6314,"▁감독":6315,"▁현상이":6316,"▁66":6317,"▁우리는":6318,"▁돌보는":6319,"▁무급":6320,"▁실시할":6321,"▁2014년":6322,".5%,":6323,"▁고객상담":6324,"▁현재는":6325,"(12":6326,"(17":6327,"▁격차":6328,"(35":6329,".9%,":6330,"▁곳에":6331,"▁선택적":6332,"▁100명":6333,"▁KT&G":6334,"▁외부인":6335,"▁자율적":6336,"▁복귀를":6337,"▁예상된다.":6338,"▁전자금융":6339,"▁환자가":6340,"▁그렇지":6341,"▁NHN은":6342,"▁대법원":6343,"▁조언했다.":6344,"▁수치다.":6345,"'에서":6346,"28":6347,"~10":6348,"▁F":6349,"▁곤":6350,"▁맥":6351,"▁슈":6352,"▁앵커":6353,"갤럭":6354,"데요.":6355,"리기":6356,"부와":6357,"시픽":6358,"일로":6359,"▁사이트":6360,"▁직급":6361,"▁일ᆞ":6362,"▁인기를":6363,"다”라고":6364,"▁5년":6365,"▁차량":6366,"▁금요일":6367,"▁올려":6368,"▁확대했다.":6369,"▁달한다.":6370,"▁무관":6371,"▁관계없이":6372,"▁김정":6373,"▁협조":6374,"▁발생했다.":6375,"▁취미":6376,"▁기준을":6377,"▁30대":6378,"▁근로자들의":6379,"▁구성원의":6380,"▁시장이":6381,"▁연구원은":6382,"▁참여할":6383,"▁건강과":6384,"▁23일까지":6385,"▁감소했다.":6386,"▁토대로":6387,"▁이동통신":6388,"(56":6389,"▁부족한":6390,"▁덜어":6391,"▁문의가":6392,"지침을":6393,"▁근태관리":6394,"▁이외에도":6395,"ome":6396,"▁논란이":6397,"▁쿠팡":6398,"▁묻는":6399,"▁과학기술":6400,"▁탓에":6401,"▁앞장서":6402,"▁월스트리트저널":6403,"▁중앙재난안전":6404,"es":6405,"▁땐":6406,"▁콜":6407,"▁흔":6408,"결정":6409,"공동":6410,"구글":6411,"리온":6412,"링크":6413,"받지":6414,"브로드":6415,"세에":6416,"액은":6417,"지와":6418,"치지":6419,"해지고":6420,"회계":6421,"회에서":6422,"▁사생활":6423,"▁1천":6424,"▁2명":6425,"▁전기":6426,"▁아모레":6427,"▁주부터":6428,"▁내렸":6429,"▁내에":6430,"▁개방":6431,"▁5G":6432,"▁발맞":6433,"▁시행했다.":6434,"▁때보다":6435,"▁차원의":6436,"▁성격":6437,"▁대해서":6438,"▁임직원에게":6439,"▁진행했다.":6440,"▁대응해":6441,"▁역량":6442,"▁과제":6443,"000원":6444,"▁지급한다.":6445,"▁예정”이라고":6446,"▁공무원과":6447,"▁감염증(코로나19)이":6448,"▁감염증(코로나19)으로":6449,"▁수요를":6450,".9%로":6451,"프라이즈":6452,"▁대구시":6453,"▁긴장":6454,"▁방문한":6455,"▁단계로":6456,"▁테마":6457,"▁표현":6458,"▁귀국":6459,"▁이제는":6460,"▁공백이":6461,"갤럭시":6462,"(N":6463,"la":6464,"lou":6465,"ᅲᅲ":6466,"▁○":6467,"▁빼":6468,"▁셀":6469,"▁싱":6470,"▁캡":6471,"▁봤다.":6472,"감한":6473,"개선":6474,"군은":6475,"도에":6476,"수요":6477,"이어":6478,"처는":6479,"카페":6480,"합니다":6481,"했기":6482,"협의회":6483,"회가":6484,"히는":6485,"▁있다”면서":6486,"▁사건":6487,"▁것\"":6488,"▁한다”며":6489,"육아기":6490,"▁공모":6491,"▁근무로":6492,"▁유승민":6493,"▁발급":6494,"▁원격·재택근무":6495,"▁분명":6496,"▁예를":6497,"▁높인":6498,"▁활용하고":6499,"▁관리자":6500,"▁물리적":6501,"▁부서별로":6502,"(36":6503,".4%로":6504,"▁뉴딜":6505,"▁3월부터":6506,"▁에너지":6507,"▁누릴":6508,"▁누적":6509,"▁다만,":6510,"▁선정된":6511,"근로복지":6512,"▁분야에서":6513,"▁설문조사를":6514,"▁고민이":6515,"▁지시했다.":6516,"▁자동으로":6517,"▁저출산·고":6518,"▁철저한":6519,"▁사진=":6520,"▁라이프":6521,"생산성":6522,"▁공직사회":6523,"수도권":6524,"SDS":6525,"▁가상사설망(VPN":6526,"브로드밴":6527,"cm":6528,"▁팩":6529,"국내":6530,"리적인":6531,"마크":6532,"바로":6533,"션을":6534,"실에":6535,"액이":6536,"웠다.":6537,"이사":6538,"인프라":6539,"임직원":6540,"점검":6541,"조치를":6542,"지기":6543,"체계를":6544,"터프라이즈":6545,"퍼시픽":6546,"협력":6547,"▁2,":6548,"▁일어나":6549,"▁한다\"며":6550,"▁인건":6551,"▁주관":6552,"▁'리모트":6553,"▁그간":6554,"▁없음.":6555,"▁말고":6556,"▁51":6557,"▁54":6558,"▁만전을":6559,"▁보안이":6560,"▁포기":6561,"▁SK브로드밴":6562,"▁솔루션으로":6563,"▁한국의":6564,"▁관리할":6565,"▁처우":6566,"▁이번이":6567,"▁콜센터를":6568,"▁했던":6569,"▁강화했다.":6570,"▁구축해":6571,"▁피차이":6572,"▁24시간":6573,".6%),":6574,"▁내용은":6575,"▁뉴노멀":6576,"▁고려한":6577,"▁대구·경북":6578,"▁느껴":6579,"▁시대를":6580,"▁에어":6581,"▁형태가":6582,"▁홈오피스":6583,"라이언":6584,"▁대체인력":6585,"▁엔지니어":6586,"▁테스트":6587,"▁애플은":6588,"시키고":6589,"상공회의소":6590,"▁가능하다는":6591,"▁숙박":6592,"▁자세한":6593,"▁구체적인":6594,"▁특징이다.":6595,"loud":6596,"'...":6597,"(19":6598,"3일":6599,"fn":6600,"pen":6601,"▁빌":6602,"▁싸":6603,"로지":6604,"미팅":6605,"신도시":6606,"어린":6607,"오후":6608,"임.":6609,"장에":6610,"주기":6611,"커머스":6612,"특히":6613,"혁명":6614,"▁이웃":6615,"▁가급적":6616,"▁것.":6617,"▁위기를":6618,"▁‘집":6619,"▁비판":6620,"▁조사를":6621,"▁연수":6622,"▁모색":6623,"▁않게":6624,"▁않다는":6625,"▁오랜":6626,"▁4개월":6627,"▁발언":6628,"▁지원금을":6629,"▁87":6630,"▁활용이":6631,"▁점도":6632,"▁대해선":6633,"▁줄이는":6634,"▁사람의":6635,"▁알아":6636,"▁클럽":6637,"▁미국에서":6638,"▁고객의":6639,"▁특히,":6640,"▁25%":6641,".2%),":6642,"▁SK텔레콤이":6643,"▁연구개발":6644,"▁ETF":6645,"▁살아":6646,"▁엄청":6647,"▁코리아":6648,"▁장소를":6649,"▁앱을":6650,"0년대":6651,"▁들어간다.":6652,"▁측면에서":6653,"▁코로나19(COVID-19)":6654,"▁컨택센터":6655,"▁기획재정부":6656,"DC":6657,"tu":6658,"▁f":6659,"▁낼":6660,"▁엠":6661,"▁죽":6662,"▁쾌":6663,"국가":6664,"남기":6665,"리오":6666,"만이":6667,"부에":6668,"사이트":6669,"상시":6670,"선택":6671,"어요.":6672,"위가":6673,"위에":6674,"유치":6675,"장소":6676,"져야":6677,"▁이노":6678,"▁있다\"면서":6679,"▁기타":6680,"▁대도시":6681,"▁1개월":6682,"▁직후":6683,"▁일은":6684,"▁‘아":6685,"▁아시아":6686,"▁내린":6687,"▁소요":6688,"▁5일까지":6689,"▁사용하고":6690,"▁시행령":6691,"▁근로기준법":6692,"▁성장을":6693,"▁세부":6694,"▁솔루션이다.":6695,"▁늘어났":6696,".5%로":6697,"▁중소기업이":6698,"▁새롭게":6699,"▁참여하는":6700,"▁눈길":6701,"▁엄격":6702,"연구원":6703,"▁전사적":6704,"▁뛰어":6705,"▁육성":6706,"▁마이크로소프트(M":6707,"▁KBS":6708,"▁부총리는":6709,"▁괴롭":6710,"▁셋째":6711,"▁매니저":6712,"(신종":6713,"@fn":6714,"ob":6715,"~12":6716,"▁c":6717,"▁다.":6718,"끼리":6719,"내고":6720,"단을":6721,"데이트":6722,"래도":6723,"명에서":6724,"무리":6725,"보육":6726,"수의":6727,"수응답":6728,"오고":6729,"채용":6730,"으로서":6731,"▁기기를":6732,"▁보좌":6733,"▁공략":6734,"▁주당":6735,"▁출·퇴근":6736,"다\"라며":6737,"▁4단계":6738,"▁생겨":6739,"▁생긴":6740,"▁분당":6741,"▁예고":6742,"▁성별":6743,"▁84":6744,"▁본사를":6745,"▁반일":6746,"▁포인트":6747,"▁효성":6748,"▁김지":6749,"▁제도는":6750,"▁사람을":6751,"▁솔루션이":6752,"▁조치로":6753,"▁신청하면":6754,"▁규정을":6755,"스크포":6756,"▁노동자는":6757,"▁게시":6758,"▁적용할":6759,"▁협업도":6760,"▁박정":6761,"▁교육을":6762,"▁식품":6763,"▁평가가":6764,"▁시장에서":6765,"▁전문기업":6766,"▁검토할":6767,"하려고":6768,"▁테이블":6769,"▁가상화":6770,"▁라인웍스":6771,"▁계약직":6772,"교육청은":6773,"www":6774,"▁금감원은":6775,"▁질병관리":6776,"@fnnews.com":6777,"op":6778,"~6":6779,"▁깔":6780,"▁색":6781,"▁칸":6782,"▁탐":6783,"▁틀":6784,"▁홀":6785,"▁웍스":6786,"검사를":6787,"공유":6788,"대는":6789,"란드":6790,"로도":6791,"모델":6792,"미디어":6793,"봐야":6794,"억달러":6795,"장비":6796,"졌다는":6797,"줘야":6798,"지에서":6799,"체제":6800,"최대":6801,"▁이벤":6802,"▁이밖에":6803,"▁기숙":6804,"▁지표":6805,"▁시리":6806,"▁시에도":6807,"▁한샘":6808,"▁정해진":6809,"▁\"최근":6810,"▁'아빠":6811,"▁그만큼":6812,"▁말이":6813,"▁확산되면서":6814,"▁현상":6815,"▁마주":6816,"▁근처":6817,"▁집으로":6818,"▁사업이다.":6819,"▁운영할":6820,"▁점이다.":6821,"▁체험":6822,"▁임직원들이":6823,"▁관리하는":6824,"▁직장인의":6825,"▁했지만":6826,"▁잘못":6827,"▁급여가":6828,"▁근로자들이":6829,".2%로":6830,"(24":6831,"▁16만":6832,"▁하나투어":6833,"▁비상상황":6834,"서비스를":6835,"▁방문해":6836,"▁돌입한":6837,"▁연차휴가":6838,"▁꼽힌다.":6839,"▁필요하다는":6840,"▁떠나":6841,"▁입장이다.":6842,"▁리더십":6843,"하이닉":6844,"▁롯데면세점은":6845,"▁덕분에":6846,"프로그램":6847,"▁일자리를":6848,"▁인공지능(AI":6849,"▁헬스":6850,"(상":6851,"1회":6852,"PS":6853,"P모":6854,"ver":6855,"▁억":6856,"▁찬":6857,"관,":6858,"구가":6859,"나마":6860,"도우":6861,"됐던":6862,"머니":6863,"미나":6864,"받아":6865,"세로":6866,"시스":6867,"예방":6868,"우리는":6869,"웨덴":6870,"증을":6871,"촬영":6872,"했으나":6873,"흡기":6874,"▁사장은":6875,"▁지장이":6876,"▁시점":6877,"▁“최근":6878,"▁방해":6879,"▁다중":6880,"▁주지":6881,"▁하거나":6882,"▁고충":6883,"▁개설":6884,"▁여름":6885,"▁강화를":6886,"▁의결":6887,"▁장시간":6888,"센터,":6889,"▁차이":6890,"▁대한항공":6891,"▁83":6892,"▁85":6893,"▁8만":6894,"▁필요할":6895,"▁정부서울":6896,"▁중소·":6897,"▁지역에서":6898,"▁역대":6899,"▁과장":6900,"000만":6901,"000억원":6902,"▁산정":6903,"▁회의에서":6904,"▁중소기업을":6905,"▁강화하는":6906,"▁조사에":6907,"▁구축할":6908,"▁삼성SDS":6909,"(16":6910,"(26":6911,"▁SK텔레콤,":6912,"▁상담원":6913,"▁느낀":6914,"▁이전보다":6915,"▁이달부터":6916,"▁단계적으로":6917,"▁DB":6918,"▁모습이다.":6919,"▁돈을":6920,"▁넷플":6921,"▁연속성을":6922,"▁개정안은":6923,"사항을":6924,"▁얘기다.":6925,"▁악성코":6926,"▁아모레퍼시픽":6927,"ic":6928,"ig":6929,"▁g":6930,"▁훌":6931,"기존":6932,"내는":6933,"대기업":6934,"된다는":6935,"로의":6936,"리,":6937,"문서":6938,"시차":6939,"실,":6940,"여명이":6941,"우고":6942,"자금":6943,"재인":6944,"지수":6945,"지의":6946,"했는데,":6947,"▁것처럼":6948,"▁업데이트":6949,"▁정비":6950,"▁경계가":6951,"▁근무와":6952,"▁비효율":6953,"▁원으로":6954,"▁받으면서":6955,"▁집합":6956,"▁집에서도":6957,"▁선진":6958,"▁남아":6959,"▁재무":6960,"▁무선":6961,"▁실시하기로":6962,"▁점은":6963,"▁지역으로":6964,"▁카드":6965,"▁못했다.":6966,"▁회의가":6967,"▁30만":6968,"▁안전과":6969,"▁급여는":6970,"▁199":6971,"▁목적":6972,"▁조직의":6973,"업계는":6974,"▁분석이다.":6975,"▁이하의":6976,"▁용이":6977,"▁환자":6978,"▁지금은":6979,"▁권장하고":6980,"▁항상":6981,"▁본격적으로":6982,"▁외국인":6983,"▁밀접접촉":6984,"▁프리미":6985,"▁챙겨":6986,"▁연말까지":6987,"▁JP모":6988,"▁Q.":6989,"▁적절한":6990,"▁급격히":6991,"▁신동빈":6992,"(월":6993,"~1":6994,"·여":6995,"▁까":6996,"▁맨":6997,"▁춘":6998,"개로":6999,"다'는":7000,"보가":7001,"비는":7002,"삼성":7003,"셧다운":7004,"애틀":7005,"인치":7006,"일수록":7007,"장애":7008,"층을":7009,"트는":7010,"해,":7011,"향후":7012,"회는":7013,"▁기부":7014,"▁1∼":7015,"▁일찍":7016,"▁한은":7017,"▁위탁":7018,"▁공정":7019,"▁모이는":7020,"▁생존":7021,"▁사용하면":7022,"▁예술":7023,"▁높게":7024,"▁경우에도":7025,"▁도입,":7026,"▁이상인":7027,"▁7월부터":7028,"▁확대한다.":7029,"▁줄이":7030,"▁저희":7031,"▁저출생":7032,"만원의":7033,"▁역량을":7034,"▁전환한":7035,"▁회의,":7036,"▁했고,":7037,"▁답답":7038,"▁가족의":7039,"▁총괄":7040,"▁안전하고":7041,"▁근로자에게":7042,"▁목적으로":7043,"▁이유가":7044,"▁지속적인":7045,"▁제품은":7046,"▁인력이":7047,"▁권고하고":7048,"▁홍남기":7049,"▁내년부터":7050,"▁장려금을":7051,"▁DaaS":7052,"30분":7053,"▁취업규칙":7054,"(WSJ":7055,"▁불가피하게":7056,"▁소개했다.":7057,"▁신속하게":7058,"▁강남구":7059,"▁넥슨은":7060,"▁마찬가지로":7061,"▁기초생활":7062,"▁전염병":7063,"'과":7064,"35":7065,"89":7066,"ro":7067,"ure":7068,"▁루":7069,"▁좁":7070,"▁털":7071,"▁ch":7072,"같이":7073,"관을":7074,"기정":7075,"대구":7076,"리한":7077,"사원":7078,"사장은":7079,"시를":7080,"유의":7081,"자원":7082,"장과":7083,"장기":7084,"지않":7085,"포츠":7086,"형수":7087,"▁사상":7088,"▁1월부터":7089,"▁전격":7090,"▁일선":7091,"▁일상이":7092,"▁중간":7093,"▁한계가":7094,"▁주가":7095,"▁주간":7096,"▁하지만,":7097,"▁하기로":7098,"▁나눔":7099,"▁유동":7100,"▁실업":7101,"▁발령":7102,"▁발송":7103,"▁대상을":7104,"▁스피":7105,"센터에서":7106,"▁단점":7107,"▁사업에":7108,"▁재해":7109,"▁증가할":7110,"▁들여":7111,"▁제도의":7112,"▁발생하고":7113,"▁솔루션은":7114,"▁프랑":7115,"▁신청이":7116,"▁모두에게":7117,"▁고객사":7118,"▁가족과":7119,"▁투명":7120,"▁속도를":7121,"▁형성":7122,".4%),":7123,"▁사업장을":7124,".7%로":7125,"▁규모는":7126,"▁타격을":7127,"▁선정됐다.":7128,"▁급증하고":7129,"▁독립":7130,"▁지시를":7131,"▁시범운영":7132,"▁목표로":7133,"▁미래에":7134,"▁담당하는":7135,"사무소":7136,"▁지방자치단체":7137,"경영자총":7138,"▁키우고":7139,"▁원칙적으로":7140,"▁즐길":7141,"▁적합한":7142,"▁분위기를":7143,"시큐리티":7144,"▁반려동":7145,"▁월스트리트저널(WSJ":7146,"'도":7147,"^^":7148,"mo":7149,"·육아":7150,"▁척":7151,"공백":7152,"구매":7153,"놓고":7154,"대의":7155,"드가":7156,"렉스":7157,"마저":7158,"실과":7159,"웨이":7160,"인재":7161,"취업":7162,"해보":7163,"▁수상":7164,"▁시키":7165,"▁2시간":7166,"▁2일까지":7167,"▁전수":7168,"▁전부터":7169,"▁보급":7170,"▁코로나19(신종":7171,"▁육아에":7172,"▁부부가":7173,"▁최형":7174,"▁조성을":7175,"▁나아가":7176,"▁구애":7177,"▁도전":7178,"▁실무":7179,"▁확산하고":7180,"▁마이":7181,"▁결재":7182,"▁결정을":7183,"▁6개":7184,"▁불러":7185,"에게도":7186,"▁서비스다.":7187,"▁출근한":7188,"▁출근해":7189,"▁좋고":7190,"▁때문입니다.":7191,"▁SK하이닉":7192,"▁임직원들에게":7193,"▁관리,":7194,"▁방식은":7195,"▁아니면":7196,"하면서도":7197,"▁디바이스":7198,"▁공간의":7199,"▁필수적인":7200,"▁플로우":7201,"▁향상을":7202,"(25":7203,"▁손해":7204,"▁막고":7205,"▁인력의":7206,"▁수도권을":7207,"▁소통이":7208,"▁태스크포":7209,"▁자신이":7210,"▁범위를":7211,"▁Work":7212,"▁남녀고용평등법":7213,"▁반응을":7214,"▁넷마블은":7215,"▁취지다.":7216,"▁최우선으로":7217,"▁보좌진":7218,"88":7219,"EC":7220,"MS":7221,"ife":7222,"▁v":7223,"가,":7224,"가사":7225,"가치":7226,"감도":7227,"곳은":7228,"느라":7229,"방향":7230,"성보호":7231,"씨가":7232,"에스":7233,"여명":7234,"포털":7235,"화한":7236,"▁대선":7237,"▁대안":7238,"▁수면":7239,"▁시·":7240,"에서만":7241,"에서다.":7242,"▁제고":7243,"▁코로나19와":7244,"▁근무제를":7245,"▁주력":7246,"▁조짐":7247,"▁않고,":7248,"▁해고":7249,"▁강소기업":7250,"▁노하우":7251,"▁확진...":7252,"▁67":7253,"▁6시":7254,"▁감염에":7255,"▁매체":7256,"▁8시":7257,"▁같아":7258,"▁10곳":7259,"▁입법":7260,"▁초반":7261,"▁못해":7262,"▁대기업과":7263,"▁예정\"이라고":7264,"▁총리는":7265,"▁수요기업":7266,"▁식사를":7267,"▁않는다는":7268,"▁사업장에서":7269,"▁전망이":7270,"▁만족도를":7271,"▁감소한":7272,"▁보도에":7273,"▁제조업체":7274,"▁장점이":7275,"▁차지하는":7276,"▁불편을":7277,"▁반영한":7278,"▁공개했다.":7279,"▁외국계":7280,"▁어디서든":7281,"▁밖에서":7282,"▁이루어":7283,"▁간편하게":7284,"장려금":7285,"▁델타":7286,"경영자총협회":7287,"▁쿡":7288,"▁됩니다.":7289,"건으로":7290,"구성":7291,"다시":7292,"드,":7293,"만에":7294,"복합":7295,"분이":7296,"사내":7297,"역을":7298,"일,":7299,"종합":7300,"퍼니":7301,"하되":7302,"하자는":7303,"행사":7304,"행을":7305,"▁지연":7306,"▁시중":7307,"▁가고":7308,"▁가량":7309,"▁정한":7310,"▁공지를":7311,"▁경총":7312,"▁근무방식":7313,"▁\"전":7314,"▁비정규직":7315,"▁나쁘":7316,"▁해커":7317,"▁발휘":7318,"▁어쩔":7319,"▁강한":7320,"▁사용자의":7321,"▁20일까지":7322,"▁만약":7323,"▁바꾼":7324,"▁특성을":7325,"▁직장을":7326,"▁직장에서":7327,"▁반환":7328,"▁확대에":7329,"▁데이":7330,"▁휴원":7331,"▁아니냐":7332,"▁대기업이":7333,"▁응답한":7334,"(13":7335,"▁교육,":7336,"▁속도가":7337,".8%로":7338,"(32":7339,"▁완벽":7340,"(23":7341,"▁인사혁신":7342,"▁느낄":7343,"▁정도가":7344,"▁영향이":7345,"▁만큼,":7346,"▁대부분이":7347,"▁드라이브":7348,"▁판단했다.":7349,"▁부문에서":7350,"▁\"코로나19로":7351,"▁이유로는":7352,"▁책임을":7353,"▁목표를":7354,"▁행복한":7355,"▁장애인":7356,"▁택배":7357,"▁R&D":7358,"▁얼굴을":7359,"▁최소한의":7360,"▁와이파이":7361,"어린이집":7362,"▁쾌적":7363,"·이":7364,"▁걷":7365,"▁굉":7366,"▁냉":7367,"과는":7368,"관에":7369,"나가":7370,"남녀":7371,"네트워크":7372,"든지":7373,"등포":7374,"방안을":7375,"법상":7376,"좋은":7377,"한테":7378,"▁기자가":7379,"▁지점":7380,"▁것”":7381,"▁일각":7382,"▁보지":7383,"▁보통":7384,"▁위주로":7385,"▁기업은행":7386,"▁\"아":7387,"▁다가":7388,"▁비자":7389,"00명을":7390,"▁연휴":7391,"▁생길":7392,"▁안에서":7393,"▁사용해":7394,"▁미친":7395,"▁회사와":7396,"▁영어":7397,"▁적이":7398,"▁도입에":7399,"▁스웨덴":7400,"▁가능하게":7401,"▁본인이":7402,"▁확대될":7403,"▁복잡":7404,"▁10인":7405,"▁김모":7406,"▁임직원들은":7407,"▁종업":7408,"▁IP":7409,"▁회의나":7410,"▁청구":7411,"▁파견":7412,"▁법무":7413,"▁출퇴근하는":7414,"▁학부모":7415,"▁리스크":7416,"▁기술이":7417,"▁언론":7418,"▁충격":7419,"▁질환":7420,"▁접속이":7421,"▁공유할":7422,"▁자유롭":7423,"▁14일부터":7424,"▁설치해":7425,"▁기대하고":7426,"▁나오지":7427,"▁상태를":7428,"▁꼽혔다.":7429,"▁“재택근무를":7430,"시키기":7431,"▁경쟁력을":7432,"▁항목":7433,"▁컨설팅을":7434,"▁고용노동부에":7435,"▁개학이":7436,"▁근무환경을":7437,"▁요청했다.":7438,"▁이메일을":7439,"▁유급휴가를":7440,"▁그래도":7441,"▁많았고,":7442,"▁현대모비스는":7443,"▁중기부는":7444,"▁솔직":7445,"자산운용":7446,"▁워킹맘":7447,"▁굉장":7448,"(-":7449,"ny":7450,"▁i":7451,"▁■":7452,"▁든":7453,"▁뽑":7454,"▁줬":7455,"▁촬영":7456,"개국":7457,"경북":7458,"나갈":7459,"널리":7460,"사례":7461,"우스":7462,"이든":7463,"있다.":7464,"중인":7465,"지배구조":7466,"체크":7467,"췄다.":7468,"트가":7469,"편집":7470,"하다”며":7471,"현실":7472,"▁1억":7473,"▁시애틀":7474,"▁제2":7475,"▁‘주":7476,"▁주제로":7477,"▁고도":7478,"▁연합뉴스":7479,"▁않습니다.":7480,"▁없다\"고":7481,"▁말을":7482,"▁5만":7483,"▁의향이":7484,"▁계산":7485,"▁계정":7486,"▁미치는":7487,"▁동아":7488,"▁밝혀":7489,"▁결제":7490,"▁68":7491,"▁불법":7492,"▁본다.":7493,"▁재량":7494,"▁운영해":7495,"▁환경과":7496,"▁데다":7497,"▁휴무":7498,"▁휴식을":7499,"만원에서":7500,"▁규칙":7501,"▁했다”고":7502,"▁수준에":7503,"▁적용하는":7504,"▁PC와":7505,"▁본사에서":7506,"▁일본에서":7507,"▁워라밸이":7508,"▁KT,":7509,"▁업계는":7510,"▁비상대책":7511,"▁우리가":7512,"▁높아졌다.":7513,"▁300명":7514,"▁받아야":7515,"▁없어서":7516,"▁어렵다.":7517,"▁상승했다.":7518,"▁현실적으로":7519,"▁부여하는":7520,"▁jh":7521,"▁전반적으로":7522,"▁존중":7523,"▁스트레스를":7524,"▁2단계로":7525,"▁갑질":7526,"▁갑자기":7527,"▁아마존은":7528,"▁이야기를":7529,"▁강원도":7530,"▁아이디어를":7531,"▁중소·벤처기업":7532,"3명":7533,"4명":7534,"▁술":7535,"로서":7536,"물이":7537,"사장":7538,"었습니다.":7539,"자율":7540,"저출산":7541,"정도":7542,"통계":7543,"해졌":7544,"화하는":7545,"▁재택근무자의":7546,"▁기재":7547,"▁사적":7548,"▁2천":7549,"▁직군":7550,"▁것입니다.":7551,"▁일일":7552,"▁한층":7553,"▁보기":7554,"▁위축":7555,"▁‘3":7556,"▁고양":7557,"▁연방":7558,"▁그에":7559,"▁않기":7560,"▁5개":7561,"▁문재인":7562,"▁것으로,":7563,"▁영등포":7564,"▁6만":7565,"▁경우에":7566,"▁직장에":7567,"▁발생으로":7568,"▁간부":7569,"▁입을":7570,"▁명시":7571,"▁이번주":7572,"▁대표적이다.":7573,"▁구축하는":7574,"▁총리":7575,"▁속에":7576,"▁추진하는":7577,"▁개발자":7578,".1%로":7579,"▁합계":7580,"▁만들고":7581,"▁만들기":7582,"▁컨퍼런스":7583,"▁잡을":7584,"▁금지하고":7585,"▁최소화할":7586,"▁키워":7587,"▁안정적으로":7588,"▁야놀":7589,"▁보면,":7590,"▁그룹웨어":7591,"공간을":7592,"▁부분을":7593,"기간을":7594,"▁상당수":7595,"▁대통령은":7596,"▁자료에":7597,"▁육박":7598,"▁'워라밸'":7599,"▁임대료":7600,"▁단순히":7601,"▁풍경":7602,"▁엔씨소프트는":7603,"▁획득":7604,"▁저렴한":7605,"▁중앙재난안전대책본부":7606,"▁발맞춰":7607,"▁칸막":7608,"▁웍스모바일":7609,"▁기초생활수급":7610,"'이라는":7611,"(F":7612,"77":7613,"SE":7614,"bus":7615,"·사회":7616,"▁l":7617,"▁맘":7618,"▁쟁":7619,"▁흥":7620,"▁냈다.":7621,"꼰대":7622,"드러":7623,"랜서":7624,"비나":7625,"시험":7626,"심은":7627,"용품":7628,"일보":7629,"일의":7630,"제조":7631,"조는":7632,"조를":7633,"한다\"며":7634,"해주":7635,"했다가":7636,"호선":7637,"호텔":7638,"▁한계":7639,"▁한다":7640,"▁기업체":7641,"▁기업들을":7642,"▁상생":7643,"▁아기":7644,"▁“지난":7645,"▁부천":7646,"▁근무혁신":7647,"▁\"업무":7648,"▁다자녀":7649,"▁내는":7650,"▁모범":7651,"▁소식":7652,"▁400만원":7653,"▁말씀":7654,"▁생계":7655,"▁많고":7656,"▁동선":7657,"▁동의를":7658,"▁밝히":7659,"▁결합":7660,"▁출근이":7661,"▁91":7662,"▁입학":7663,"▁크지":7664,"▁부서장":7665,"▁중요하다.":7666,"▁쓰지":7667,"▁생활을":7668,"▁있으니":7669,"▁접속을":7670,"▁구글,":7671,"▁분석된다.":7672,"▁접촉자":7673,"▁분위기다.":7674,"▁효과적으로":7675,"하거나,":7676,"▁음악":7677,"▁전자결재":7678,"▁보호를":7679,"▁보험료":7680,"▁긍정적으로":7681,"▁팬데믹(":7682,"▁양립을":7683,"감독규정":7684,"▁나선다.":7685,"ent":7686,"▁당연히":7687,"고용노동청":7688,"52시간":7689,"▁궁금":7690,"▁최악의":7691,"▁프리미엄":7692,"busan":7693,")까지":7694,"·모바일":7695,"▁=":7696,"▁[":7697,"▁`":7698,"각지":7699,"겠습니다.":7700,"계층":7701,"고속":7702,"공헌":7703,"대학교":7704,"드로":7705,"매일":7706,"먼트":7707,"문에":7708,"새로운":7709,"소에서":7710,"쉽게":7711,"인천":7712,"종일":7713,"케어":7714,"▁재택근무자는":7715,"▁재택근무하도록":7716,"▁대로":7717,"▁수직":7718,"▁경고":7719,"▁상가":7720,"▁최선":7721,"▁나는":7722,"▁유용":7723,"▁신용":7724,"▁안착":7725,"▁사용자는":7726,"▁장비를":7727,"▁장관이":7728,"▁근육":7729,"▁단위":7730,"▁올랐다.":7731,"▁78":7732,"▁사회에":7733,"▁97":7734,"▁점유":7735,"▁좋았":7736,"▁발생하면서":7737,"▁계획”이라고":7738,"▁종로구":7739,"▁대응하고":7740,"▁행동":7741,"▁거리두기에":7742,"▁출산율":7743,"▁가족이":7744,"▁커질":7745,"▁폐지":7746,"▁변화는":7747,"▁속에서도":7748,"▁유지하는":7749,"(33":7750,"▁방침에":7751,"▁손을":7752,"(42":7753,"▁시대의":7754,"▁2월부터":7755,"▁B씨는":7756,"▁물론,":7757,"▁면역":7758,"▁방지에":7759,"▁출시했다.":7760,"활동을":7761,"▁전반에":7762,"▁HP":7763,"▁인재를":7764,"▁구체적으로":7765,"▁명령을":7766,"▁역학조사":7767,"▁쏟아":7768,"▁산재보험":7769,"▁워라벨":7770,"pen@hankyung.com":7771,"www.":7772,"mote":7773,"▁굉장히":7774,"(중":7775,"ck":7776,"ow":7777,"ul":7778,"’...":7779,"▁中":7780,"▁염":7781,"▁ᄏᄏ":7782,"경력":7783,"곳이":7784,"된다”고":7785,"류를":7786,"변화":7787,"사들이":7788,"상이다.":7789,"손해":7790,"수에":7791,"스쿨":7792,"우는":7793,"트로":7794,"트리온":7795,"하지만,":7796,"▁수칙":7797,"▁전액":7798,"▁중시하는":7799,"▁정의":7800,"▁공용":7801,"▁근무하도록":7802,"▁\"우리":7803,"▁주주":7804,"▁주차":7805,"▁나름":7806,"▁내일":7807,"▁없습니다.":7808,"▁소멸":7809,"▁59":7810,"▁발달":7811,"▁지원도":7812,"▁확산된":7813,"▁시행하지":7814,"▁미뤄":7815,"▁받도록":7816,"▁영상을":7817,"▁바꿀":7818,"▁남자":7819,"▁차원":7820,"▁성평등":7821,"▁세금":7822,"▁72":7823,"▁상황은":7824,"▁정부세종":7825,"▁9일부터":7826,"▁변이":7827,"▁사람도":7828,"▁입력":7829,"▁초·중":7830,"▁관리에":7831,"▁권리":7832,"▁편하게":7833,"▁함께하는":7834,"▁과도":7835,"▁과정을":7836,"▁LG그룹":7837,"▁어려울":7838,"▁물품":7839,"▁콜센터는":7840,"▁대기업은":7841,"▁참고":7842,"▁정보유출":7843,"▁월평균":7844,"▁총력을":7845,"▁보고를":7846,"▁추진하고":7847,".7%,":7848,"▁하루를":7849,"▁분석한":7850,"▁광고":7851,"▁전년보다":7852,"▁승인을":7853,"▁분산근무":7854,"▁이뤄지지":7855,"▁부분은":7856,"▁상품을":7857,"▁제시했다.":7858,"▁신속한":7859,"▁툴을":7860,"▁배우자":7861,"이즈미":7862,"▁open@hankyung.com":7863,"▁곧바로":7864,"▁고위험군":7865,"(이하":7866,"▁간접노무비":7867,"▁괴롭힘":7868,"▁최형진":7869,"(U":7870,")'을":7871,"14":7872,"6명":7873,"@busan":7874,"TV":7875,"검사":7876,"글로벌":7877,"년까지":7878,"니얼":7879,"되었":7880,"리테":7881,"보를":7882,"세스":7883,"식으로":7884,"예산":7885,"와는":7886,"은지":7887,"전후":7888,"제의":7889,"통제":7890,"펙스":7891,"하다가":7892,"▁이들의":7893,"▁사장":7894,"▁등교":7895,"▁보맵":7896,"▁제로":7897,"▁3~4":7898,"▁‘코로나":7899,"▁근무,":7900,"▁\"지난":7901,"▁하다.":7902,"▁고이즈미":7903,"▁모아":7904,"▁국정":7905,"▁바뀐":7906,"▁차이를":7907,"▁올렸다.":7908,"▁정부와":7909,"▁급등":7910,"▁포털":7911,"▁김효":7912,"▁앞에":7913,"▁후보는":7914,"▁시스템은":7915,"▁2013년":7916,"▁전환할":7917,"▁거리두기’":7918,"▁공무원의":7919,"▁조사에서":7920,".co.kr)":7921,"▁250":7922,"▁출퇴근을":7923,"▁속출":7924,"▁지속될":7925,"▁우려도":7926,"▁상담을":7927,"▁된다는":7928,"▁누리":7929,"▁높아진":7930,"▁국가가":7931,"▁단계가":7932,"▁코스":7933,"▁출시한":7934,"▁들어갔습니다.":7935,"▁갈수록":7936,"▁필요하다”고":7937,"▁경쟁력":7938,"▁전달했다.":7939,"▁보건복지":7940,"▁보건당국":7941,"▁일·생활균형":7942,"▁성공적으로":7943,"▁원활하게":7944,"▁라이브":7945,"▁편리하게":7946,"▁목소리":7947,"▁롯데지주는":7948,"▁나타나고":7949,"▁방향으로":7950,"▁바람직":7951,"ITX":7952,"▁끌어올":7953,"▁컸다.":7954,"시켰다.":7955,"▁다운로드":7956,"▁질병관리본부":7957,"▁정부서울청사에서":7958,"기정통":7959,"@busan.com":7960,"'라는":7961,"(P":7962,"(일과":7963,"K-":7964,"el":7965,"·소":7966,"▁류":7967,"▁숫":7968,"▁읽":7969,"기획":7970,"다르":7971,"리밍":7972,"만을":7973,"본부는":7974,"점과":7975,"키트":7976,"통합":7977,"한데":7978,"현대":7979,"회식":7980,"▁이승":7981,"▁이원":7982,"▁가중":7983,"▁일한":7984,"▁다하겠다\"고":7985,"▁나은":7986,"▁실정":7987,"▁소외":7988,"▁감시":7989,"▁감지":7990,"▁5인":7991,"▁생체":7992,"▁안팎":7993,"▁노마":7994,"▁늘리고":7995,"▁스탠":7996,"▁가능성도":7997,"▁매월":7998,"▁사업장은":7999,"▁교직원":8000,"▁평등":8001,"▁포장":8002,"▁체감":8003,"▁좋지":8004,"▁국내에서":8005,"201":8006,"▁카톡":8007,"▁올해부터":8008,"▁고객을":8009,"▁출산율은":8010,"▁심화":8011,"텔레워크":8012,"▁구성원이":8013,".8%,":8014,"(38":8015,"▁이유를":8016,"▁손쉽게":8017,"▁쓰면":8018,"▁연구소":8019,"▁힘쓰":8020,"▁허용하는":8021,"▁비상이":8022,"▁설치된":8023,"▁이전과":8024,"▁기대된다.":8025,"▁중국의":8026,"▁활동이":8027,"▁임산부와":8028,"▁소득대체":8029,"▁3단계로":8030,"▁유치원":8031,"▁70%가":8032,"▁정보통신기술(I":8033,"▁최적화된":8034,"▁프리랜서":8035,"·경기":8036,"▁내놓은":8037,"▁패키지":8038,"▁추구하는":8039,"▁굳이":8040,"▁셀트리온":8041,"▁캡처":8042,"▁효성ITX":8043,"ru":8044,"▁딸":8045,"▁뜨":8046,"▁싫":8047,"▁옵":8048,"▁잃":8049,"▁잭":8050,"▁푸":8051,"계발":8052,"나요?":8053,"는지":8054,"능력":8055,"만명":8056,"미국":8057,"바이":8058,"설계":8059,"안정":8060,"어가":8061,"었는데":8062,"연장":8063,"오늘":8064,"위치":8065,"의견":8066,"인,":8067,"좌석":8068,"주와":8069,"추구":8070,"하니":8071,"회,":8072,"▁재택근무할":8073,"▁시에는":8074,"▁다들":8075,"▁주기":8076,"▁'스마트":8077,"▁하다":8078,"▁출신":8079,"▁실효":8080,"▁여부는":8081,"▁확산과":8082,"▁확산되는":8083,"▁의식":8084,"▁20대":8085,"▁집을":8086,"▁추적":8087,"▁가능할":8088,"▁82":8089,"▁서비스에":8090,"▁복지를":8091,"▁활용을":8092,"▁점포":8093,"▁사람과":8094,"▁초부터":8095,"만원씩":8096,"▁결과는":8097,"▁명에":8098,"▁되도록":8099,"▁지급하고":8100,"▁했다\"고":8101,"▁직원들과":8102,"▁강화한다.":8103,"▁수준인":8104,"명이었다.":8105,"▁심리":8106,"▁필수인력":8107,"▁19일부터":8108,".4%,":8109,"▁밀폐":8110,"▁예방에":8111,"(45":8112,"업무를":8113,"▁또한,":8114,"▁업체는":8115,"▁공유하는":8116,"▁지침이":8117,"▁이전에":8118,"▁사례도":8119,"▁성장할":8120,"▁돌아갈":8121,"▁버스":8122,"▁3년으로":8123,"▁\"재택근무를":8124,"▁바이러스가":8125,"▁잠시":8126,"▁잠정":8127,"▁가입자":8128,"▁한화생":8129,"▁화면을":8130,"▁'코로나19'":8131,"▁여건이":8132,"▁옮겨":8133,"▁기울이고":8134,"▁“앞으로도":8135,"▁고객상담센터":8136,"▁저출산·고령사회":8137,"4세":8138,"75":8139,"ew":8140,"km":8141,"ma":8142,"·일":8143,"▁갔":8144,"▁뿌":8145,"▁졸":8146,"▁켜":8147,"간다.":8148,"개정":8149,"나.":8150,"단신도시":8151,"당한":8152,"매체":8153,"명과":8154,"민기자":8155,"상품":8156,"연봉":8157,"운전":8158,"입니다":8159,"장으로":8160,"져서":8161,"조금":8162,"지고,":8163,"컴퍼니":8164,"폐쇄":8165,"함이":8166,"해지는":8167,"향을":8168,"회견":8169,"▁대화를":8170,"▁수령":8171,"▁1.":8172,"▁1.5":8173,"▁2개월":8174,"▁상용":8175,"▁“전":8176,"▁부탁":8177,"▁근무는":8178,"▁근무의":8179,"▁\"현재":8180,"▁연내":8181,"▁모양":8182,"▁발견":8183,"▁강행":8184,"▁사용하지":8185,"▁거치":8186,"▁미디어":8187,"▁근속":8188,"▁동선이":8189,"▁바이오":8190,"▁추이를":8191,"▁62":8192,"▁기자회견":8193,"▁같다”고":8194,"▁세무":8195,"▁할인":8196,"▁좋음.":8197,"▁계획이라고":8198,"▁검증":8199,"라우저":8200,"▁대비한":8201,"▁노동시장":8202,"▁대기업에":8203,"▁일부는":8204,"▁네,":8205,"▁강화할":8206,"▁공무원,":8207,"▁파수":8208,"▁적용된다.":8209,"▁결정한":8210,"▁협업이":8211,"▁부서는":8212,"▁11일까지":8213,"▁우려에":8214,"▁아니라,":8215,"▁낮았다.":8216,"▁질을":8217,"업계가":8218,"(44":8219,"▁계속해서":8220,"▁허용했다.":8221,"▁산업혁명":8222,"▁금지했다.":8223,"▁이전부터":8224,"▁지적이다.":8225,"▁아빠가":8226,"▁버전":8227,"▁의견도":8228,"▁소프트웨어를":8229,"▁임산부,":8230,"▁피해가":8231,"위원회는":8232,"▁잠재":8233,"▁공격이":8234,"▁특성에":8235,"▁얻고":8236,"▁분할사용":8237,"(VDI":8238,"▁부정적":8239,"▁자기계발":8240,"▁OT":8241,"▁수원시":8242,"▁원격접속을":8243,"life":8244,"▁횟수를":8245,"▁선별진료":8246,"▁최저임금":8247,"▁헌법":8248,"▁눈길을":8249,"▁박정호":8250,"▁김효신":8251,"(복":8252,"+3":8253,"-C":8254,"RM":8255,"▁꼬":8256,"▁냈":8257,"▁쏠":8258,"▁엇":8259,"▁...":8260,"▁첨단":8261,"공업":8262,"기계":8263,"됨.":8264,"드포인트":8265,"만2":8266,"받았다.":8267,"번에":8268,"선수":8269,"수원":8270,"수행":8271,"이,":8272,"이던":8273,"이상":8274,"짜리":8275,"케이":8276,"▁이것":8277,"▁재택근무\"":8278,"▁사각지":8279,"▁1/":8280,"▁전담":8281,"▁가게":8282,"▁일으":8283,"▁인턴":8284,"▁3주":8285,"▁부대":8286,"▁'코로나":8287,"▁'육아휴직":8288,"▁'비대면":8289,"▁하드":8290,"▁그린":8291,"▁그의":8292,"▁소형":8293,"▁4일까지":8294,"하기는":8295,"▁원격수업":8296,"▁집이":8297,"▁적어도":8298,"▁우대":8299,"...'":8300,"▁정부원격근무":8301,"▁무조건":8302,"▁사회공헌":8303,"▁증가했다고":8304,"▁들고":8305,"▁앞당":8306,"▁지역별":8307,"▁시스템과":8308,"▁시스템으로":8309,"▁계획\"이라고":8310,"▁직장인들":8311,"▁과기정통":8312,"▁나타난":8313,"▁절차를":8314,"▁정보보호":8315,"▁대표가":8316,"▁연장을":8317,"▁연장할":8318,"▁강화에":8319,"▁강화해":8320,"▁커지면서":8321,"관리를":8322,"생활을":8323,"▁기능도":8324,"▁곳도":8325,".3%가":8326,"▁18세":8327,"(41":8328,"(43":8329,"▁된다고":8330,"▁에듀":8331,"▁준비가":8332,"▁지적도":8333,"▁/사진=":8334,"▁위기경":8335,".0%),":8336,"▁패턴":8337,"▁재확산으로":8338,"▁규정이":8339,"▁제외하고는":8340,"▁편의성을":8341,"▁있음을":8342,"▁빨라":8343,"▁있는데요.":8344,"▁호소하는":8345,"ark":8346,"▁슬랙":8347,"▁살펴보면":8348,"▁초과근무":8349,"▁가이드라인을":8350,"▁잦은":8351,"▁빅데이터":8352,")보다":8353,"ice":8354,"ms":8355,"tn":8356,"▁센":8357,"▁융":8358,"거든":8359,"곳의":8360,"금은":8361,"나운":8362,"되도록":8363,"들어":8364,"라마":8365,"로를":8366,"만3":8367,"망과":8368,"맥스":8369,"민간":8370,"분야":8371,"상거래":8372,"세요.":8373,"스터":8374,"실이":8375,"약품":8376,"었다고":8377,"이다":8378,"집중":8379,"철도":8380,"판을":8381,"한다”며":8382,"해튼":8383,"화와":8384,"화해":8385,"효과":8386,"▁있거나":8387,"▁한컴":8388,"▁보전":8389,"▁인용":8390,"▁직원,":8391,"▁자랑":8392,"▁자부":8393,"▁3주간":8394,"▁경계":8395,"▁‘이":8396,"▁육아와":8397,"▁“우리":8398,"▁부회":8399,"▁업무방식":8400,"▁\"기업":8401,"▁주1회":8402,"▁하니":8403,"▁나무":8404,"▁출발":8405,"▁출하":8406,"▁내세":8407,"▁구독":8408,"▁도서관":8409,"▁여직원":8410,"▁소진":8411,"▁500":8412,"▁5년간":8413,"▁어제":8414,"▁분쟁":8415,"▁많지":8416,"▁장치":8417,"▁장점을":8418,"시간으로":8419,"▁동종":8420,"▁89":8421,"▁교사는":8422,"▁필요성을":8423,"▁할지":8424,"▁무게":8425,"▁서울과":8426,"▁평생":8427,"▁제도도":8428,"▁후지":8429,"▁맞은":8430,"▁입장을":8431,"▁배터":8432,"▁방역에":8433,"▁생산라인":8434,"▁대비하기":8435,"▁전환이":8436,"▁회의는":8437,"▁열화상":8438,"▁생각한다.":8439,"▁수요도":8440,".8%에":8441,"(34":8442,"(37":8443,"▁이유다.":8444,"▁예방하기":8445,"▁삼성전자가":8446,"▁현대·기":8447,"▁에이":8448,"▁인력은":8449,"▁건물에":8450,"▁예상했다.":8451,"▁부산시":8452,"▁개정안을":8453,"▁스트리밍":8454,"▁자제하고":8455,"▁먹고":8456,"▁떠올":8457,"▁실적을":8458,"▁접근할":8459,"▁동료들과":8460,"▁모델을":8461,"▁둘러":8462,"▁원칙으로":8463,"▁질문에는":8464,"▁병행할":8465,"▁충분한":8466,"하이브리드":8467,"▁난임":8468,"▁드러났다.":8469,"▁끝나도":8470,"진흥원":8471,"지방고용노동청":8472,"▁성남시":8473,"▁훌륭":8474,"▁초·중·고":8475,"(주)":8476,").":8477,"=김":8478,"??":8479,"sh":8480,"tt":8481,"~9":8482,"▁·":8483,"▁日":8484,"▁꼴":8485,"▁년":8486,"▁앤":8487,"게이트":8488,"구,":8489,"구의":8490,"기와":8491,"더라":8492,"령을":8493,"링네트":8494,"면적":8495,"분산":8496,"사도":8497,"소음":8498,"스와":8499,"여개":8500,"영기자":8501,"인다.":8502,"장치":8503,"중한":8504,"지교":8505,"지며":8506,"층에":8507,"▁수단":8508,"▁1조":8509,"▁1일까지":8510,"▁2명이":8511,"▁전력":8512,"▁일이다.":8513,"▁보낼":8514,"▁정례":8515,"▁3일부터":8516,"▁아나운":8517,"▁부상":8518,"▁근무지를":8519,"▁원래":8520,"▁개개":8521,"▁없기":8522,"▁4배":8523,"▁생겼":8524,"▁강의를":8525,"▁마무리":8526,"▁사용률은":8527,"▁문자":8528,"▁만성":8529,"▁늘릴":8530,"▁확진판정을":8531,"▁61":8532,"▁감염자가":8533,"▁교외":8534,"▁세미나":8535,"▁건축":8536,"▁좋겠":8537,"▁좋을":8538,"▁줄고":8539,"▁취득":8540,"▁알파":8541,"▁진행된":8542,"▁초점을":8543,"▁처분":8544,"▁방식에":8545,"▁신청은":8546,"▁들어가는":8547,"▁되기":8548,"▁생산성과":8549,"▁아이들을":8550,"▁양천":8551,"▁했는데":8552,"▁예정인":8553,"▁법제":8554,"▁공간으로":8555,"▁본사가":8556,"▁보고서를":8557,"▁중요하게":8558,"(21":8559,".6%,":8560,".3%로":8561,"다면,":8562,"▁다음주":8563,"업계도":8564,"▁제품이":8565,"▁현대건설":8566,"▁접속해":8567,"▁구글의":8568,"▁비상대응":8569,"▁방문을":8570,"▁Balance":8571,"▁로이터":8572,"oon":8573,"산업단지":8574,"▁부분이":8575,"▁아직도":8576,"▁착용을":8577,"▁6월까지":8578,"▁A씨의":8579,"▁의미다.":8580,"▁스트레스가":8581,"▁편의점":8582,"ity":8583,"▁경력단절을":8584,"▁카메라를":8585,"▁특화구역":8586,"▁을지로":8587,"▁상업시설":8588,"▁간단한":8589,"▁맨해튼":8590,"▁합계출산":8591,"손해보험":8592,"거든요.":8593,")·":8594,"100":8595,"CT)":8596,"SL":8597,"ee":8598,"id":8599,"ol":8600,"▁ᆞ":8601,"▁왕":8602,"감은":8603,"계열":8604,"나는":8605,"나다":8606,"들로":8607,"렀다.":8608,"레니얼":8609,"메신저":8610,"면접":8611,"명까지":8612,"물품":8613,"받침":8614,"분석":8615,"세권":8616,"어지는":8617,"억원의":8618,"여서":8619,"연합":8620,"작업":8621,"진은":8622,"체험":8623,"▁이르":8624,"▁재택근무자가":8625,"▁시달":8626,"▁전부":8627,"▁공사":8628,"▁기업당":8629,"▁경감":8630,"▁경향이":8631,"▁상사가":8632,"▁‘그":8633,"▁‘뉴":8634,"▁“현재":8635,"▁주시":8636,"▁주4일":8637,"▁하며,":8638,"▁나섰":8639,"▁원고":8640,"▁그나마":8641,"▁모성보호":8642,"▁소정":8643,"▁위해선":8644,"▁확산방":8645,"▁원격제어":8646,"▁시행된다.":8647,"시간에":8648,"▁추납":8649,"▁증상을":8650,"▁8일까지":8651,"▁세일":8652,"▁상황에서도":8653,"▁판정":8654,"▁서울의":8655,"▁들었다.":8656,"▁SK그룹은":8657,"▁앞둔":8658,"▁지역을":8659,"▁입증":8660,"만원까지":8661,"▁IM":8662,"▁방식도":8663,"▁못할":8664,"▁전환해":8665,"▁전환하는":8666,"▁회의와":8667,"▁콜센터가":8668,"▁정보보안":8669,"▁구축에":8670,"▁출산을":8671,"▁법원":8672,"▁법정":8673,"▁공간과":8674,"▁뒤에도":8675,".2%에":8676,"and":8677,"(22":8678,"▁포함됐다.":8679,"▁인사팀":8680,"(46":8681,"▁건강한":8682,"정보를":8683,"▁공유하고":8684,"▁우리의":8685,"▁정상적인":8686,"▁찾기":8687,"소프트웨어":8688,"▁여부에":8689,"▁엔터프라이즈":8690,"▁시차출근":8691,"▁방법은":8692,"▁정착을":8693,"▁sk":8694,"▁먹는":8695,"▁씨티":8696,"▁예산을":8697,"ation":8698,"▁풍부":8699,"▁주문했다.":8700,"(GVPN":8701,"▁롯데면세점":8702,"착한기업":8703,"▁소셜미디어":8704,"(H":8705,")'를":8706,"21년":8707,"46":8708,"ᄒᄒ":8709,"▁뚜":8710,"▁폴":8711,"강도":8712,"경찰":8713,"급을":8714,"놀로지":8715,"됐다는":8716,"디스크":8717,"레이는":8718,"리면서":8719,"백화점":8720,"부동산":8721,"비와":8722,"세다.":8723,"씨의":8724,"영화":8725,"유통":8726,"있고":8727,"주에":8728,"직을":8729,"청이":8730,"최고":8731,"팀즈":8732,"판매":8733,"활용":8734,"▁이익":8735,"▁이지":8736,"▁대거":8737,"▁2.0":8738,"▁가산":8739,"▁것보다":8740,"▁제3":8741,"▁‘비대면":8742,"▁“(":8743,"▁부작용":8744,"▁신세계":8745,"▁구청":8746,"▁모호":8747,"▁말하는":8748,"▁노르":8749,"▁우울":8750,"▁대상자는":8751,"▁같다\"고":8752,"▁사업이":8753,"▁김민":8754,"▁저소득":8755,"▁간격을":8756,"▁거리를":8757,"▁각국":8758,"▁한국경영자총협회":8759,"▁결과다.":8760,"▁전체가":8761,"▁LG상":8762,"▁두레이":8763,"▁물어":8764,"▁개인별":8765,"▁순간":8766,"▁순다르":8767,"▁사내근로복지":8768,"▁부서에":8769,"▁지난달부터":8770,"▁확인하고":8771,"▁손소독":8772,"보험법":8773,"▁규모를":8774,"업체인":8775,"▁사실이":8776,"▁장기화되면서":8777,"▁키보드":8778,"▁분야의":8779,"▁300만":8780,"▁3년간":8781,"▁여러분":8782,"▁부문은":8783,"▁구성원들의":8784,"▁TF":8785,"▁컴퓨터를":8786,"▁상승한":8787,"▁넘어섰다.":8788,"▁31일부터":8789,"(66":8790,"▁특별한":8791,"day":8792,"▁7월까지":8793,"▁라인플러스":8794,"▁2년까지":8795,"투자증권":8796,"▁목소리를":8797,"▁뛰어난":8798,"▁수원사업장":8799,"▁KB국민":8800,"▁아무래도":8801,"▁보유한":8802,"▁겨냥":8803,"▁써야":8804,"▁납부":8805,"▁초등학생":8806,"ECD":8807,"▁최형진:":8808,"(비대면":8809,")’을":8810,"45":8811,"SB":8812,"ve":8813,"~30":8814,"▁끈":8815,"▁맺":8816,"▁뭔":8817,"▁봄":8818,"▁se":8819,"▁갤럭시":8820,"감과":8821,"개사를":8822,"공립":8823,"과장은":8824,"관련":8825,"된다고":8826,"률도":8827,"마자":8828,"마켓":8829,"만한":8830,"메일":8831,"면,":8832,"사로":8833,"소에":8834,"시행":8835,"어지고":8836,"여건":8837,"였습니다.":8838,"이엠":8839,"인식":8840,"자.":8841,"줄이":8842,"중이다.":8843,"짐에":8844,"컨설팅":8845,"플래":8846,"화했다.":8847,"화하고":8848,"▁재택근무용":8849,"▁대국민":8850,"▁수시":8851,"▁시기에":8852,"▁시점을":8853,"▁전인":8854,"▁전보다":8855,"▁일대":8856,"▁제일":8857,"▁근무하게":8858,"▁\"(":8859,"▁비싼":8860,"▁비치":8861,"▁나의":8862,"▁원천":8863,"▁원하면":8864,"▁신조":8865,"▁신체":8866,"▁그림":8867,"▁내외":8868,"▁않음":8869,"▁오르":8870,"▁확산할":8871,"하기가":8872,"▁마감":8873,"▁마곡":8874,"▁의자":8875,"▁거듭":8876,"▁때마다":8877,"▁미칠":8878,"▁늘렸다.":8879,"▁결론":8880,"▁또,":8881,"▁사업부":8882,"▁진입":8883,"▁본인의":8884,"▁시간도":8885,"▁올인원":8886,"▁서비스도":8887,"▁외근":8888,"▁무려":8889,"▁관련,":8890,"▁SK건설":8891,"▁후속":8892,"▁취재":8893,"▁각광":8894,"▁각자":8895,"▁이어가":8896,"▁신청했다.":8897,"▁전환하고":8898,"▁지급할":8899,"▁대표이":8900,"▁청약":8901,"▁삼성생":8902,"▁열람":8903,"▁커진":8904,"▁커리어":8905,"스트는":8906,"▁198":8907,"사업체":8908,"▁구성해":8909,"▁완성":8910,"▁24일까지":8911,"▁담았다.":8912,"▁글을":8913,"▁참여한":8914,"▁눈치를":8915,"▁호흡기":8916,"▁전망된다.":8917,"▁접속하는":8918,"▁높아질":8919,"▁가정에서":8920,"▁준비하고":8921,"(58":8922,"컴퓨팅":8923,"▁대체로":8924,"▁메신저로":8925,"▁해결할":8926,"▁대책이":8927,"▁중앙부처":8928,"▁엔드포인트":8929,"▁일주일간":8930,"▁협력업체":8931,"▁친구":8932,"▁씨의":8933,"▁화상으로":8934,"▁전반적인":8935,"▁번째로":8936,"▁맡길":8937,"▁좋아요":8938,"▁층간":8939,"▁창의적인":8940,"▁최적의":8941,"▁영구적으로":8942,"▁사항을":8943,"▁LS그룹":8944,"▁사유로":8945,"▁보고서에":8946,"▁oh":8947,"▁탄력적으로":8948,"▁마찬가지다.":8949,"▁움직임이":8950,"추구협의회":8951,"▁엇갈":8952,"(Z":8953,"(사진":8954,"(최대":8955,"hn":8956,"▁꺾":8957,"▁밑":8958,"▁탁":8959,"▁셧다운":8960,"갑질":8961,"건,":8962,"내부":8963,"노미":8964,"다음":8965,"되거나":8966,"모든":8967,"방식을":8968,"부제":8969,"서치":8970,"시와":8971,"여금":8972,"오전":8973,"이너":8974,"졌습니다.":8975,"지사":8976,"프리":8977,"하루":8978,"해지면서":8979,"훈련":8980,"▁재택근무시":8981,"▁재택근무에서":8982,"▁기억":8983,"▁사정에":8984,"▁지수":8985,"▁시가":8986,"▁가시":8987,"▁코로나에":8988,"▁정세":8989,"▁자격":8990,"▁3일까지":8991,"▁“지금":8992,"▁부과":8993,"▁부품":8994,"▁근무한다.":8995,"▁다닐":8996,"▁'아":8997,"▁조처":8998,"▁원장은":8999,"▁고립":9000,"▁내일부터":9001,"▁모르는":9002,"▁없고,":9003,"▁없다”며":9004,"▁국경":9005,"▁의왕":9006,"▁노인":9007,"▁예비":9008,"시간은":9009,"▁선발":9010,"▁감염증(":9011,"▁도입된":9012,"▁차관은":9013,"▁하는데,":9014,"▁76":9015,"▁이후에":9016,"▁이후의":9017,"▁증가로":9018,"▁증가에":9019,"▁실시하고,":9020,"▁9월부터":9021,"▁점진":9022,"▁이용을":9023,"▁이용이":9024,"▁이용자는":9025,"▁각자의":9026,"▁알게":9027,"▁이어가고":9028,"▁유연성을":9029,"▁대응하는":9030,"▁편히":9031,"▁자녀의":9032,"▁요건":9033,"▁아니지만":9034,"▁회의실":9035,"▁대기업들은":9036,"▁개인이":9037,"▁작동":9038,"▁150만":9039,"▁마련할":9040,"▁근로자를":9041,".2%,":9042,"▁구성원을":9043,"▁11번":9044,"▁개발해":9045,"▁선택하는":9046,"▁담긴":9047,"▁충남":9048,"▁업계의":9049,"▁고려하면":9050,"▁번갈":9051,"문화가":9052,"▁허용할":9053,"▁분석이":9054,"▁비상경제":9055,"▁23일부터":9056,"▁정상화":9057,"▁높아지는":9058,"본부장은":9059,"▁돌봄이":9060,"▁판매가":9061,"▁야간":9062,"▁“코로나19가":9063,"▁처리하는":9064,"▁필요하다\"고":9065,"▁의미를":9066,"▁달라진":9067,"▁포스코가":9068,"▁극복을":9069,"▁지방공무원":9070,"▁입장에서":9071,"사진제공=":9072,"▁밖에도":9073,"스(TF":9074,"▁‘워라밸’":9075,"▁아무리":9076,"▁바꾸는":9077,"▁명확한":9078,"▁명확히":9079,"▁다수의":9080,"▁업무환경을":9081,"▁괜찮은":9082,"▁감염증)":9083,"▁멀티":9084,"▁다녀온":9085,"▁잡코리아가":9086,"▁자발적으로":9087,"▁전자금융감독규정":9088,"▁곤란":9089,"▁찬성":9090,"emote":9091,"ff":9092,"ot":9093,"ytn":9094,"”며":9095,"▁샤":9096,"▁옥":9097,"▁틈":9098,"▁니다.":9099,"▁친화":9100,"권의":9101,"급이":9102,"라면서":9103,"리바":9104,"립니다.":9105,"받는다.":9106,"보너스":9107,"소비":9108,"소한":9109,"시장은":9110,"신이":9111,"안에":9112,"에너지":9113,"우한":9114,"위생":9115,"장도":9116,"주,":9117,"지구":9118,"큐브":9119,"킴벌":9120,"학습":9121,"한킴벌":9122,"해진다.":9123,"해달라":9124,"희롱":9125,"희기자":9126,"▁사립":9127,"▁지주":9128,"▁수석":9129,"▁1개":9130,"▁일도":9131,"▁인지":9132,"▁“기업":9133,"▁최장":9134,"▁'3":9135,"▁'심각":9136,"▁조달":9137,"▁나아":9138,"▁육아휴직의":9139,"▁내근":9140,"▁통증":9141,"▁도는":9142,"▁실패":9143,"▁없다":9144,"▁지원받을":9145,"▁어깨":9146,"▁안보고":9147,"▁마인":9148,"▁원격회의":9149,"▁거제":9150,"▁노래":9151,"▁분기":9152,"▁동영상":9153,"▁바꿨":9154,"▁사무용":9155,"▁대상에":9156,"▁단기":9157,"▁운전":9158,"▁출근,":9159,"▁출근해야":9160,"▁77":9161,"▁돌려":9162,"▁무인":9163,"▁활용하도록":9164,"▁제공하기":9165,"▁김경":9166,"▁김수":9167,"▁시스템의":9168,"▁신종코로나":9169,"▁검단신도시":9170,"▁요인":9171,"▁미국과":9172,"▁시작해":9173,"▁예정입니다.":9174,"▁출산전후":9175,"▁K-":9176,"관리,":9177,"▁15%":9178,"사업부":9179,"▁평가다.":9180,"제도가":9181,".1%,":9182,".1%에":9183,"▁포함된":9184,"▁세계에서":9185,"▁인사관리":9186,"▁KT가":9187,"▁조직문화를":9188,"▁애니":9189,"▁정책에":9190,"들에게는":9191,"▁절반으로":9192,"▁자유로움":9193,"yun":9194,"▁네이버,":9195,"▁떨어질":9196,"▁예상되는":9197,"▁해결하기":9198,"▁전자상거래":9199,"▁중앙방역":9200,"▁고민하고":9201,"▁GC":9202,"▁부문의":9203,"▁머무는":9204,"위원회를":9205,"▁폭으로":9206,"▁40대":9207,"▁요구하는":9208,"▁웹사이트":9209,"▁입장에서는":9210,"▁시설을":9211,"▁쉬는":9212,"▁편리한":9213,"▁부정적인":9214,"▁끌고":9215,"▁제주항공":9216,"▁고령자":9217,"중앙화":9218,"▁사업주가":9219,"▁사업주에게":9220,"▁혹시":9221,"▁실태조사":9222,"▁징계":9223,"과학기술":9224,"▁윈도우":9225,"▁\"앞으로도":9226,"▁과학기술정보통신":9227,"▁가상사설망(VPN)":9228,"▁마이크로소프트(MS":9229,"▁인공지능(AI)":9230,"▁태스크포스(TF":9231,"▁정보통신기술(ICT)":9232,"▁현대·기아차":9233,"95":9234,"OO":9235,"U+":9236,"ea":9237,"ps":9238,"▁,":9239,"▁넣":9240,"▁떡":9241,"▁짓":9242,"▁컬":9243,"▁펜":9244,"▁꼰대":9245,"▁링네트":9246,"가의":9247,"가입":9248,"가포":9249,"공제":9250,"구나":9251,"국제":9252,"권에":9253,"금이":9254,"되던":9255,"되더라도":9256,"반기에":9257,"스에":9258,"실한":9259,"양립":9260,"이지를":9261,"임대":9262,"적이지":9263,"전력":9264,"청년":9265,"측은":9266,"치료":9267,"특별":9268,"하시":9269,"했거나":9270,"▁수백":9271,"▁1호":9272,"▁전원이":9273,"▁일하면":9274,"▁일종의":9275,"▁한글":9276,"▁보면서":9277,"▁자사의":9278,"▁공실":9279,"▁기업문화를":9280,"▁‘홈":9281,"▁아끼":9282,"▁주중":9283,"▁관측":9284,"▁조용":9285,"▁연일":9286,"▁소음":9287,"▁발행":9288,"▁확산하는":9289,"▁의존":9290,"▁의해":9291,"▁의혹":9292,"▁20만":9293,"▁받기":9294,"▁적었다.":9295,"▁남은":9296,"▁특파":9297,"▁올랐":9298,"▁필요로":9299,"▁서비스업":9300,"▁환경의":9301,"▁원격근무로":9302,"▁활용하면":9303,"▁제공된다.":9304,"▁김현":9305,"▁입고":9306,"▁초래":9307,"▁신청해야":9308,"▁과제가":9309,"은행,":9310,"▁LG그룹은":9311,"▁회의에":9312,"▁있어서다.":9313,"▁파이":9314,"▁기준이":9315,"▁마련에":9316,"▁마련됐다.":9317,"사업을":9318,"▁팀장은":9319,"제도는":9320,"▁SK텔레콤과":9321,"▁100만":9322,"▁착신":9323,"▁고려할":9324,"▁오피스텔":9325,"▁빠져":9326,"▁호응":9327,"▁성과가":9328,"▁규모로":9329,"▁업체에":9330,"▁비용이":9331,"▁절반씩":9332,"▁방문객":9333,"▁이하로":9334,"(50":9335,"oom":9336,"▁대면회의":9337,"▁앞으로는":9338,"▁연결하는":9339,"▁기본적인":9340,"레이드":9341,"▁이뤄지고":9342,"▁유연근무제가":9343,"▁구성원들이":9344,"달러(약":9345,"▁뉴욕타임":9346,"yeong":9347,"▁풀어":9348,"▁농협":9349,"▁잇따르고":9350,"▁쉬운":9351,"▁의사결정":9352,"▁실험을":9353,"▁메시지를":9354,"▁중기부":9355,"▁자연스럽게":9356,"▁바란다\"고":9357,"▁니혼":9358,"▁휴대전화":9359,"▁모르겠":9360,"▁편안한":9361,"▁LG디스플레이":9362,"▁일ᆞ생활":9363,"▁쿠팡은":9364,"▁척추":9365,"펙스추구협의회":9366,"(K":9367,"·보안":9368,"▁낯":9369,"▁섞":9370,"▁펄":9371,"▁힐":9372,"가에":9373,"검토":9374,"고령":9375,"국,":9376,"까요?":9377,"라리":9378,"빌리지":9379,"사랑":9380,"소연":9381,"스토":9382,"시터":9383,"예술":9384,"위드":9385,"일리":9386,"졌다고":9387,"중견기업":9388,"코노미":9389,"트라":9390,"트윈타워":9391,"협의":9392,"후군":9393,"▁이래":9394,"▁재택근무'":9395,"▁재택근무’":9396,"▁수업을":9397,"▁시상":9398,"▁2일부터":9399,"▁전까지":9400,"▁직전":9401,"▁정하고":9402,"▁자본":9403,"▁자치":9404,"▁3분기":9405,"▁‘전":9406,"▁아버":9407,"▁\"원격근무":9408,"▁비조치":9409,"▁원,":9410,"▁서관":9411,"▁서형수":9412,"▁않음.":9413,"▁임차":9414,"▁발간":9415,"▁어머니":9416,"▁현금":9417,"▁시행으로":9418,"▁20%를":9419,"▁받으":9420,"▁집값":9421,"▁6일부터":9422,"▁불리는":9423,"▁성희롱":9424,"▁8일부터":9425,"▁진료":9426,"▁직장갑질":9427,"▁재구매":9428,"▁확대,":9429,"▁확대되고":9430,"▁환경으로":9431,"▁서울·경기":9432,"▁원격근무는":9433,"▁보안솔루션":9434,"▁증가하면서":9435,"▁95":9436,"▁체계가":9437,"▁지난해부터":9438,"▁앞에서":9439,"▁제도로":9440,"▁진행됐다.":9441,"▁행위":9442,"▁되길":9443,"▁지급한":9444,"▁지급해야":9445,"▁물리":9446,"▁콜센터의":9447,"▁다양하게":9448,"▁고객이":9449,"▁열악":9450,"▁감염증(코로나19)의":9451,"▁생각해":9452,"▁리포트":9453,"▁세계적인":9454,"▁생활이":9455,"▁정책이":9456,"▁다음으로":9457,"▁삼성전자,":9458,"▁타고":9459,"▁에너":9460,"▁절반은":9461,"▁노트북,":9462,"▁제한하고":9463,"▁17개":9464,"▁인프라가":9465,"▁토스":9466,"▁아빠는":9467,"▁떨어지는":9468,"▁노력하겠다\"고":9469,"▁행정안전":9470,"▁긴급사태":9471,"▁조정할":9472,"▁공격을":9473,"▁차단을":9474,"▁블루":9475,"가족친화":9476,"▁한화그룹":9477,"▁반영해":9478,"▁힘들어":9479,"▁지정된":9480,"▁차별을":9481,"▁끊임":9482,"▁당국은":9483,"▁봐야":9484,"▁변호사":9485,"▁확실히":9486,"▁웨비나":9487,"▁IBM":9488,"▁로그인":9489,"▁방역수칙":9490,"▁인건비":9491,"경력단절":9492,"▁김효신:":9493,"(L":9494,"(가상":9495,"1명":9496,"2명":9497,"DP":9498,"ER":9499,"LD":9500,"hw":9501,"ter":9502,"·전":9503,"게이자":9504,"득이":9505,"른다.":9506,"메시":9507,"메이션":9508,"모두":9509,"무를":9510,"문이":9511,"스페이스":9512,"실장은":9513,"심이":9514,"액도":9515,"요,":9516,"우수":9517,"움을":9518,"자다.":9519,"제’를":9520,"지어":9521,"청,":9522,"▁이게":9523,"▁이모":9524,"▁이씨":9525,"▁기혼":9526,"▁수렴":9527,"▁시절":9528,"▁인권":9529,"▁3천":9530,"▁‘포스트":9531,"▁“향후":9532,"▁\"정부":9533,"▁주52시간":9534,"▁'한":9535,"▁원의":9536,"▁원할":9537,"▁고통":9538,"▁그것":9539,"▁그럼":9540,"▁구로":9541,"▁도모":9542,"▁않다고":9543,"▁57":9544,"▁발병":9545,"▁어떠":9546,"▁마사":9547,"▁마치고":9548,"▁원격업무":9549,"▁거론":9550,"▁2030":9551,"▁회사원":9552,"▁영양":9553,"▁적어":9554,"환경을":9555,"▁경우를":9556,"▁스토":9557,"▁대한상공회의소":9558,"▁사업체":9559,"▁진출":9560,"러스트":9561,"▁서비스의":9562,"▁71":9563,"▁돌볼":9564,"▁제공한":9565,"▁김용":9566,"▁줄줄이":9567,"▁사람만":9568,"▁간주":9569,"▁임직원과":9570,"▁알림":9571,"▁종이":9572,"▁종일":9573,"▁이어갈":9574,"▁이어지는":9575,"▁클래":9576,"▁노동부는":9577,"▁두드러":9578,"▁구축했다.":9579,"▁월요일":9580,"노동자":9581,"▁출산과":9582,"▁법인":9583,"▁수요에":9584,"▁급여도":9585,"▁변화와":9586,".9%였다.":9587,"▁개선에":9588,"▁확진자로":9589,"▁고려하고":9590,"▁대구지역":9591,"▁규모별로":9592,"▁시대가":9593,"▁타입":9594,"▁방안이":9595,"▁임신·출산":9596,"▁E&":9597,"▁인력에":9598,"▁별다른":9599,"▁선정해":9600,"▁준비를":9601,"▁로봇":9602,"▁아빠의":9603,"▁자체를":9604,"▁급증한":9605,"▁페이스북,":9606,"▁해외에서":9607,"▁자동화":9608,"▁잠실":9609,"▁시범적으로":9610,"▁중단하고":9611,"▁분리해":9612,"▁언제든":9613,"▁육아휴직급여는":9614,"(62":9615,"▁소득이":9616,"▁유출을":9617,"00여명":9618,"▁WSJ":9619,"▁전략을":9620,"▁입주한":9621,"▁갖춰져":9622,"▁빈집":9623,"▁구미사업장":9624,"▁바란다”고":9625,"▁단말기":9626,"▁교대근무":9627,"▁가족돌봄휴가":9628,"297":9629,"홈쇼핑은":9630,"▁뒷받침":9631,"▁훈시":9632,"▁구애받지":9633,"▁동아닷컴":9634,"-Cloud":9635,"▁아나운서":9636,"(코로나19)":9637,"**":9638,"//":9639,"23":9640,"2B":9641,"85":9642,"://":9643,"IE":9644,"S,":9645,"act":9646,"um":9647,"·4":9648,"·LG":9649,"▁꼼":9650,"▁며":9651,"▁빛":9652,"▁턱":9653,"▁펴":9654,"경험":9655,"님이":9656,"됐지만":9657,"두로":9658,"루는":9659,"리며":9660,"보장":9661,"스레":9662,"안이":9663,"엔지니어":9664,"용으로":9665,"위원은":9666,"장학":9667,"제약":9668,"지속":9669,"직은":9670,"차가":9671,"청에":9672,"체제를":9673,"취재":9674,"해를":9675,"▁기아차":9676,"▁1.0":9677,"▁2층":9678,"▁일괄":9679,"▁중\"이라고":9680,"▁인적":9681,"▁인기가":9682,"▁위기가":9683,"▁업그":9684,"▁자문":9685,"▁공통":9686,"▁공항":9687,"▁기업,":9688,"▁아쉬":9689,"▁부장":9690,"▁다이":9691,"▁비전":9692,"▁최태원":9693,"▁주한":9694,"▁주가가":9695,"▁'업무":9696,"▁나설":9697,"▁나서는":9698,"▁유발":9699,"▁구비":9700,"▁없지만":9701,"▁임의":9702,"▁생방송":9703,"▁지원하기로":9704,"▁마친":9705,"▁노사가":9706,"▁20일부터":9707,"▁장단":9708,"▁회사도":9709,"▁차등":9710,"▁단,":9711,"▁86":9712,"▁같습니다.":9713,"▁통해서":9714,"▁교대로":9715,"▁외교":9716,"▁10개":9717,"▁10분":9718,"▁체류":9719,"▁김성":9720,"▁김씨는":9721,"▁지난해에는":9722,"▁사람들의":9723,"▁간소":9724,"▁계획입니다.":9725,"▁한국가스":9726,"▁검체":9727,"▁신청하는":9728,"▁권리를":9729,"▁편이다.":9730,"▁행사는":9731,"▁되었":9732,"은행과":9733,".5%가":9734,"▁지급을":9735,"▁콜센터에":9736,"▁대기업들이":9737,"▁프로모":9738,"▁디스플레이":9739,"▁파격":9740,"▁구축이":9741,"▁응답자는":9742,"▁25일까지":9743,"▁적용한다.":9744,"▁일본은":9745,"▁장기간":9746,"▁추진할":9747,"▁사업장이":9748,".6%에":9749,"▁내용이다.":9750,"▁KT도":9751,"▁합산":9752,"▁합리적인":9753,"▁업체인":9754,"▁긴밀":9755,"ero":9756,"▁누군":9757,"▁찾고":9758,"▁투자하는":9759,"▁효과적인":9760,"▁최소화하는":9761,"시설을":9762,"▁나오면서":9763,"▁2021":9764,"(55":9765,"▁보인다\"고":9766,"▁예상치":9767,"억원,":9768,"▁판매량이":9769,"▁보호하기":9770,"▁사옥을":9771,"▁임금이":9772,"▁됐다\"고":9773,"▁표시":9774,"▁이뤄질":9775,"▁방법으로":9776,"▁지시가":9777,"▁현실화":9778,"▁폭넓":9779,"▁보험사":9780,"▁가구의":9781,"▁씨가":9782,"▁가능하다고":9783,"▁철저하게":9784,"▁맡은":9785,"▁모임을":9786,"▁인근에":9787,"▁하겠다고":9788,"000여명":9789,"▁설문조사에서":9790,"▁오늘부터":9791,"▁프로젝트를":9792,"▁호소했다.":9793,"▁녹취":9794,"▁영업이익은":9795,"직장인":9796,"▁주민등록":9797,"▁면접수당":9798,"▁티맥스":9799,"▁2022년부터":9800,"▁불만이":9801,"▁블룸버그는":9802,"▁금융당국은":9803,"▁you":9804,"▁국방부":9805,"▁엘리":9806,"(상한":9807,"▁나쁘지":9808,"▁나무기술":9809,"가포르":9810,"게이자이":9811,"(전":9812,"5일":9813,"90":9814,"AG":9815,"CP":9816,"GB":9817,"NK":9818,"nam":9819,"wC":9820,"~오후":9821,"·주":9822,"·생활":9823,"’이라고":9824,"▁낭":9825,"▁쉴":9826,"▁웰":9827,"▁뱅크":9828,"▁and":9829,"경기":9830,"국장은":9831,"기반":9832,"기금을":9833,"단의":9834,"동조합":9835,"드에":9836,"러나":9837,"러다":9838,"력과":9839,"마이":9840,"망이":9841,"바이오":9842,"밖에도":9843,"발적":9844,"법에":9845,"상도":9846,"상에":9847,"수로":9848,"스테":9849,"신을":9850,"실로":9851,"운동":9852,"유지":9853,"정부는":9854,"제'를":9855,"중국":9856,"출장":9857,"컨대":9858,"해요":9859,"현황":9860,"호를":9861,"호기자":9862,"▁이준":9863,"▁이르는":9864,"▁수영":9865,"▁1주":9866,"▁시기를":9867,"▁전월":9868,"▁가정을":9869,"▁제1":9870,"▁제이":9871,"▁제재":9872,"▁“‘":9873,"▁다우":9874,"▁다하겠다”고":9875,"▁관점에서":9876,"▁조합":9877,"▁유증상":9878,"▁따뜻":9879,"▁서면":9880,"▁구는":9881,"▁여겨":9882,"▁소방":9883,"적으로는":9884,"▁마을":9885,"▁노린":9886,"▁시행된":9887,"▁시행해왔다.":9888,"▁바닥":9889,"▁높고":9890,"▁매각":9891,"▁교류":9892,"▁교체":9893,"▁올린":9894,"▁확대로":9895,"▁달에":9896,"▁달부터":9897,"▁무슨":9898,"▁서울,":9899,"▁실시해":9900,"▁제도적":9901,"▁솔루션과":9902,"▁취할":9903,"▁프레":9904,"▁시스템도":9905,"▁워케이션":9906,"▁이어지면서":9907,"하면,":9908,"▁금융투자":9909,"▁생산하는":9910,"▁설명했습니다.":9911,"▁노동시간":9912,"▁LG트윈타워":9913,"▁시작한다.":9914,"▁중소기업중앙":9915,"▁청주":9916,"▁연장한다.":9917,"▁공무원들이":9918,"▁구축하고":9919,"이스팅":9920,"▁클라우드를":9921,"▁출퇴근에":9922,"▁문제에":9923,"▁본사에":9924,"▁보고서는":9925,"▁유지하기로":9926,"(31":9927,"▁곳으로":9928,"▁추진된다.":9929,"▁막는":9930,"▁정도의":9931,"▁전국적으로":9932,"▁제한이":9933,"▁잡아":9934,"▁이미지":9935,"▁현장의":9936,"근로시간":9937,"▁공공기관은":9938,"▁자체적으로":9939,"▁돌아오":9940,"▁메신저를":9941,"▁치열":9942,"들과의":9943,"▁브라우저":9944,"▁줄어드는":9945,"▁\"재택근무가":9946,"▁“재택근무가":9947,"▁기회로":9948,"▁이뤄지는":9949,"▁위기상황":9950,"▁노동자들의":9951,"▁전화로":9952,"▁몰려":9953,"달러로":9954,"▁차질을":9955,"▁파악됐다.":9956,"▁않을까":9957,"▁동참하고":9958,"▁서버에":9959,"▁3분의1":9960,"▁반응이":9961,"▁의무화했다.":9962,"▁라이선":9963,"세계적":9964,"▁골라":9965,"▁뜻이다.":9966,"▁편리하고":9967,"▁뉴스룸":9968,"거리두기":9969,"▁시차출퇴근제":9970,"▁CNN":9971,"재단은":9972,"▁88.4%가":9973,"▁헤드":9974,"▁헤이스팅":9975,"▁간담회":9976,"▁통계청이":9977,"▁재판부는":9978,"▁강릉시":9979,"▁기저질환자":9980,"▁좁은":9981,"▁스피커":9982,"▁노마드":9983,"▁모양새":9984,"▁하드웨어":9985,"▁뚜렷":9986,")’를":9987,",000":9988,"72":9989,"?...":9990,"Home":9991,"·수":9992,"·관리":9993,"·돌봄":9994,"·공공기관":9995,"▁.":9996,"▁r":9997,"▁컴":9998,"▁텅":9999,"▁들이":10000,"▁on":10001,"▁컴퓨팅":10002,"거운":10003,"근태":10004,"끄는":10005,"단은":10006,"동료":10007,"됐고,":10008,"드린":10009,"란지교":10010,"림픽":10011,"베이터":10012,"부로":10013,"비아":10014,"소,":10015,"시대":10016,"심사":10017,"재판":10018,"정상":10019,"직자":10020,"진을":10021,"진이":10022,"차례":10023,"참여":10024,"카드는":10025,"통상":10026,"판교":10027,"표준":10028,"▁이광":10029,"▁이밖에도":10030,"▁기침":10031,"▁지능":10032,"▁시내":10033,"▁가스":10034,"▁기업들에":10035,"▁아닐":10036,"▁“다":10037,"▁부각":10038,"▁근무하던":10039,"▁\"집":10040,"▁\"특히":10041,"▁조건을":10042,"▁유료":10043,"▁유리":10044,"기업으로":10045,"▁없게":10046,"▁없다\"며":10047,"▁400":10048,"▁5%":10049,"▁안타":10050,"▁거세":10051,"▁분담":10052,"▁때가":10053,"▁추이에":10054,"▁대상자":10055,"▁스튜":10056,"▁증설":10057,"...“":10058,"▁단지는":10059,"▁81":10060,"▁기자입니다.":10061,"▁필요시":10062,"▁세워":10063,"▁환경에서도":10064,"▁좋습니다.":10065,"▁거리가":10066,"▁프린":10067,"▁입국":10068,"▁입은":10069,"▁배울":10070,"▁방역지침":10071,"▁권유":10072,"▁아이들이":10073,"은행도":10074,"▁공무원을":10075,"기관의":10076,"▁열리는":10077,"▁적용한":10078,"▁PC,":10079,"▁플랜":10080,"▁기능과":10081,"▁곳곳에서":10082,"▁중요하다고":10083,"▁기술과":10084,"▁담배":10085,".3%,":10086,".7%에":10087,"▁착수":10088,"▁번에":10089,"▁다음날":10090,"▁걸렸다.":10091,"▁잡고":10092,"▁대부분은":10093,"▁기록한":10094,"▁성장세를":10095,"▁이동을":10096,"▁판단이":10097,"▁치료를":10098,"▁0세":10099,"▁자리에서":10100,"▁연결된":10101,"▁고민을":10102,"▁50대":10103,"▁됐다\"며":10104,"▁노동자들이":10105,"▁네트워크를":10106,"▁넘어선":10107,"▁사이버보험":10108,"▁콘퍼런스":10109,"▁상대방":10110,"▁출장,":10111,"▁마음이":10112,"▁받았다고":10113,"▁밀집도":10114,"코리아는":10115,"▁자가격리를":10116,"▁보건소":10117,"▁성공적인":10118,"인데요.":10119,"▁HR":10120,"▁진단검사를":10121,"▁홈페이지에서":10122,"▁느끼고":10123,"▁매뉴얼을":10124,"스플레이는":10125,"▁맛있":10126,"▁지키기":10127,"▁기여할":10128,"▁부총리":10129,"···":10130,"(Work-":10131,"(R&D":10132,"▁급속히":10133,"데스크톱":10134,"▁홀로":10135,"▁이벤트":10136,"▁선진국":10137,"▁털어":10138,"▁종업원":10139,"▁팬데믹(세계적":10140,"선수범":10141,"▁후지쓰":10142,"플래닛":10143,"▁니혼게이자이":10144,"(앱":10145,"7명":10146,"@ytn":10147,"AS":10148,"ESG":10149,"P)":10150,"R)":10151,"·2":10152,"·휴":10153,"·운영":10154,"가요?":10155,"갔다.":10156,"건의":10157,"금지":10158,"네이버":10159,"들,":10160,"들이다.":10161,"때문에":10162,"마을":10163,"명섭":10164,"목을":10165,"미칼":10166,"밀리":10167,"법은":10168,"비에":10169,"시각":10170,"아한":10171,"였고,":10172,"위험":10173,"점)":10174,"정은":10175,"지상":10176,"질의":10177,"퀘어":10178,"크루":10179,"▁이통":10180,"▁사회의":10181,"▁대민":10182,"▁지지":10183,"▁가깝":10184,"▁일생활균형":10185,"▁한창":10186,"▁정서":10187,"▁자칫":10188,"▁공연":10189,"▁공영":10190,"▁3교대":10191,"▁상사의":10192,"▁아베":10193,"▁부재":10194,"▁\"어":10195,"▁방산":10196,"▁주된":10197,"▁'그":10198,"▁조로":10199,"▁조심":10200,"▁나빠":10201,"▁원씩":10202,"▁원인":10203,"▁유흥":10204,"▁그리":10205,"▁내내":10206,"▁여론":10207,"▁소리":10208,"▁4시간":10209,"▁안면":10210,"▁사용했다.":10211,"▁많음.":10212,"▁증대":10213,"▁근로복지":10214,"▁금전":10215,"▁서비스와":10216,"▁출근과":10217,"▁확대하기로":10218,"▁운영한다고":10219,"▁외주":10220,"라인웍스":10221,"▁급감":10222,"▁보안에":10223,"▁9시부터":10224,"▁점수를":10225,"▁좋다":10226,"▁저조":10227,"▁사람들을":10228,"▁간격":10229,"▁취하고":10230,"▁진행되고":10231,"▁IDC":10232,"▁△재택근무":10233,"▁방역과":10234,"▁편한":10235,"▁되고,":10236,"▁대비하고":10237,"▁아이와":10238,".5%에":10239,".5%는":10240,"▁했지만,":10241,"▁강화한":10242,"▁투자가":10243,"▁심지어":10244,"▁마련하고":10245,"▁급여,":10246,"▁부서가":10247,"▁민감한":10248,"▁복지,":10249,"▁복지포인트":10250,"▁고려하지":10251,"▁하나가":10252,"▁광역":10253,"▁영업을":10254,"▁전국의":10255,"서비스(GVPN":10256,"▁정상출근":10257,"▁BNK":10258,"▁토크":10259,"▁이전의":10260,"▁현장에":10261,"▁네이버와":10262,"▁장기화하면서":10263,"▁판단에":10264,"▁분야에":10265,"▁노력이":10266,"▁300만원":10267,"▁위치해":10268,"▁중앙대책본부":10269,"▁21일부터":10270,"▁채용을":10271,"▁받아들":10272,"▁나눠서":10273,"▁소프트웨어(S":10274,"▁됐다고":10275,"▁200만":10276,"▁LG유플러스도":10277,"▁소비자가":10278,"▁인구가":10279,"▁취업포털":10280,"▁먹을":10281,"▁규정하고":10282,"▁보험료를":10283,"▁장점으로":10284,"▁불과하다.":10285,"▁31일까지":10286,"▁근무자들의":10287,"▁늘었다고":10288,"▁얻을":10289,"▁80%를":10290,"▁유급휴가":10291,"▁늦게":10292,"▁1주일에":10293,"▁퍼블":10294,"▁압도":10295,"▁캐나다":10296,"▁잦아":10297,"▁체온을":10298,"스타트업":10299,"▁솔선수범":10300,"▁블룸버그통신":10301,"▁똑같이":10302,"▁보수적인":10303,"▁실질적인":10304,"▁감안해":10305,"대학원":10306,"▁이탈리아":10307,"▁자영업자":10308,"====":10309,"▁이끌어":10310,"▁협업도구":10311,"▁한은은":10312,"▁미래에셋":10313,"▁면역력이":10314,"▁특파원":10315,"/사진=":10316,"3명으로":10317,"@Home":10318,"HIE":10319,"ok":10320,"su":10321,"▁X":10322,"▁깜":10323,"▁던":10324,"▁엉":10325,"▁옷":10326,"▁ye":10327,"격탄":10328,"과정":10329,"년을":10330,"대행":10331,"도도":10332,"도의":10333,"되기도":10334,"된다\"고":10335,"량도":10336,"료는":10337,"미래":10338,"배달":10339,"배치":10340,"보기":10341,"성적":10342,"성평등":10343,"시민":10344,"액의":10345,"양육":10346,"업,":10347,"장에서":10348,"재생":10349,"적일":10350,"조가":10351,"조사업체":10352,"죠?":10353,"초등학교":10354,"카이":10355,"했다면":10356,"호사":10357,"▁이천":10358,"▁재택근무제도":10359,"▁대인":10360,"▁지내":10361,"▁지양":10362,"▁지란지교":10363,"▁수십":10364,"▁수정":10365,"▁수펙스추구협의회":10366,"▁전북":10367,"▁전원을":10368,"▁등)":10369,"▁일어":10370,"▁일상을":10371,"▁중시":10372,"▁중이라고":10373,"▁한산":10374,"▁인생":10375,"▁상무는":10376,"▁아들":10377,"▁“올해":10378,"▁업무수행":10379,"▁\"비대면":10380,"▁방어":10381,"▁'제":10382,"▁하라고":10383,"▁출범":10384,"▁유한킴벌":10385,"▁서재":10386,"▁신제품":10387,"▁그쳤":10388,"▁구제":10389,"▁해주":10390,"▁여전":10391,"▁소폭":10392,"▁감정":10393,"▁5배":10394,"▁어도":10395,"▁안경":10396,"▁국립":10397,"▁국면":10398,"▁국토":10399,"▁마시":10400,"▁의뢰":10401,"▁적발":10402,"▁스크":10403,"▁가능성에":10404,"▁따라,":10405,"▁본청":10406,"▁시간,":10407,"▁직장이":10408,"▁서비스로":10409,"▁상황과":10410,"▁운영하기로":10411,"▁급변":10412,"▁서울형":10413,"▁접어":10414,"▁화이트":10415,"▁변동":10416,"▁김포":10417,"▁지역은":10418,"▁취지로":10419,"▁맞물":10420,"▁맞이":10421,"▁프라":10422,"▁국내에서도":10423,"▁진행된다.":10424,"▁진행되는":10425,"▁△업무":10426,"▁2012년":10427,"▁전환한다.":10428,"▁지급된다.":10429,"▁메뉴":10430,"▁고객과":10431,"▁청송":10432,"▁연장한다고":10433,"▁공무원들의":10434,"▁삼성은":10435,"는데요.":10436,"(1만":10437,"▁변화의":10438,"▁보고가":10439,"▁기존에는":10440,"▁곳을":10441,"▁폐쇄한":10442,"▁개선이":10443,".4%에":10444,"▁휴직자":10445,"▁우려를":10446,"▁100%로":10447,"▁질이":10448,"▁빠르고":10449,"▁만들었다.":10450,"▁성과관리":10451,"▁성과평가":10452,"▁규모에":10453,"▁정도다.":10454,"▁절반에":10455,"▁별관":10456,"▁효과도":10457,"시설이":10458,"▁백화점":10459,"▁음식을":10460,"▁2023년":10461,"▁건물에서":10462,"ook":10463,"▁문서중앙화":10464,"▁방지와":10465,"▁위험에":10466,"▁0시":10467,"▁/김":10468,"명)에":10469,"▁머무":10470,"▁방법이":10471,"▁모습.":10472,"▁착용,":10473,"▁벌써":10474,"▁주목을":10475,"▁삼성전자와":10476,"▁점검하고":10477,"▁2만명을":10478,"▁한화시스템":10479,"(SNS":10480,"▁전반으로":10481,"▁촉발":10482,"▁능력을":10483,"▁가격은":10484,"▁가격이":10485,"▁대통령이":10486,"00만원을":10487,"▁지정해":10488,"▁바뀌고":10489,"▁선보였다.":10490,"▁가사서비스":10491,"▁제출한":10492,"▁세종시":10493,"▁정기적으로":10494,"▁시차출퇴근제,":10495,"▁붙어":10496,"▁전산센터":10497,"▁탑승":10498,"고용평등과":10499,"▁통보를":10500,"▁서초구":10501,"▁‘2020년":10502,"▁언급했다.":10503,"▁위메프는":10504,"▁국무총":10505,"▁이재갑":10506,"▁선임기자":10507,"▁그만두":10508,"▁유사한":10509,"▁윗사람":10510,"▁싱가포르":10511,"▁SK브로드밴드":10512,"시차출퇴근":10513,"▁中企":10514,"▁1/3":10515,"▁에듀윌":10516,"LD@Home":10517,"엔지니어링":10518,"▁모양새다.":10519,"▁니혼게이자이신문":10520,"HIELD@Home":10521,"200":10522,"EH":10523,"ag":10524,"ap":10525,"▁꽃":10526,"▁혈":10527,"▁텔레워크":10528,"가?":10529,"고는":10530,"고령사회":10531,"곳으로":10532,"광역":10533,"국회":10534,"권이":10535,"녹십":10536,"놓은":10537,"다면서":10538,"락을":10539,"락커":10540,"레이션":10541,"린더":10542,"마이크로소프트":10543,"모금":10544,"보수":10545,"본사":10546,"상,":10547,"시티":10548,"식은":10549,"억원이":10550,"여명의":10551,"음에도":10552,"자재":10553,"장관":10554,"점심":10555,"제에":10556,"지청":10557,"지원을":10558,"층,":10559,"콘텐츠":10560,"투데이":10561,"트,":10562,"표를":10563,"푸드":10564,"해져":10565,"▁이거":10566,"▁이겨":10567,"▁이현":10568,"▁이들을":10569,"▁사외":10570,"▁지목":10571,"▁수월":10572,"▁전남":10573,"▁직격탄":10574,"▁가벼":10575,"▁가질":10576,"▁일고":10577,"▁일제":10578,"▁중견":10579,"▁인쇄":10580,"▁인수":10581,"▁인접":10582,"▁제가":10583,"▁기업이다.":10584,"▁‘한":10585,"▁‘디지털":10586,"▁“확진":10587,"▁업무도":10588,"▁다할":10589,"▁주소":10590,"▁'전":10591,"▁출석":10592,"▁원에서":10593,"▁육아휴직과":10594,"▁유의":10595,"▁신천":10596,"▁않지만":10597,"▁해주는":10598,"▁오다":10599,"다”라며":10600,"▁감면":10601,"▁4년":10602,"▁520":10603,"▁지원은":10604,"▁확산한":10605,"▁마치":10606,"▁예의":10607,"▁예컨대":10608,"▁만남":10609,"▁늘린":10610,"▁확진된":10611,"환경이":10612,"▁불평등":10613,"▁스포츠":10614,"▁대한상의":10615,"▁8월부터":10616,"▁사무실의":10617,"▁반대로":10618,"▁무단":10619,"▁건수는":10620,"▁보안시스템":10621,"▁맞춘":10622,"▁이어졌다.":10623,"▁초대":10624,"▁기간보다":10625,"▁배정":10626,"▁과제를":10627,"▁회의도":10628,"▁어려웠":10629,"▁응원":10630,"▁예정된":10631,"▁새벽":10632,"▁기준)":10633,"▁응답도":10634,"▁가족을":10635,"▁피부":10636,"▁출퇴근제를":10637,"▁학원":10638,"▁넘었다.":10639,"▁부서를":10640,"▁속도로":10641,"▁구성된":10642,".8%가":10643,"▁11시":10644,"▁완화를":10645,"▁일본,":10646,".9%는":10647,"회사에":10648,"▁제외된다.":10649,"▁개발을":10650,"▁민주당":10651,"▁담겼다.":10652,"▁SK텔레콤의":10653,"▁손실을":10654,"▁우려로":10655,"▁유연근무를":10656,"▁하나인":10657,"▁성과에":10658,"▁업체가":10659,"▁현대자동차":10660,"▁강조하고":10661,"페이스락커":10662,"▁공유오피스":10663,"▁좋은기업":10664,"▁찾을":10665,"▁홈쇼핑":10666,"라이프":10667,"▁전년대비":10668,"▁BBC":10669,"▁가정이":10670,"▁준비하는":10671,"시설,":10672,"▁백악":10673,"▁공공기관에":10674,"▁드는":10675,"▁내년까지":10676,"▁알려진":10677,"▁치아":10678,"▁단계적":10679,"▁노력하고":10680,"▁0.9":10681,"▁50%를":10682,"▁자신을":10683,"▁됐습니다.":10684,"▁스트레":10685,"▁미만의":10686,"▁인천시":10687,"▁전사적으로":10688,"▁재확산하면서":10689,"▁현실이다.":10690,"▁폭발":10691,"▁추세를":10692,"▁향상에":10693,"▁차질없이":10694,"lex":10695,"▁웹캠":10696,"▁불안감을":10697,"▁한화솔루션":10698,"▁나머지는":10699,"▁검사에서":10700,"▁맡고":10701,"▁해소하기":10702,"▁계약을":10703,"ᄏᄏᄏᄏ":10704,"▁아마존,":10705,"▁하겠다”고":10706,"테크노":10707,"▁체계적인":10708,"▁조금씩":10709,"▁즐겁":10710,"▁일시적으로":10711,"▁금융권에":10712,"▁바꾸고":10713,"▁느낌이":10714,"▁LS타워":10715,"▁수평적":10716,"▁120만원":10717,"▁신경을":10718,"▁길어지면서":10719,"▁정확한":10720,"▁역학조사를":10721,"▁지난주부터":10722,"▁화장실":10723,"▁브리핑에서":10724,"▁인사담당자":10725,"▁썼다.":10726,"----------------":10727,"▁짧은":10728,"▁대선주":10729,"▁만성질환":10730,"▁정세균":10731,"▁컬러":10732,"▁꼼꼼":10733,"▁며칠":10734,"AGO":10735,"EHAGO":10736,"\"며":10737,"%나":10738,"1만":10739,"2회":10740,"32":10741,"FH":10742,"TT":10743,"W)":10744,"i.co.kr":10745,"je":10746,"jh":10747,"oc":10748,"pl":10749,"·김":10750,"▁굿":10751,"▁뇌":10752,"▁밸":10753,"▁벽":10754,"▁쌍":10755,"감에":10756,"건물":10757,"국적":10758,"군이":10759,"기본":10760,"도시에":10761,"동기":10762,"라운":10763,"렇게":10764,"마일":10765,"말까지":10766,"밀번호":10767,"복을":10768,"상태":10769,"서구":10770,"서에":10771,"세는":10772,"소는":10773,"스탠":10774,"아요":10775,"았던":10776,"연수":10777,"인기자":10778,"제’":10779,"주를":10780,"처가":10781,"커뮤니":10782,"타치":10783,"트릭":10784,"팬데믹":10785,"편이":10786,"함께":10787,"해당":10788,"했다\"면서":10789,"확실":10790,"▁이석":10791,"▁이수":10792,"▁이마트":10793,"▁있다’고":10794,"▁기밀":10795,"▁기분":10796,"▁대외":10797,"▁시공":10798,"▁가파":10799,"▁중대본":10800,"▁보너":10801,"▁제거":10802,"▁상고":10803,"▁‘불":10804,"▁‘제":10805,"▁‘심각":10806,"▁“대":10807,"▁“사무실":10808,"▁부합":10809,"▁업무시간":10810,"▁원까지":10811,"▁유선":10812,"00원":10813,"▁연초":10814,"▁그가":10815,"▁도로":10816,"▁모를":10817,"▁개리는":10818,"▁없으면":10819,"▁소식을":10820,"▁5천":10821,"▁생명":10822,"▁마비":10823,"▁시행하면서":10824,"▁많습니다.":10825,"▁집은":10826,"▁선물":10827,"▁6월부터":10828,"▁경우엔":10829,"▁감염된":10830,"▁스테":10831,"▁단독":10832,"▁단일":10833,"▁8개":10834,"▁8시간":10835,"▁SSL":10836,"▁7시":10837,"▁확대한":10838,"▁확대...":10839,"▁복지는":10840,"▁운영한":10841,"▁무너":10842,"▁무역":10843,"▁건수가":10844,"▁원격근무의":10845,"▁10일까지":10846,"▁체육":10847,"▁솔루션,":10848,"▁맞지":10849,"▁LI":10850,"▁Life":10851,"▁한국수":10852,"▁한국에서":10853,"▁알바":10854,"▁배제":10855,"▁관리하고":10856,"▁처벌":10857,"▁명은":10858,"▁명절":10859,"▁행안":10860,"▁재택을":10861,"▁아이템":10862,"▁두려":10863,"▁정보가":10864,"▁디자":10865,"▁현재의":10866,"▁출산장려":10867,"▁크기":10868,"▁허가":10869,"▁준하는":10870,"▁피할":10871,"▁생각하고":10872,"▁생각하면":10873,"▁문제도":10874,"▁마련하는":10875,"▁사내복지":10876,".2%는":10877,"(39":10878,"▁시장조사업체":10879,"▁장기적인":10880,"▁폐쇄했다.":10881,"▁비율도":10882,"▁지속할":10883,"▁선택이":10884,"▁우려해":10885,"▁16개":10886,"▁하루에":10887,"▁규모다.":10888,"▁허용한":10889,"감염병":10890,"▁임신기":10891,"▁만족도는":10892,"▁된다”고":10893,"▁인력만":10894,"▁누가":10895,"▁접촉자로":10896,"▁17일부터":10897,"▁수도권에서":10898,"▁공공기관의":10899,"▁복귀한":10900,"▁분야는":10901,"성과관리":10902,"▁돌아가는":10903,"▁싶어":10904,"▁상태로":10905,"▁상태에서":10906,"▁부산지역":10907,"▁장려하고":10908,"▁22일까지":10909,"▁50%가":10910,"▁조성하는":10911,"▁혁신적인":10912,"▁수행하고":10913,"▁보도자료":10914,"▁기본적으로":10915,"▁있었지만":10916,"▁인식을":10917,"@hani.co.kr":10918,"▁경기도가":10919,"금융권":10920,"▁조정하는":10921,"10년":10922,"▁패러다":10923,"▁않았지만":10924,"▁많아서":10925,"정책과":10926,"in@etnews.com":10927,"▁작업이":10928,"▁책임이":10929,"▁상당한":10930,"▁바우처를":10931,"▁실적이":10932,"▁가능하며,":10933,"▁kim":10934,"▁양육에":10935,"▁2년간":10936,"▁어린이집에":10937,"가정양립":10938,"▁돕기":10939,"▁엄마의":10940,"▁병행하는":10941,"▁뜻하는":10942,"ital":10943,"▁지켜야":10944,"▁가사노동":10945,"▁걱정이":10946,"▁일시적인":10947,"▁무상으로":10948,"▁1명꼴":10949,"▁이틀간":10950,"▁balance":10951,"▁많았고":10952,"데이타":10953,"▁지나면":10954,"▁사항은":10955,"▁복무관리":10956,"▁여유가":10957,"▁SK이노베이션은":10958,"▁금감원":10959,"99인":10960,"▁멈추":10961,"▁애플리케이션(앱":10962,"▁전통적인":10963,"▁사후지급":10964,"____":10965,"~12개월":10966,"▁탐지":10967,"▁넷플릭스":10968,"▁조짐을":10969,"▁일각에서는":10970,"▁최선의":10971,"▁부회장은":10972,"▁현대건설기계":10973,"▁번갈아":10974,"▁끊임없이":10975,"▁일제히":10976,"%포인트":10977,"(h":10978,"3월":10979,"62":10980,"64":10981,"9@ajunews.com":10982,"M)":10983,"ec":10984,"park":10985,"~7":10986,"·게임":10987,"·카카오":10988,"▁챗":10989,"가.":10990,"건에":10991,"공급":10992,"군,":10993,"근속":10994,"꺼번에":10995,"드리":10996,"드백":10997,"리즘":10998,"매김":10999,"모니터":11000,"무역":11001,"문은":11002,"방지":11003,"배우":11004,"비도":11005,"빨리":11006,"사이":11007,"사에서":11008,"수민기자":11009,"승진":11010,"양한":11011,"업종":11012,"에듀":11013,"여가":11014,"웍스는":11015,"재무":11016,"적이라고":11017,"종사":11018,"체육":11019,"총괄":11020,"추진":11021,"치게":11022,"타운":11023,"파파":11024,"플렉스":11025,"환자":11026,"▁이건":11027,"▁이혼":11028,"▁대답":11029,"▁지휘":11030,"▁수많은":11031,"에서부터":11032,"▁전공":11033,"▁것이라":11034,"▁한꺼번에":11035,"▁위성":11036,"▁정유":11037,"▁정명섭":11038,"▁공장을":11039,"▁기업·":11040,"▁기업이나":11041,"▁경로":11042,"▁‘줌":11043,"▁‘리모트":11044,"▁코로나19는":11045,"▁“어":11046,"▁근무자가":11047,"▁근무자를":11048,"▁\"'":11049,"▁\"대":11050,"▁다행":11051,"▁주가는":11052,"▁고급":11053,"▁육아휴직,":11054,"▁신선":11055,"기업들이":11056,"▁도중":11057,"▁개입":11058,"▁소모":11059,"▁400명":11060,"▁5분의":11061,"▁지원하고,":11062,"▁확산세를":11063,"▁강도":11064,"▁마이크":11065,"▁의사를":11066,"▁노후":11067,"▁만한":11068,"▁확진자의":11069,"▁6시까지":11070,"▁불거":11071,"▁증명":11072,"▁올리":11073,"▁서비스,":11074,"▁복수응답":11075,"▁외신":11076,"▁이후부터":11077,"▁10만원":11078,"▁관련주":11079,"▁김진":11080,"▁후에":11081,"▁솔루션인":11082,"▁종교":11083,"▁진행될":11084,"▁사태의":11085,"▁관리자가":11086,"▁방식과":11087,"▁대응이":11088,"▁자녀돌봄":11089,"▁규제를":11090,"▁게다가":11091,"▁물품을":11092,"▁양극":11093,"▁있어요.":11094,"▁예정이라고":11095,"▁심의":11096,".2%가":11097,"▁리모":11098,"사업장을":11099,"▁IT업계":11100,"▁유지한다.":11101,"▁평가하는":11102,"▁갖췄다.":11103,"▁시장조사":11104,"▁확인하는":11105,"▁워라밸빌리지":11106,".3%는":11107,"▁글이":11108,"▁휴가가":11109,"▁정책의":11110,"기술)":11111,"▁힘써":11112,"▁집중적으로":11113,"(49":11114,"▁카카오,":11115,"▁건강보험":11116,"▁시대,":11117,"▁업체들이":11118,"▁현대카드":11119,"▁타이":11120,"▁자율적인":11121,"▁있을지":11122,"▁산업용":11123,"▁산업의":11124,"▁접촉이":11125,"▁제한을":11126,"▁이전에는":11127,"▁드라마":11128,"(51":11129,"▁확보하기":11130,"▁연봉,":11131,"▁해결해야":11132,"▁자리매김":11133,"▁50%로":11134,"▁긴급돌봄":11135,"▁희망자를":11136,"▁악용":11137,"▁격상된":11138,"▁않았던":11139,"도시공사":11140,"▁LG전자가":11141,"▁근무시간이":11142,"▁경력직":11143,"▁영상통화":11144,"▁점검을":11145,"▁jms":11146,"(61":11147,"계획을":11148,"▁보내고":11149,"▁달라\"고":11150,"협회는":11151,"▁축하":11152,"▁회식·":11153,"▁서버를":11154,"▁직원에게는":11155,"▁홈페이지를":11156,"▁혜택이":11157,"▁트렌드를":11158,"교육청,":11159,"▁그래픽":11160,"▁연속성":11161,".0%로":11162,"▁북미":11163,"▁택시":11164,"기준을":11165,"▁슬기":11166,"▁방향을":11167,"▁천안":11168,"▁탈취":11169,"만5000":11170,"▁이슈가":11171,"▁이직을":11172,"▁남편이":11173,"▁늘리기로":11174,"▁보유하고":11175,"▁휴대폰":11176,"▁GS리테":11177,"▁부당한":11178,"▁협약을":11179,"▁쇼핑몰":11180,"▁중순부터":11181,"▁돌보기":11182,"▁LG디스플레이는":11183,"공동모금":11184,"▁'리모트뷰":11185,"▁다중이용":11186,"▁JP모건":11187,"▁시·도":11188,"▁목소리도":11189,"▁실정이다.":11190,"▁정부원격근무서비스(GVPN":11191,"▁배터리":11192,"▁개개인의":11193,"▁바꿨다.":11194,"▁중앙방역대책본부":11195,"▁스튜디오":11196,"▁가벼운":11197,"▁jms9@ajunews.com":11198,"(가":11199,"22":11200,"47":11201,"87":11202,"9%":11203,"9명":11204,"=뉴스1":11205,"AI":11206,"BI":11207,"ment":11208,"·가사":11209,"▁z":11210,"▁낙":11211,"▁섭":11212,"▁ᅲᅲ":11213,"고가":11214,"교대로":11215,"달아":11216,"돼도":11217,"드대":11218,"범위":11219,"보상":11220,"본다.":11221,"부족":11222,"업에":11223,"영리":11224,"이기도":11225,"임에도":11226,"자력":11227,"저축":11228,"지게":11229,"차별":11230,"청의":11231,"층은":11232,"행복":11233,"▁이경":11234,"▁이보다":11235,"▁지상":11236,"▁지향":11237,"▁시큐":11238,"▁2.":11239,"▁일하":11240,"▁일하면서":11241,"▁위로":11242,"▁위기에":11243,"▁정작":11244,"▁3대":11245,"▁기업에는":11246,"▁상의":11247,"▁‘1":11248,"▁‘자":11249,"▁‘언택트":11250,"▁‘매우":11251,"▁“집":11252,"▁“업무":11253,"▁“원격근무":11254,"▁\"주":11255,"▁\"고객":11256,"▁\"확진":11257,"▁주인":11258,"▁관행":11259,"▁하소연":11260,"▁회장의":11261,"▁유망":11262,"▁유지를":11263,"▁그중":11264,"▁도장을":11265,"▁개통":11266,"▁없다면":11267,"면서도":11268,"▁해왔다.":11269,"▁5000":11270,"▁생태":11271,"▁현판":11272,"▁강구":11273,"▁의한":11274,"▁시행이":11275,"▁때와":11276,"▁많다":11277,"▁동선을":11278,"▁대상에서":11279,"▁스케":11280,"▁스페":11281,"▁스페이스":11282,"센터에":11283,"▁차이는":11284,"▁매입":11285,"▁매칭":11286,"▁사업의":11287,"▁교환":11288,"▁하는지":11289,"▁상황으로":11290,"▁정부도":11291,"▁이후에는":11292,"▁포항":11293,"▁제공한다고":11294,"▁관계를":11295,"▁9개월":11296,"▁김대":11297,"▁김동":11298,"▁지난해보다":11299,"▁이용자가":11300,"▁이용하면":11301,"▁각급":11302,"▁들어갈":11303,"▁과장은":11304,"▁전환에":11305,"▁중소기업과":11306,"▁했다\"며":11307,"▁거리두기'":11308,"▁일부개정":11309,"▁공무원에게":11310,"▁파일을":11311,"▁월요":11312,"▁기준에":11313,"▁총무":11314,"▁30일부터":11315,"▁적용했다.":11316,"▁수요일":11317,"▁화상회의로":11318,"▁변화하는":11319,"▁식이다.":11320,"▁기능은":11321,".9%가":11322,"▁추진해":11323,"▁부모님":11324,"▁100인":11325,"▁1년이":11326,"▁애초":11327,"▁삶과":11328,"▁하나다.":11329,"(47":11330,"▁첫날":11331,"▁비용은":11332,"▁광명":11333,"▁데이터에":11334,"▁노트북으로":11335,"▁설치하는":11336,"▁물론이고":11337,"근로제":11338,"▁사례는":11339,"▁승소":11340,"▁공공기관이":11341,"▁내부망":11342,"(CE":11343,"▁고민하는":11344,"▁받아들이":11345,"▁볼보":11346,"▁2008년":11347,"▁머니":11348,"▁워크숍":11349,"시장의":11350,"시장에서":11351,"대책본부는":11352,"▁거주지":11353,"▁보장하는":11354,"▁넘어서":11355,"▁군대":11356,"▁사이버보안":11357,"▁블로그":11358,"▁불편함을":11359,"▁본격적인":11360,"▁업종별":11361,"▁불안감이":11362,"▁안내하고":11363,"▁극복할":11364,"▁백신을":11365,"▁사진제공=":11366,"▁참석한":11367,"▁트렌드로":11368,"▁VPN을":11369,"▁경북도":11370,"▁소개한다.":11371,"▁평소보다":11372,"▁대법관":11373,"▁뉴스1":11374,"▁설정할":11375,"▁개인정보를":11376,"line":11377,"▁이메일로":11378,"▁봐도":11379,"느냐는":11380,"하우스":11381,"▁자산운용":11382,"▁똑같은":11383,"▁정확히":11384,"▁듣고":11385,"네트웍스":11386,"▁지속가능한":11387,"▁마지막으로":11388,"▁액세스":11389,"▁펼쳐":11390,"▁습관":11391,"irtu":11392,"▁방역수칙을":11393,"유치원":11394,"▁깔끔":11395,"▁시리즈":11396,"▁넷플릭":11397,"▁실업급여":11398,"▁프랑스":11399,"▁경총은":11400,"▁아니냐는":11401,"▁쾌적한":11402,"▁힘쓰고":11403,"(VDI)":11404,"▁대표이사는":11405,"▁업그레이드":11406,"irtual":11407,"4%":11408,"C)":11409,"WS":11410,"are":11411,"go":11412,"ue":11413,"~지상":11414,"·정":11415,"▁*":11416,"▁”":11417,"▁곽":11418,"▁셔":11419,"▁쇼":11420,"▁흘":11421,"▁벤처기업":11422,"▁lee":11423,"간에":11424,"간다는":11425,"강의":11426,"객이":11427,"공항":11428,"과컴퓨터":11429,"교사":11430,"내용":11431,"년이":11432,"노총":11433,"됐고":11434,"뒀다.":11435,"라떼":11436,"랩은":11437,"미를":11438,"법률":11439,"부·":11440,"부부":11441,"빌리티":11442,"선에서":11443,"설턴":11444,"수칙을":11445,"씨도":11446,"어비스":11447,"엄마":11448,"었지만":11449,"영역":11450,"유아":11451,"율도":11452,"작업을":11453,"저히":11454,"적,":11455,"제일":11456,"줬다.":11457,"직무":11458,"추진단":11459,"케미칼":11460,"편의":11461,"함,":11462,"화로":11463,"희망":11464,"▁이정":11465,"▁이들도":11466,"▁이코노미":11467,"으로의":11468,"▁1단계":11469,"▁전과":11470,"▁전례":11471,"▁일회":11472,"▁중”이라고":11473,"▁보며":11474,"▁보입니다.":11475,"▁직원으로":11476,"▁3000":11477,"▁아쉽":11478,"▁“주":11479,"▁“고객":11480,"▁“우리는":11481,"▁부적":11482,"▁\"재택":11483,"▁\"사무실":11484,"▁비어":11485,"▁'원격근무":11486,"▁조회":11487,"▁출장은":11488,"▁회식을":11489,"▁구인":11490,"▁모은":11491,"▁않거나":11492,"▁개시":11493,"▁소파":11494,"▁4월부터":11495,"▁말했습니다.":11496,"▁생성":11497,"▁때,":11498,"▁가능성":11499,"▁특화된":11500,"▁단속":11501,"▁단행":11502,"▁근로계약":11503,"▁매력":11504,"▁시간대":11505,"▁세탁":11506,"▁운영체제":11507,"▁접목":11508,"▁사회복지":11509,"▁보안의":11510,"▁증가율은":11511,"▁제공,":11512,"▁관계자":11513,"▁데일리":11514,"▁후에는":11515,"▁취임":11516,"▁한국전력":11517,"▁알렸다.":11518,"▁알아서":11519,"▁당일":11520,"▁이어진":11521,"▁진행해":11522,"▁편입":11523,"▁클릭":11524,"▁아이들":11525,"▁PwC":11526,"▁있어도":11527,"▁효율성과":11528,"▁공무원에":11529,"▁출산한":11530,"▁트랜":11531,"▁총력":11532,"▁커졌다.":11533,"▁마련해야":11534,"▁사내식당":11535,"▁근로자에":11536,"▁근로자와":11537,"▁IT(":11538,"▁IT인프라":11539,".4%는":11540,"▁선택근무":11541,"▁휴직자가":11542,"▁인사평가":11543,"▁우려되는":11544,"▁복지제도":11545,"▁조직을":11546,"▁조직이":11547,"▁전망도":11548,"▁제품이다.":11549,"▁프로그램이":11550,"▁강조하는":11551,"▁비용으로":11552,"▁비상근무":11553,"▁산업재":11554,"▁제한하는":11555,"▁전년도":11556,"▁준비해":11557,"▁용역":11558,"▁이동이":11559,"▁인터넷을":11560,"▁떨어뜨":11561,"▁보인다”고":11562,"▁페이스북이":11563,"▁연봉과":11564,"▁해결하는":11565,"▁야외":11566,"▁관심도":11567,"▁채용할":11568,"▁태어난":11569,"▁어렵게":11570,"▁1만2":11571,"▁이뤄진":11572,"▁자제,":11573,"위원회에":11574,"▁모습이":11575,"▁많아졌":11576,"▁인구정책":11577,"▁군포":11578,"▁미래를":11579,"▁차단하기":11580,"▁상당수가":11581,"▁의미가":11582,"▁논의가":11583,"▁구매할":11584,"▁2만2":11585,"▁근무환경이":11586,"dain@etnews.com":11587,"▁불가피할":11588,"▁hj":11589,"상황을":11590,"들에겐":11591,"▁엄마가":11592,"▁뜻을":11593,"▁제기했다.":11594,"▁자가격리에":11595,"▁입주해":11596,"여성가족":11597,"▁유치원과":11598,"▁하락했다.":11599,"▁장려금은":11600,"▁뛰었다.":11601,".0%,":11602,"▁북한":11603,"▁이외에":11604,"▁초기부터":11605,"▁최고경영자(CEO)가":11606,"▁넓은":11607,"▁영업이익이":11608,"▁캠페인을":11609,"▁콘텐츠를":11610,"▁돌아가며":11611,"▁팀장급":11612,"▁나누어":11613,"▁채널을":11614,"▁석유":11615,"78명을":11616,"▁생기지":11617,"▁이사장은":11618,"▁소송을":11619,"▁빅테크":11620,"▁재계에":11621,"▁급속도로":11622,"▁IBK":11623,"▁근본적으로":11624,"▁근본적인":11625,"▁약속했다.":11626,"▁순환근무제를":11627,"▁반려동물":11628,"▁법무법인":11629,"▁과도한":11630,"▁졸업":11631,"▁동종업계":11632,"▁확산방지를":11633,"▁세일즈":11634,"▁층간소음":11635,"▁ohdain@etnews.com":11636,"▁감염증(코로나":11637,"▁GC녹십":11638,"▁엘리베이터":11639,"(R&D)":11640,"▁오다인기자":11641,"커뮤니케이션":11642,"▁챗봇":11643,"3개":11644,"9년":11645,"PI":11646,"ad":11647,"gh":11648,"ur":11649,"you":11650,"·3":11651,"·외":11652,"▁싼":11653,"▁죄":11654,"감정":11655,"경기도":11656,"기'":11657,"나고":11658,"노트북":11659,"눈에":11660,"늦게":11661,"다니":11662,"데없는":11663,"드와":11664,"레인":11665,"발의":11666,"방을":11667,"보지":11668,"사들은":11669,"서,":11670,"소가":11671,"안은":11672,"았습니다.":11673,"여행":11674,"연령":11675,"연한":11676,"영상회의":11677,"원식":11678,"위의":11679,"이랑":11680,"자마자":11681,"조원을":11682,"중공업":11683,"지아":11684,"지사는":11685,"토스트":11686,"팀은":11687,"퍼스":11688,"평소":11689,"평정":11690,"포럼":11691,"학자":11692,"합의":11693,"행위":11694,"▁이들에게":11695,"▁기념":11696,"▁사측":11697,"▁수를":11698,"▁2억":11699,"▁전시":11700,"▁전에는":11701,"▁가림":11702,"▁일평균":11703,"▁정시":11704,"▁자릿":11705,"▁3명이":11706,"▁기업은행은":11707,"▁“여":11708,"▁“공무원":11709,"▁부하":11710,"▁부득이":11711,"▁업무협약":11712,"▁업무공백":11713,"▁주3일":11714,"▁'주":11715,"▁관내":11716,"▁조선":11717,"▁조속":11718,"▁원주":11719,"▁고성":11720,"▁유산":11721,"기업을":11722,"▁그때":11723,"까지도":11724,"▁도보":11725,"▁도출":11726,"▁개혁":11727,"▁없으니":11728,"▁해양":11729,"▁해리스":11730,"▁오류":11731,"▁여자":11732,"▁4천":11733,"▁450":11734,"▁말이다.":11735,"▁지원책":11736,"▁안양":11737,"▁20분":11738,"▁만만":11739,"▁미비":11740,"▁동네":11741,"▁동물":11742,"▁집과":11743,"▁적정":11744,"▁이상,":11745,"▁재산":11746,"▁확대가":11747,"▁확대하고,":11748,"▁운영이":11749,"▁외식":11750,"▁사회가":11751,"▁증가는":11752,"▁제공하기로":11753,"▁체중":11754,"▁발생하면":11755,"▁간식":11756,"▁임직원들을":11757,"▁남성육아휴직":11758,"▁한국판":11759,"▁종종":11760,"▁초까지":11761,"▁배상":11762,"▁금융기관":11763,"▁과제로":11764,"▁요금":11765,"▁응대":11766,"▁지급하기로":11767,"▁했고":11768,"▁대기업을":11769,"▁연장하고":11770,"▁공무원들은":11771,"▁구축한":11772,"▁피드백":11773,"▁생각할":11774,"▁15일까지":11775,"▁출퇴근이":11776,"▁출퇴근제":11777,"▁적용된":11778,"▁PC가":11779,"▁사내에":11780,"사회복지":11781,"▁문화,":11782,"▁근로자도":11783,"▁변화로":11784,"▁변화하고":11785,"▁목요일":11786,"회사인":11787,"▁이유에서다.":11788,"▁개선하고":11789,"▁인사·":11790,"▁합류":11791,"▁충전":11792,"▁180":11793,"▁대구에":11794,"▁하나도":11795,"▁하나금융":11796,"문화센터":11797,"▁걸림":11798,"▁타격":11799,"▁분석해":11800,"▁임신과":11801,"▁전국에서":11802,"육아휴직보너스":11803,"▁지침은":11804,"▁쉽고":11805,"위원장은":11806,"(52":11807,"(54":11808,"▁급증하면서":11809,"▁판단해":11810,"▁쓸수":11811,"▁끝에":11812,"▁코어":11813,"▁브이엠":11814,"▁버즈":11815,"▁겪은":11816,"공간,":11817,"▁보도합니다.":11818,"▁환영":11819,"▁여러가지":11820,"레이닝":11821,"▁임산부나":11822,"▁희망자":11823,"▁철회":11824,"▁이뤄졌다.":11825,"▁민간부문":11826,"▁전면적인":11827,"▁LG전자도":11828,"기간이":11829,"▁군은":11830,"▁목표다.":11831,"▁29일까지":11832,"▁고용노동부의":11833,"▁출장도":11834,"▁마음을":11835,"▁돈이":11836,"▁탄소":11837,"▁불가능하다.":11838,"▁방송을":11839,"▁좋아하는":11840,"▁대유행으로":11841,"▁다음달부터":11842,"▁제기됐다.":11843,"ite":11844,"▁언택트(비대면":11845,"여성정책":11846,"cha":11847,"▁시민들이":11848,"▁단체협약":11849,"▁제주도":11850,"▁불이익이":11851,"▁본부장은":11852,"▁빈번":11853,"▁전산망":11854,"▁터치":11855,"▁영역을":11856,"니까?":11857,"▁넓히":11858,"▁범위에서":11859,"▁있다며":11860,"▁몸을":11861,"▁니즈":11862,"▁거점오피스":11863,"▁조건으로":11864,"▁캘린더":11865,"▁제안했다.":11866,"▁남양유업은":11867,"▁낮추기":11868,"▁압박을":11869,"일)부터":11870,"▁근무형태를":11871,"▁떠오르고":11872,"유연근무제":11873,"▁금융감독원은":11874,"▁핀테크":11875,"▁KT&G는":11876,"▁주관하는":11877,"▁소요되는":11878,"모델링":11879,"▁기숙사":11880,"▁생체인증":11881,"▁‘뉴노멀":11882,"▁점진적으로":11883,"리바바":11884,"▁출산전후휴가":11885,"▁아끼지":11886,"▁그럼에도":11887,"▁직격탄을":11888,"▁예의주시":11889,"=뉴스1)":11890,"▁머니투데이":11891,"(일":11892,"(www.":11893,"/뉴스1":11894,"119":11895,"31":11896,"84":11897,"8명으로":11898,"jin":11899,"·구":11900,"·부산":11901,"’라고":11902,"”이라면서":11903,"▁’":11904,"▁→":11905,"▁몫":11906,"▁첨":11907,"▁톡":11908,"▁벤처":11909,"가격":11910,"가동":11911,"가로":11912,"공기업":11913,"됐기":11914,"드라이브":11915,"따라":11916,"러는":11917,"리게":11918,"리로":11919,"받게":11920,"분기에":11921,"비즈니스":11922,"상으로":11923,"수,":11924,"수입":11925,"수칙":11926,"신한":11927,"실적":11928,"아무":11929,"여명을":11930,"예정":11931,"용역":11932,"원히":11933,"을수록":11934,"일로부터":11935,"임이":11936,"작권":11937,"즈,":11938,"추홀":11939,"층의":11940,"치면":11941,"하실":11942,"하진":11943,"하다\"며":11944,"홀딩":11945,"화장":11946,"화재":11947,"▁이젠":11948,"▁이사는":11949,"▁기계":11950,"▁수험":11951,"▁1000명":11952,"▁시에":11953,"▁시켜":11954,"▁전개":11955,"▁전역":11956,"▁일하게":11957,"▁보게":11958,"▁보였":11959,"▁인상을":11960,"▁제목":11961,"▁정하지":11962,"▁기업들에게":11963,"▁‘재택":11964,"▁“정부":11965,"▁근무자의":11966,"▁근무제도":11967,"▁\"사회적":11968,"▁\"올해":11969,"▁\"지금":11970,"▁다르게":11971,"▁비영리":11972,"▁주총":11973,"▁나가는":11974,"▁원인으로":11975,"▁고심":11976,"▁유아":11977,"00억원":11978,"▁연출":11979,"▁도장":11980,"▁4000":11981,"▁4분기":11982,"▁생기는":11983,"▁확산은":11984,"▁확산의":11985,"▁확산세에":11986,"하기에":11987,"▁국공립":11988,"▁강민":11989,"▁의도":11990,"▁사용에":11991,"▁미루":11992,"▁장착":11993,"▁동반":11994,"▁선배":11995,"▁바이든":11996,"▁적게":11997,"▁도입은":11998,"▁남는":11999,"▁SR":12000,"▁교차":12001,"▁서비스인":12002,"▁서비스형":12003,"▁출근길":12004,"▁할당":12005,"▁정부,":12006,"▁달아":12007,"▁제공되는":12008,"▁93":12009,"▁99":12010,"▁때문으로":12011,"하지는":12012,"▁휴교":12013,"▁사람에게":12014,"▁발생하자":12015,"▁솔루션의":12016,"▁취급":12017,"▁남성인":12018,"▁종류":12019,"▁처리가":12020,"▁들어서":12021,"▁요가":12022,"▁노동법":12023,"▁산단":12024,"▁산업계":12025,"▁게이트":12026,"▁아이의":12027,"▁전체적으로":12028,"▁중소기업들이":12029,"▁했다”며":12030,"▁많은데":12031,"▁기준은":12032,"▁허브":12033,"▁채우":12034,"하겠다\"며":12035,"▁수준에서":12036,"▁적용될":12037,"▁마련을":12038,"▁본사의":12039,"▁문화에":12040,"▁교육부":12041,"▁격차를":12042,".8%는":12043,"▁팀별로":12044,"▁기능으로":12045,"▁경제부":12046,"회사가":12047,"▁중요성이":12048,"▁담고":12049,"▁세계적":12050,"▁손실":12051,".6%가":12052,"▁100%를":12053,"▁업계에서는":12054,"▁고려하는":12055,"▁하나는":12056,"▁참여했다.":12057,"▁균형이":12058,"▁건강관리":12059,"▁걸렸":12060,"▁광산":12061,"▁컨설턴":12062,"▁산업이":12063,"▁절반을":12064,"서비스(SNS":12065,"▁금지,":12066,"▁금지하는":12067,"▁금지된다.":12068,"▁분위기,":12069,"orm":12070,"▁공급에":12071,"▁소통할":12072,"▁용도로":12073,"▁공공기관과":12074,"▁연봉을":12075,"▁단계를":12076,"▁단축근무":12077,"▁꼽은":12078,"▁조성하기":12079,"공간에":12080,"▁수행에":12081,"▁수행하는":12082,"▁환기":12083,"▁여부와":12084,"▁“재택근무는":12085,"▁격상됨에":12086,"수당은":12087,"대책을":12088,"▁공동으로":12089,"▁않았다는":12090,"▁LG유플러스가":12091,"▁몰리는":12092,"▁생산성은":12093,"▁장점이다.":12094,"▁A씨와":12095,"▁의미한다.":12096,"▁파악하고":12097,")’이":12098,"▁알서포트의":12099,"▁업종은":12100,"▁업종별로는":12101,"▁취약계층":12102,"되어야":12103,"▁눈치안":12104,"00여명을":12105,"▁참석해":12106,"▁행복을":12107,"▁해소된":12108,"▁얻는":12109,"▁원칙을":12110,"▁제시한":12111,"▁보여주는":12112,"▁답변을":12113,"▁14일간":12114,"▁진단했다.":12115,"▁지자체가":12116,"ams":12117,"인구구조":12118,"▁재택·원격":12119,"▁시차출퇴근제를":12120,"▁미팅을":12121,"▁최우수":12122,"▁견디":12123,"▁메일,":12124,"▁2016년부터":12125,"▁돌아가면서":12126,"▁꺼리는":12127,"▁커피를":12128,"▁근거로":12129,"▁혼란을":12130,"▁권한을":12131,"▁기사제":12132,"▁캘리포니아주":12133,"▁기다리고":12134,"▁객관":12135,"▁콜라":12136,"▁고충을":12137,"▁대한항공은":12138,"▁사내근로복지기금":12139,"(Zoom":12140,"▁힐링":12141,"▁E&S":12142,"▁훈시규정":12143,"▁라이선스":12144,"(00":12145,"+2":12146,"5%":12147,"5명":12148,"61":12149,"6명으로":12150,"8명":12151,"94":12152,"AF":12153,"do":12154,"so":12155,"tact":12156,"·유":12157,"·휴가":12158,"▁딜":12159,"▁런":12160,"▁으":12161,"▁흡":12162,"경남":12163,"곳,":12164,"과장":12165,"군의":12166,"기만":12167,"낸셜":12168,"넥스":12169,"년대":12170,"담을":12171,"대문":12172,"대에서":12173,"동원":12174,"되었다.":12175,"디스플레이":12176,"량의":12177,"리브":12178,"만7":12179,"매업":12180,"명한":12181,"밀집":12182,"바이트":12183,"방문":12184,"배에":12185,"범죄":12186,"베스트":12187,"보조":12188,"사·":12189,"사회의":12190,"생님":12191,"서와":12192,"시온":12193,"옵니다.":12194,"원자력":12195,"음,":12196,"이치":12197,"점),":12198,"정부가":12199,"졌던":12200,"증후군":12201,"지.":12202,"직의":12203,"처음":12204,"클라이":12205,"티넷":12206,"팀장은":12207,"회에":12208,"▁기할":12209,"▁지수는":12210,"▁시선":12211,"▁가계":12212,"▁일해야":12213,"▁일해도":12214,"▁중으로":12215,"▁중에서":12216,"▁한강":12217,"▁인트라":12218,"▁인크루":12219,"▁정하는":12220,"▁기업에게":12221,"▁기업들과":12222,"▁상세":12223,"▁“남":12224,"▁“한":12225,"▁업무·":12226,"▁방통":12227,"▁다섯":12228,"▁비디오":12229,"▁최상":12230,"▁주부":12231,"▁'위":12232,"▁'클라우드":12233,"▁'매우":12234,"▁'육아기":12235,"▁하위":12236,"▁나가고":12237,"▁육아휴직제도":12238,"▁유엔":12239,"▁유진":12240,"▁유휴":12241,"▁서구":12242,"▁신작":12243,"▁그게":12244,"▁내면":12245,"▁내지":12246,"▁구두":12247,"▁소유":12248,"▁감수":12249,"▁4일부터":12250,"▁지원했다.":12251,"▁지원된다.":12252,"▁어색":12253,"▁강도가":12254,"▁거창":12255,"▁노멀":12256,"▁시행과":12257,"▁미치지":12258,"▁많다는":12259,"▁선에서":12260,"▁추경":12261,"▁감염예방":12262,"▁도입하기로":12263,"▁스토리":12264,"▁스마일":12265,"▁특고":12266,"▁증진":12267,"...‘":12268,"▁성수":12269,"▁금액":12270,"▁시간대를":12271,"▁시간선택":12272,"▁교사가":12273,"▁사무실은":12274,"▁79":12275,"▁정부에":12276,"▁외에는":12277,"▁돌봐야":12278,"▁원격근무,":12279,"▁사회를":12280,"▁증가율이":12281,"▁포트":12282,"▁들려":12283,"▁김태":12284,"▁제도와":12285,"▁임직원도":12286,"▁거리에":12287,"▁한국은":12288,"▁한국경제":12289,"▁알았":12290,"▁종전":12291,"▁방역관리":12292,"▁편의를":12293,"▁요인으로":12294,"은행이":12295,"▁지급했다.":12296,"▁지급하지":12297,"▁했다는":12298,"▁개인용":12299,"▁네오":12300,"▁구축과":12301,"▁열었다.":12302,"▁채워":12303,"▁CE":12304,"▁PC나":12305,"▁뒤,":12306,"▁뒤로":12307,"▁문화와":12308,"▁197":12309,"▁리서치":12310,"▁리모델링":12311,"생활이":12312,"▁넘은":12313,"▁플러스":12314,"▁해당한다.":12315,"▁갖는":12316,"▁기술로":12317,"▁폐쇄됐다.":12318,".1%가":12319,"▁개선해":12320,"▁개선하기":12321,"▁기반을":12322,"▁낮춰":12323,"▁내용도":12324,"▁KT의":12325,"▁1년에":12326,"▁복지도":12327,"▁연구에":12328,"▁연구진은":12329,"▁휴가,":12330,"▁창립":12331,"(48":12332,"▁카카오워크":12333,"▁프로그램과":12334,"▁걸린":12335,"▁방안으로":12336,"▁자율성을":12337,"▁만족감을":12338,"▁광범위":12339,"▁형태다.":12340,"▁감소로":12341,"▁선정한":12342,"▁기록을":12343,"▁수도권과":12344,"▁공급하는":12345,"▁소통과":12346,"▁소통의":12347,"▁NTT":12348,"시스템,":12349,"지역에":12350,"▁확보할":12351,"▁알려져":12352,"▁해결을":12353,"▁노력하겠다”고":12354,"고용보험법":12355,"▁계열사들도":12356,"▁보호할":12357,"▁자리에":12358,"(IT)":12359,"▁GVPN":12360,"▁혼합":12361,"▁50만":12362,"▁됐다는":12363,"▁됐다”며":12364,"▁트위터가":12365,"▁인구구조":12366,"▁스타일":12367,"▁추세가":12368,"▁권장했다.":12369,"▁권장하는":12370,"▁차지하고":12371,"▁극복하기":12372,"▁받았습니다.":12373,"▁hs":12374,"▁입장에선":12375,"▁침체":12376,"▁돕는다.":12377,"▁360":12378,"▁2017년부터":12379,"▁원활히":12380,"방역을":12381,"▁선보이고":12382,"▁꾸준한":12383,"▁장애가":12384,"▁늦추":12385,"▁기업문화가":12386,"▁가치가":12387,"▁90%가":12388,"▁초기에는":12389,"▁느낌을":12390,"▁중이던":12391,"▁중이며,":12392,"뱅크는":12393,"▁여건에":12394,"▁SK그룹의":12395,"▁머물러":12396,"▁접종을":12397,"▁불만을":12398,"보건소":12399,"▁창원시":12400,"▁급격한":12401,"▁정리해":12402,"▁방역당국은":12403,"▁듣는":12404,"책임자":12405,"▁없애고":12406,"▁프로세스":12407,"▁간담회를":12408,"▁나타났습니다.":12409,"▁조항은":12410,"▁위원장은":12411,"▁“직원들이":12412,"▁훈련":12413,"▁유일한":12414,"▁국회의원":12415,"~10년":12416,"esk":12417,"▁이노비즈":12418,"igital":12419,"▁자유롭고":12420,"▁밀폐된":12421,"▁강행규정":12422,"▁둘러싼":12423,"▁훌륭한":12424,"ttps":12425,"▁시가총":12426,"▁신종코로나바이러스":12427,"▁펄어비스":12428,"▁비조치의견":12429,"▁이씨에":12430,"▁스토리지":12431,"·4분기":12432,"▁다우데이타":12433,"▁이광엽":12434,"▁프린터":12435,"아한형":12436,"▁기사제보":12437,"▁인트라넷":12438,"ttps://":12439,"(유":12440,"(PC":12441,"1,":12442,"55":12443,"ISA":12444,"ej":12445,"·의":12446,"’이다.":12447,"”는":12448,"▁엑스":12449,"가드":12450,"가며":12451,"각을":12452,"개,":12453,"거점":12454,"건이":12455,"격리":12456,"관에서":12457,"관계를":12458,"금,":12459,"급의":12460,"기지":12461,"기까지":12462,"너무":12463,"대기":12464,"동에서":12465,"등급":12466,"란히":12467,"로만":12468,"론을":12469,"리의":12470,"먹는":12471,"미지":12472,"박스":12473,"백신":12474,"백여":12475,"보며":12476,"복무":12477,"부에서":12478,"소문":12479,"스파":12480,"실은":12481,"어촌":12482,"연히":12483,"워라":12484,"월)":12485,"음식":12486,"음에":12487,"음이":12488,"인턴":12489,"인원을":12490,"임금을":12491,"입어":12492,"잖아":12493,"절차":12494,"정으로":12495,"추가":12496,"취약":12497,"클리":12498,"트와":12499,"하긴":12500,"하세요":12501,"해외":12502,"환자가":12503,"▁이민":12504,"▁지사":12505,"▁1위를":12506,"▁1~3":12507,"▁1000여":12508,"▁1.5단계":12509,"▁시스코":12510,"▁2.5":12511,"▁2교대":12512,"▁전경":12513,"▁직속":12514,"▁가을":12515,"▁일률":12516,"▁한라":12517,"▁한쪽":12518,"▁보냈다.":12519,"▁자원을":12520,"▁공장이":12521,"▁3.":12522,"▁상임":12523,"▁“비대면":12524,"▁“국내":12525,"▁“특히":12526,"▁부양":12527,"▁부진":12528,"▁부장은":12529,"▁부사장은":12530,"▁업무처":12531,"▁업무량이":12532,"▁다름":12533,"▁최하":12534,"▁'비":12535,"▁관해":12536,"▁유예":12537,"00인":12538,"▁해수":12539,"▁여부가":12540,"▁안수민기자":12541,"▁현장을":12542,"▁사용,":12543,"▁사용하기":12544,"▁문항":12545,"▁시행하며":12546,"▁만이다.":12547,"▁미혼":12548,"▁장난":12549,"▁집행":12550,"▁바라는":12551,"▁높지":12552,"▁설비":12553,"환경에":12554,"▁또다시":12555,"▁불확실":12556,"▁도입으로":12557,"▁직장과":12558,"▁사무실,":12559,"▁재유행":12560,"▁출근해서":12561,"▁7세":12562,"▁7명이":12563,"▁확대된":12564,"▁달라고":12565,"▁무리가":12566,"▁급성장":12567,"▁원격근무제":12568,"▁활용,":12569,"▁활용한다.":12570,"▁증가해":12571,"▁제공하고,":12572,"▁10대":12573,"▁들었":12574,"▁휴양":12575,"▁입양":12576,"▁A.":12577,"▁들어선":12578,"▁들어서는":12579,"▁역세권":12580,"▁못했던":12581,"▁시작할":12582,"▁시작했습니다.":12583,"▁두번째":12584,"▁했을":12585,"▁네덜":12586,"▁연장한":12587,"▁파티":12588,"▁조사는":12589,"▁구축,":12590,"기관은":12591,"▁출산,":12592,"▁크다는":12593,"▁법이":12594,"▁클라우드에":12595,"그룹의":12596,"▁적용하고":12597,"▁적용되는":12598,"▁결정하는":12599,"▁학사":12600,"▁리클라이":12601,"▁유지하기":12602,"▁유지해야":12603,"▁최소화를":12604,"▁공공행정":12605,"▁확인해":12606,"▁기술력을":12607,"▁개발에":12608,"▁민주":12609,"▁포함된다.":12610,"▁지속해서":12611,"▁선택한":12612,"▁휴직이":12613,"▁손에":12614,"▁우려했다.":12615,"▁기반이":12616,"▁쓰기":12617,"▁생활에":12618,"▁막상":12619,"▁막을":12620,"▁밀레니얼":12621,"▁휴가와":12622,"▁정책은":12623,"기술을":12624,"▁매출을":12625,"▁참여해":12626,"▁제품으로":12627,"▁타당":12628,"▁자율출퇴근":12629,"▁27일까지":12630,"▁살고":12631,"▁제한된":12632,"▁잡플래닛":12633,"▁홍원식":12634,"▁통신업계":12635,"▁승무원":12636,"▁수도권의":12637,"시설과":12638,"▁오후부터":12639,"▁네이버가":12640,"▁떨어졌":12641,"▁우선적으로":12642,"▁급증하는":12643,"▁확보를":12644,"▁확보해":12645,"▁예상보다":12646,"▁싶다는":12647,"▁페이스북의":12648,"▁돌봄을":12649,"▁활동에":12650,"▁3개월씩":12651,"▁선제적인":12652,"일(8":12653,"▁트위터,":12654,"▁2018년부터":12655,"▁국회는":12656,"▁공동체":12657,"▁sun":12658,"▁sma":12659,"▁컴퓨터가":12660,"▁길이":12661,"▁연기했다.":12662,"▁넘어섰":12663,"▁그렇다고":12664,"▁담당자":12665,"▁파악해":12666,"▁분리하는":12667,"▁논의하고":12668,"▁서울시가":12669,"▁2만7":12670,"▁재택근무제’를":12671,"▁달라질":12672,"▁학교에":12673,"▁‘재택근무’":12674,"▁kej":12675,"코리아,":12676,"▁침투":12677,"▁몇몇":12678,"~34세":12679,"▁하겠다\"고":12680,"(70":12681,"▁답변은":12682,"▁VPN(가상":12683,"▁의사결":12684,"▁조금이라도":12685,"▁부부의":12686,"▁이틀은":12687,"▁주변에":12688,"▁갖추지":12689,"▁야근을":12690,"▁명확하게":12691,"▁바람이":12692,"▁횟수":12693,"▁면접수당을":12694,"▁탄력근무":12695,"▁“육아휴직을":12696,"▁SK이노베이션,":12697,"▁휴게시간":12698,"▁나누는":12699,"▁개념이":12700,"▁시각)":12701,"▁리모트뷰":12702,"▁구직자":12703,"고용노동부":12704,"▁높았고,":12705,"▁근거가":12706,"▁우리나라의":12707,"▁\"직원들이":12708,"▁벌어지고":12709,"▁프로세스를":12710,"▁태블릿PC":12711,"▁사흘간":12712,"▁펼치고":12713,"(Te":12714,"▁베이비":12715,"▁렌털":12716,"▁텐센트":12717,"▁촉구했다.":12718,"▁에어컨":12719,"▁집합교육":12720,"▁JP모간":12721,"▁대안으로":12722,"▁칸막이":12723,"▁염두":12724,"▁상용직":12725,"▁OTP":12726,"(복수응답":12727,"▁노르웨":12728,"▁겨냥한":12729,"hn@etnews.com":12730,"▁예비후":12731,"▁호응을":12732,"▁어떠한":12733,"▁낭비":12734,"▁털어놨다.":12735,"▁근로복지공단":12736,"▁국토교통":12737,"▁시간선택제":12738,"▁리클라이너":12739,"▁smahn@etnews.com":12740,"&C":12741,"'이라고":12742,"(자":12743,"Life":12744,"O는":12745,"TE":12746,"TX":12747,"ac":12748,"ho":12749,"ial":12750,"~15":12751,"·인":12752,"·업무":12753,"·육아휴직":12754,"·인천":12755,"▁깃":12756,"▁멘":12757,"▁엑":12758,"▁줘":12759,"▁짐":12760,"▁휘":12761,"▁news":12762,"▁널리":12763,"간담":12764,"감사":12765,"것도":12766,"결제":12767,"공격":12768,"교회":12769,"국제도":12770,"까요.":12771,"라리스":12772,"량과":12773,"르지":12774,"리카":12775,"린빌딩":12776,"마케팅":12777,"명령":12778,"배송":12779,"베이스":12780,"보전":12781,"보증":12782,"산을":12783,"산타워":12784,"상승":12785,"서가":12786,"소송":12787,"수업을":12788,"스포츠":12789,"어로":12790,"에너":12791,"여야":12792,"오프":12793,"움이":12794,"음성":12795,"임원":12796,"임산부":12797,"자고":12798,"중심":12799,"증상이":12800,"지나":12801,"질을":12802,"청소":12803,"체이스":12804,"체제로":12805,"코올":12806,"터미":12807,"팀장":12808,"해준다.":12809,"해달라고":12810,"현기자":12811,"회와":12812,"근무시간":12813,"▁이례":12814,"▁기피":12815,"▁사건을":12816,"▁대학생":12817,"▁지문":12818,"▁지시에":12819,"▁수학":12820,"▁전쟁":12821,"▁전제로":12822,"▁가끔":12823,"▁일일이":12824,"▁중에서는":12825,"▁중장기":12826,"▁한때":12827,"▁한전":12828,"▁한눈에":12829,"▁보조":12830,"▁정체":12831,"▁정할":12832,"▁공부":12833,"▁3층":12834,"▁‘다":12835,"▁‘도":12836,"▁‘육아":12837,"▁아프":12838,"▁부응":12839,"▁부지급":12840,"▁업무처리":12841,"▁\"콜센터":12842,"▁\"출퇴근":12843,"▁\"우리는":12844,"▁다각":12845,"▁다하고":12846,"▁다루는":12847,"▁비싸":12848,"▁주어":12849,"▁주춤":12850,"▁주기적으로":12851,"▁'엠":12852,"▁'아이":12853,"▁'포스트":12854,"▁조를":12855,"▁조화":12856,"▁하려면":12857,"▁나지":12858,"▁고강도":12859,"▁유상":12860,"▁연습":12861,"▁신도":12862,"▁통화를":12863,"▁도구를":12864,"▁해명":12865,"▁임용":12866,"▁4대":12867,"▁4~5":12868,"▁생생":12869,"▁지원과":12870,"▁지원한다는":12871,"▁어떨":12872,"▁안보":12873,"▁강연":12874,"▁사용횟":12875,"▁분주":12876,"▁예배":12877,"▁미추홀":12878,"▁많고,":12879,"▁장병":12880,"▁회사들이":12881,"▁동거":12882,"▁선거":12883,"▁선포":12884,"▁감염자":12885,"▁도입과":12886,"▁단기간":12887,"▁SBS":12888,"▁시간의":12889,"▁교수가":12890,"▁올리는":12891,"▁반발":12892,"▁출근하고,":12893,"▁7~8":12894,"▁상황\"이라며":12895,"▁운영,":12896,"▁외의":12897,"▁무시":12898,"▁서울대":12899,"▁서울지방고용노동청":12900,"▁원격근무와":12901,"▁화학":12902,"▁보안성을":12903,"▁보안관리":12904,"▁10만5":12905,"▁김은지":12906,"▁줄이고,":12907,"▁저축":12908,"▁사람들도":12909,"▁후생":12910,"▁임직원에":12911,"▁시스템,":12912,"▁한국농":12913,"▁한국산업":12914,"▁한국도로":12915,"▁알리고":12916,"▁알리바바":12917,"▁처분을":12918,"▁명으로":12919,"▁직장인도":12920,"▁못하면":12921,"▁되었다.":12922,"▁노동부":12923,"▁나타냈다.":12924,"▁이날까지":12925,"▁대표적":12926,"▁메일을":12927,"▁크리에":12928,"▁커지는":12929,"▁피싱":12930,"▁30만원":12931,"▁CU":12932,"그룹이":12933,"▁심사를":12934,"▁PC로":12935,"▁PC에서":12936,"▁결정은":12937,"▁추가적인":12938,"ness":12939,"▁박영":12940,"▁교육청":12941,"▁부서마다":12942,"▁속도":12943,"▁속한":12944,"▁팀장이":12945,"▁곳이다.":12946,"▁곳곳에":12947,"▁발표하고":12948,"▁민감":12949,"▁부모는":12950,"▁포함하는":12951,".4%였다.":12952,"▁인사노무":12953,"▁상담사가":12954,"▁합성":12955,"▁합리적":12956,"▁애널리":12957,"▁휴가도":12958,"▁대구경북":12959,"▁힘입어":12960,"▁참여가":12961,"▁호평":12962,"▁카카오도":12963,"▁강조한":12964,"▁자율좌석":12965,"▁있을까.":12966,"서비스업":12967,"▁노트북과":12968,"▁정상적으로":12969,"▁잡혀":12970,"▁전년동기":12971,"▁BCP":12972,"▁인프라와":12973,"▁평균보다":12974,"▁기대한다\"고":12975,"▁쉽다.":12976,"▁국가적":12977,"▁성장한":12978,"▁로페":12979,"(53":12980,"▁떨어졌다.":12981,"▁직접적인":12982,"▁건물이":12983,"▁일반적인":12984,"▁확보가":12985,"▁확보하고":12986,"▁면제":12987,"▁독서":12988,"▁단축제":12989,"▁계열사에":12990,"▁계열사인":12991,"▁0.8":12992,"▁꼽히는":12993,"▁/사진제공=":12994,"공간으로":12995,"▁G-Cloud":12996,"▁수행이":12997,"▁사옥에서":12998,"▁됐다”고":12999,"▁퇴근하는":13000,"▁사이즈":13001,"▁정착될":13002,"▁아직은":13003,"▁패소":13004,"▁길게":13005,"▁길을":13006,"ona":13007,"▁규정에":13008,"▁저출산고령사회":13009,"▁범죄":13010,"▁가구를":13011,"▁불과한":13012,"▁블라인":13013,"▁육아휴직급여의":13014,"▁불편한":13015,"▁종합적으로":13016,"▁웹엑스":13017,"▁특별히":13018,"▁한화그룹은":13019,"▁받았고,":13020,"▁공개한":13021,"▁기관이":13022,"▁직무에":13023,"▁나서야":13024,"▁어린이집을":13025,"▁잇따르":13026,"▁설문조사에":13027,"▁골자로":13028,"건설은":13029,"▁즐기는":13030,"▁신속히":13031,"▁개정안이":13032,"▁대법원은":13033,"▁세종=":13034,"▁현행법상":13035,"▁OS":13036,"▁OECD":13037,"▁없었던":13038,"▁e-":13039,"▁책상과":13040,"공단은":13041,"스러워":13042,"▁사고가":13043,"▁연계한":13044,"▁소독을":13045,"▁내놓고":13046,"▁특수고용":13047,"▁사유가":13048,"▁덕분":13049,"▁좌석을":13050,"▁티몬":13051,"▁재직자":13052,"▁보고서에서":13053,"▁2022년까지":13054,"▁배경을":13055,"▁경영진의":13056,"▁현대차그룹":13057,"▁공약을":13058,"▁인센티브를":13059,"▁2개조로":13060,"▁나타났다고":13061,"▁브리핑을":13062,"SK텔레콤":13063,"▁있으나,":13064,"▁즉각적인":13065,"·출산휴가":13066,"▁가족친화인증기업":13067,"▁핀란드":13068,"▁앞장서고":13069,"라이언트":13070,"▁엄격한":13071,"▁매니저는":13072,"▁잘못된":13073,"▁악성코드":13074,"▁시중은행":13075,"▁인사혁신처는":13076,"▁영등포구":13077,"▁코스닥":13078,"K-비대면":13079,"▁인턴기자":13080,"▁풍부한":13081,"▁이지은":13082,"▁한글과컴퓨터":13083,"▁임의로":13084,"▁폭넓게":13085,"▁따뜻한":13086,"시각)":13087,"▁신천지":13088,"▁IT(정보":13089,"▁조속히":13090,"▁고성능":13091,"▁걸림돌":13092,"아무개":13093,"▁산단공":13094,"아한형제":13095,"%에서":13096,"(work":13097,"-2":13098,"165":13099,"37":13100,"IC":13101,"MC":13102,"ass":13103,"ji":13104,"·교육":13105,"·회식":13106,"▁~":13107,"▁랩":13108,"▁젠":13109,"▁줘야":13110,"강화":13111,"개혁":13112,"건스탠":13113,"겠지만,":13114,"공원":13115,"관의":13116,"금과":13117,"노위":13118,"농협":13119,"단축":13120,"동의":13121,"럼프":13122,"루미":13123,"리면":13124,"리얼":13125,"만6":13126,"만간":13127,"만여":13128,"면에":13129,"물류":13130,"바이에":13131,"배상":13132,"법이":13133,"분위기":13134,"션이":13135,"스런":13136,"스피":13137,"습니":13138,"시면":13139,"실히":13140,"심에서":13141,"아니":13142,"애플":13143,"어는":13144,"어를":13145,"연속":13146,"연차":13147,"유숙":13148,"자·":13149,"저작권":13150,"점도":13151,"점의":13152,"정의":13153,"정치":13154,"증명":13155,"지인":13156,"크로":13157,"탄력":13158,"트위터":13159,"플라이언":13160,"할지":13161,"▁사장이":13162,"▁대대":13163,"▁대두":13164,"▁대여":13165,"▁지니":13166,"▁지도":13167,"▁지인":13168,"▁지참":13169,"▁1대":13170,"▁1시":13171,"▁1.8":13172,"▁시나":13173,"▁시사":13174,"▁시술":13175,"▁시코":13176,"▁시도가":13177,"▁가득":13178,"▁것들이":13179,"▁중에서도":13180,"▁한다면":13181,"▁한다”면서":13182,"▁인사를":13183,"▁위에":13184,"▁위함":13185,"▁공적":13186,"▁상반기에":13187,"▁‘오피스":13188,"▁‘스마트":13189,"▁‘육아기":13190,"▁아님":13191,"▁아웃":13192,"▁“재택":13193,"▁“집에서":13194,"▁근무했던":13195,"▁\"1":13196,"▁\"상":13197,"▁\"공무원":13198,"▁\"임직원":13199,"▁비결":13200,"▁비례":13201,"▁주장이":13202,"▁'고":13203,"▁'워크":13204,"▁육아휴직자를":13205,"▁유기":13206,"▁연관":13207,"▁구·":13208,"▁도교육청":13209,"▁모건스탠":13210,"▁않으면서":13211,"▁여건을":13212,"▁감축":13213,"▁4주":13214,"▁4회":13215,"▁4.5%":13216,"▁어울":13217,"▁마쳤다.":13218,"▁사용량이":13219,"▁원격지원":13220,"▁시행하게":13221,"▁시행하도록":13222,"▁20%는":13223,"▁높다는":13224,"▁불리한":13225,"▁도입하지":13226,"▁스위":13227,"▁가능하고,":13228,"▁가능해진":13229,"▁단점을":13230,"직원들의":13231,"▁진심":13232,"▁세상":13233,"▁세액":13234,"▁직장문화":13235,"▁7일부터":13236,"▁상황도":13237,"▁환경,":13238,"▁건의":13239,"▁이후로":13240,"▁보안성과":13241,"▁점에":13242,"▁SK가":13243,"▁휴일":13244,"▁후원":13245,"▁발생...":13246,"▁최근에":13247,"▁한국여성정책":13248,"▁국내에":13249,"▁초기에":13250,"▁초고속":13251,"▁관리·":13252,"▁편이":13253,"▁삼가":13254,"▁자녀와":13255,"▁역삼":13256,"▁카리브":13257,"▁요건을":13258,"▁요소를":13259,"▁두지":13260,"▁지급해":13261,"▁지급되는":13262,"▁네트":13263,"▁고객들이":13264,"▁고객에게":13265,"▁연장하는":13266,"▁연장근로":13267,"▁조사해":13268,"▁조사결과":13269,"▁구축비":13270,"▁답했습니다.":13271,"▁크리스":13272,"▁가족들의":13273,"▁생각에":13274,"▁폐렴":13275,"▁안전에":13276,"▁본사는":13277,"▁문화도":13278,"▁19로":13279,"▁박상":13280,"▁플렉스":13281,"▁롯데홈쇼핑은":13282,"▁식으로":13283,"▁유지해":13284,"▁11일부터":13285,"▁경제정책":13286,"▁워라밸(일과":13287,"▁개발과":13288,"▁포함돼":13289,"▁사업장,":13290,"▁담아":13291,"▁쓰도록":13292,"▁생활방역":13293,"▁조직별로":13294,"▁애로":13295,"▁업계도":13296,"▁번거":13297,"▁질의":13298,"▁빠진":13299,"▁집중도가":13300,"▁눈을":13301,"▁건강에":13302,"▁하루는":13303,"▁정도를":13304,"들에게도":13305,"▁타임":13306,"▁된다\"고":13307,"▁에그":13308,"▁에이스":13309,"▁데이터가":13310,"▁데이터센터":13311,"▁권고한":13312,"▁별개로":13313,"▁(영상":13314,"▁이미지를":13315,"▁B2B":13316,"▁감소할":13317,"▁인프라웨어":13318,"▁이하인":13319,"▁가정용":13320,"▁의무가":13321,"근로자의":13322,"▁국가장학":13323,"▁용품":13324,"▁공공기관,":13325,"▁떨어지고":13326,"▁페이스북에":13327,"▁대체하는":13328,"▁순환재택근무":13329,"▁코니":13330,"▁장소와":13331,"▁전자투":13332,"▁계열사로":13333,"명)의":13334,"▁줄어서":13335,"▁수행한다.":13336,"▁\"재택근무로":13337,"▁않아서":13338,"▁아직까지":13339,"▁패밀리":13340,"▁늘어난다.":13341,"▁자제하도록":13342,"▁생산성에":13343,"▁뉴욕주":13344,"▁영상편집":13345,"▁주목받는":13346,"▁경쟁이":13347,"▁울산시는":13348,"▁블랙":13349,"▁협력해":13350,"▁잇달아":13351,"▁재택근무제는":13352,"▁극복에":13353,"▁hu":13354,"▁종사하는":13355,"▁인원만":13356,"▁의료비":13357,"▁축적":13358,"▁좀처럼":13359,"조치가":13360,"▁탄탄":13361,"사업장에":13362,"▁NHN,":13363,"▁키우기":13364,"~35":13365,"▁카페에서":13366,"▁보완해":13367,"▁교통비":13368,"▁선보일":13369,".5%)이":13370,"▁제약이":13371,"ate":13372,"▁정보통신업":13373,"▁고령화":13374,"▁가동을":13375,"▁<앵커":13376,"▁모집한다.":13377,"▁입사한":13378,"▁특수한":13379,"▁횟수가":13380,"▁신입사":13381,"공공부문":13382,"▁후보자가":13383,"▁매출액은":13384,"▁남편의":13385,"▁MS는":13386,"▁휴게실":13387,"▁깊은":13388,"▁상한액도":13389,"▁패키지를":13390,"▁겨우":13391,"▁낳고":13392,"▁선언했다.":13393,"▁낮추는":13394,"▁흐름을":13395,"▁지출이":13396,"▁중소벤처기업부는":13397,"▁국무회의에서":13398,"▁촉진하기":13399,"▁빚어":13400,"▁조항을":13401,"▁히타치":13402,"▁갑작스러운":13403,"▁베이징":13404,"▁안심하고":13405,"▁조절할":13406,"▁격차가":13407,"▁무관하게":13408,"▁총괄은":13409,"▁인사혁신처":13410,"▁솔직히":13411,"▁줬다.":13412,"▁고도화":13413,"▁기재부":13414,"▁흥미":13415,"▁경고했다.":13416,"▁정부세종청사에서":13417,"통합당":13418,"▁인용해":13419,"▁LG상사는":13420,"▁'심각'":13421,"▁토스랩":13422,"▁한국가스공사":13423,"▁어도비":13424,"▁부합하는":13425,"라떼파파":13426,"▁세일즈포":13427,"▁언택트(비대면)":13428,"▁눈치안보고":13429,"▁스마일게이트":13430,"▁<앵커>":13431,"%의":13432,"(인":13433,",5":13434,"2.":13435,"43":13436,"59":13437,"5000":13438,"7명으로":13439,"8%":13440,"MZ세대":13441,"he":13442,"han":13443,"her":13444,"mun":13445,"rom":13446,"·야":13447,"ᅮᅮ":13448,"▁&":13449,"▁듀":13450,"▁섬":13451,"▁섹":13452,"▁텍":13453,"▁ᄒᄒ":13454,"검진":13455,"구축":13456,"기나":13457,"긴다.":13458,"나가고":13459,"노조":13460,"단한":13461,"대,":13462,"대전":13463,"도서관":13464,"동,":13465,"동이":13466,"등의":13467,"려야":13468,"만8":13469,"매출":13470,"배가":13471,"선영기자":13472,"성수":13473,"세정":13474,"알토":13475,"없고":13476,"오던":13477,"완전":13478,"용산타워":13479,"유로":13480,"이티브":13481,"인포":13482,"일용":13483,"잡을":13484,"제품을":13485,"졌다”고":13486,"준비":13487,"지기도":13488,"충북":13489,"충전":13490,"친다.":13491,"통을":13492,"트니스":13493,"패드":13494,"평생":13495,"폴리오":13496,"필드":13497,"했다”면서":13498,"회장":13499,"근무가":13500,"▁이때":13501,"▁이영":13502,"▁이진":13503,"▁이커머스":13504,"으로도":13505,"▁지불":13506,"▁수칙을":13507,"▁1m":13508,"▁가로":13509,"▁일,":13510,"▁중지":13511,"▁한수":13512,"▁제고를":13513,"▁정했다.":13514,"▁자원":13515,"▁공익":13516,"▁상급":13517,"▁‘가":13518,"▁‘원격근무":13519,"▁‘경력단절":13520,"▁아까":13521,"▁아름":13522,"▁“근무":13523,"▁“포스트":13524,"▁부착":13525,"▁업무성과":13526,"▁\"아이":13527,"▁비대":13528,"▁비수도권":13529,"▁주어진":13530,"▁'무":13531,"▁'집":13532,"▁'디지털":13533,"▁'팀즈":13534,"▁연금":13535,"기업,":13536,"기업에":13537,"까지로":13538,"▁구인구":13539,"▁구상이다.":13540,"▁실직":13541,"▁않더라도":13542,"▁없으며":13543,"▁해왔":13544,"▁해마다":13545,"▁여력이":13546,"▁5월부터":13547,"▁지원대상":13548,"▁강서구":13549,"▁마리":13550,"▁마켓":13551,"▁의지를":13552,"▁거라고":13553,"▁분들이":13554,"▁때부터":13555,"▁회사.":13556,"▁근접":13557,"▁동원":13558,"▁동작":13559,"▁동국제":13560,"▁늘자":13561,"▁바쁜":13562,"▁높이를":13563,"▁추락":13564,"▁가능하고":13565,"▁남부":13566,"▁차원으로":13567,"▁차라리":13568,"▁성인":13569,"▁성장이":13570,"▁기자의":13571,"▁필요하면":13572,"▁직장맘":13573,"▁직장으로":13574,"▁7천":13575,"▁보안,":13576,"▁증가세를":13577,"▁증가함에":13578,"▁포럼":13579,"▁10여":13580,"▁들을":13581,"▁고용주가":13582,"▁앞세":13583,"▁협의를":13584,"▁사람들과":13585,"▁발생함에":13586,"▁지역감염":13587,"▁솔루션에":13588,"▁프라이":13589,"▁시스템이다.":13590,"▁워터":13591,"▁한국,":13592,"▁한국인터넷":13593,"▁당기":13594,"▁관리자는":13595,"▁유연하고":13596,"▁결과로":13597,"▁신청서를":13598,"▁편견":13599,"▁미국,":13600,"▁노동조합":13601,"▁2011년":13602,".5%였다.":13603,"▁시작됐다.":13604,"▁연장해":13605,"▁월간":13606,"▁답이":13607,"는데도":13608,"▁15만9":13609,"▁PC방":13610,"▁수요는":13611,"▁결정했다고":13612,"▁협업에":13613,"▁박모":13614,"▁부서에서":13615,"▁일본에서는":13616,"▁갖게":13617,"▁않는다”고":13618,"▁추진하기로":13619,"▁기술적":13620,"▁이유에":13621,"▁사업장과":13622,"▁인사상":13623,"▁부담도":13624,".7%가":13625,"▁합쳐":13626,"▁외부로":13627,"▁연구를":13628,"news@heraldcorp.com":13629,"▁대구시는":13630,"▁예방과":13631,"업계의":13632,"지원,":13633,"▁제품의":13634,"▁프로그램도":13635,"▁않고도":13636,"해서’":13637,"▁비용의":13638,"▁만족하는":13639,"▁전국민":13640,"▁EN":13641,"▁투자은행":13642,"▁140":13643,"▁선정됐다고":13644,"▁가정에":13645,"▁기대한다”고":13646,"▁공급이":13647,"▁국가의":13648,"▁음주":13649,"지역의":13650,"▁분야별":13651,"▁쓸데없는":13652,"▁면밀":13653,"▁연차사용":13654,"▁노력해야":13655,"▁연결해":13656,"▁그룹사":13657,"▁조성에":13658,"▁혁신과":13659,"(IM)":13660,"▁수행을":13661,"▁MBC":13662,"▁처리하고":13663,"▁임금의":13664,"▁어렵고":13665,"▁지금도":13666,"▁표결":13667,"▁이뤄진다.":13668,"▁어린이":13669,"▁3일간":13670,"▁2009년":13671,"▁민간기업의":13672,"▁조정하고":13673,"▁패널":13674,"▁공동주택":13675,"▁인구의":13676,"▁근무시간과":13677,"▁40시간":13678,"▁요구를":13679,"이었지만":13680,"▁핵심이다.":13681,"▁가구에":13682,"▁콘센트":13683,"▁부여해":13684,"▁9월까지":13685,"▁알서포트,":13686,"일(현지시각)":13687,"▁학교의":13688,"·중소기업":13689,"▁‘재택근무를":13690,"▁취소하고":13691,"▁실천하는":13692,"▁눈치가":13693,"▁양육하는":13694,"▁회식도":13695,"▁80%,":13696,"▁트렌드에":13697,"▁능력이":13698,"▁반응도":13699,"▁엄마는":13700,"▁무엇을":13701,"▁무엇인지":13702,"▁임원회의에서":13703,"스(N":13704,"▁바뀌어야":13705,"▁홈페이지에":13706,"▁선보인다.":13707,"▁이틀만":13708,"연구소는":13709,"▁44일":13710,"▁위협을":13711,"▁단순한":13712,"▁1주일간":13713,"▁데스크탑":13714,"▁원격접속이":13715,"▁보이면서":13716,"▁연계해":13717,"▁소독제":13718,"▁사라져":13719,"▁나가겠다\"고":13720,"▁아침에":13721,"▁끝나고":13722,"▁구분해":13723,"▁당국의":13724,"▁유행이":13725,"▁수출입":13726,"▁한부모가족":13727,"▁몸이":13728,"lee@etnews.com":13729,"▁해제된":13730,"▁탓이다.":13731,"▁1000명을":13732,"▁낮아질":13733,"▁겨울":13734,"▁충북도":13735,"▁등장했다.":13736,"▁집안일을":13737,"▁금융당국이":13738,"▁자회사인":13739,"▁'2020년":13740,"▁혼란이":13741,"▁멈춰":13742,"▁증권사":13743,"▁나왔습니다.":13744,"데스크탑":13745,"만으로도":13746,"▁250만원으로":13747,"▁도와주는":13748,"▁100명당":13749,"▁흔들":13750,"lace":13751,"▁처우를":13752,"▁연구개발(R&D)":13753,"▁엄청난":13754,"▁코리아빌딩":13755,"▁마이크로소프트(MS)":13756,"▁SK하이닉스":13757,"▁SK하이닉스는":13758,"구성원":13759,"▁발휘할":13760,"▁완벽한":13761,"▁재량에":13762,"▁야놀자는":13763,"▁아기띠":13764,"(중대본":13765,"▁기자회견을":13766,"▁세무회계":13767,"▁과기정통부는":13768,"민간기업":13769,"▁직장갑질119":13770,"▁열악한":13771,"▁online":13772,"▁소프트웨어(SW)":13773,"▁지란지교시큐리티":13774,"▁한산한":13775,"▁스크린":13776,"▁디자이너":13777,"▁다중이용시설":13778,"▁섭취":13779,"▁셔틀":13780,"▁가림막":13781,"▁수험생":13782,"▁구인구직":13783,"▁동국제강":13784,"▁onlinenews@heraldcorp.com":13785,"1%":13786,"44":13787,"81":13788,"@ob":13789,"A)":13790,"D)":13791,"FC":13792,"MR":13793,"OS":13794,"pe":13795,"s.co.kr)":13796,"·가":13797,"·목":13798,"·보험":13799,"·복지":13800,"·생활균형":13801,"’인":13802,"▁값":13803,"▁딩":13804,"▁쳐":13805,"▁펀":13806,"▁혀":13807,"▁ju":13808,"▁링크":13809,"개가":13810,"경쟁":13811,"국은":13812,"기사":13813,"기인":13814,"나?":13815,"나라는":13816,"냐는":13817,"네시아":13818,"노사":13819,"대상이":13820,"됐으며,":13821,"로워":13822,"리츠":13823,"마음":13824,"마이크로":13825,"말을":13826,"무선":13827,"방은":13828,"스위":13829,"스톱":13830,"식에서":13831,"실태":13832,"심한":13833,"애기자":13834,"었고,":13835,"엔터프라이즈":13836,"연결":13837,"요타":13838,"우울":13839,"원·":13840,"위협":13841,"으론":13842,"의약품":13843,"이하":13844,"이지만,":13845,"있어":13846,"자료를":13847,"재가":13848,"전화를":13849,"절벽":13850,"조에":13851,"지하":13852,"지수는":13853,"지먼트":13854,"직종":13855,"진기자":13856,"짐.":13857,"차는":13858,"창고":13859,"커피":13860,"특정":13861,"팀이":13862,"해볼":13863,"했으면":13864,"▁이곳":13865,"▁이종":13866,"▁이창":13867,"▁이끄는":13868,"▁재택근무(":13869,"▁사기":13870,"▁사안":13871,"▁대용":13872,"▁지배구조":13873,"▁수수":13874,"▁2위":13875,"▁등),":13876,"▁직면":13877,"▁일방":13878,"▁일하고,":13879,"▁일하던":13880,"▁중반":13881,"▁한상":13882,"▁한해서":13883,"▁위주의":13884,"▁제15":13885,"▁자꾸":13886,"▁공기":13887,"▁3번":13888,"▁3조":13889,"▁3.0":13890,"▁경비":13891,"▁경직":13892,"▁‘출퇴근":13893,"▁‘일과":13894,"▁‘스마트워크":13895,"▁육아가":13896,"▁아는":13897,"▁“아이":13898,"▁“한국":13899,"▁업무생산":13900,"▁근무자는":13901,"▁근무성적":13902,"▁\"내":13903,"▁\"당":13904,"▁\"여":13905,"▁\"한":13906,"▁비밀번호":13907,"▁주까지":13908,"▁'줌":13909,"▁'홈":13910,"▁'기업":13911,"▁조리":13912,"▁조만간":13913,"▁하에":13914,"▁하다가":13915,"▁나옵니다.":13916,"▁유대":13917,"▁유효":13918,"00명이":13919,"▁서명":13920,"▁신분":13921,"▁신사업":13922,"까지만":13923,"▁내장":13924,"▁구리":13925,"▁모른":13926,"▁모으":13927,"▁여기는":13928,"▁소관":13929,"▁말합니다.":13930,"▁5명이":13931,"▁확산...":13932,"▁안돼":13933,"▁국산":13934,"▁사용도":13935,"▁거실":13936,"▁시행세":13937,"▁시행되는":13938,"▁받자":13939,"▁늘며":13940,"▁영유아":13941,"▁영원히":13942,"▁바짝":13943,"▁적고":13944,"▁추산":13945,"▁증빙":13946,"▁단원":13947,"▁사업자":13948,"▁금천":13949,"▁본회의":13950,"▁세웠다.":13951,"▁세우고":13952,"▁반등":13953,"▁반출":13954,"▁재조정":13955,"▁상황인":13956,"▁운영된다.":13957,"▁달에는":13958,"▁외로움":13959,"▁환경노동":13960,"▁무작":13961,"▁평상시":13962,"▁이후,":13963,"▁좋겠다\"고":13964,"▁고용주":13965,"▁김기":13966,"▁김영":13967,"▁김준":13968,"▁한국에":13969,"▁한국감정":13970,"▁온종일":13971,"▁배출":13972,"▁AWS":13973,"▁관리와":13974,"▁행동을":13975,"▁금융보안":13976,"▁요인이":13977,"▁올해도":13978,"▁산후":13979,"▁아이디":13980,"▁아이들과":13981,"은행의":13982,"▁전체에":13983,"▁했으며,":13984,"▁대기업에서":13985,"▁개인적":13986,"▁개인적인":13987,"▁모두의":13988,"▁대표와":13989,"▁대표이사":13990,"▁대표발의":13991,"▁청원":13992,"기관을":13993,"▁답했고,":13994,"▁열풍":13995,"▁12월부터":13996,"▁트럼프":13997,"▁수준은":13998,"▁250만":13999,"▁법령":14000,"▁피곤":14001,"▁마련돼":14002,"▁문화로":14003,"▁문화의":14004,"▁근로자들은":14005,"▁196":14006,"기자>":14007,"▁박지":14008,"▁교육과":14009,"▁식료":14010,"▁해당하지":14011,"▁팀을":14012,"▁스마트오피스":14013,"▁발표할":14014,"▁워라밸일자리":14015,"▁개발,":14016,"▁포함)":14017,"▁쓰게":14018,"▁13%":14019,"▁복지와":14020,"▁연구원":14021,"▁160":14022,"▁정책과":14023,"▁대구와":14024,"▁집중이":14025,"▁제품에":14026,"▁업체들은":14027,"▁강조했습니다.":14028,"▁타워":14029,"▁살면서":14030,"▁높아지면서":14031,"▁잡았다.":14032,"▁홈트":14033,"▁B씨":14034,"▁설치,":14035,"▁의무적":14036,"▁최소화해":14037,"시스템과":14038,"▁인터넷이":14039,"스코리아":14040,"▁확보된":14041,"▁판단을":14042,"급여를":14043,"▁돌아온":14044,"▁돌아올":14045,"▁돌봄교":14046,"▁면에서":14047,"▁노력에":14048,"▁출시했다고":14049,"연구원은":14050,"▁판매량은":14051,"▁야후":14052,"▁중앙일보":14053,"▁보도입니다.":14054,"▁50인":14055,"▁처리해야":14056,"▁DL":14057,"▁경기도,":14058,"▁날짜":14059,"▁워크스페이스":14060,"▁최초의":14061,"▁노동자도":14062,"▁su":14063,"경제적":14064,"▁공격에":14065,"▁근무시간에":14066,"▁추세에":14067,"▁ESG펀드":14068,"▁그렇다면":14069,"▁요구가":14070,"이었습니다.":14071,"▁점검해":14072,"▁게임을":14073,"▁불편이":14074,"(69":14075,"인력의":14076,"▁컨설팅은":14077,"▁취약점을":14078,"▁취소했다.":14079,"▁동참해":14080,"▁양육을":14081,"▁나서기로":14082,"▁늘었고,":14083,"▁모델은":14084,"▁통계에":14085,"▁반응은":14086,"▁원활하지":14087,"▁역할이":14088,"▁의심되는":14089,"▁영국의":14090,"▁경북도는":14091,"▁바뀌는":14092,"▁제출하면":14093,"▁제출받은":14094,"▁건설업":14095,"▁금융회사의":14096,"▁개최했다.":14097,"▁야근이":14098,"▁아내가":14099,"▁<기자>":14100,"▁드러나":14101,"▁창의성을":14102,"▁보이지만":14103,"▁지나치게":14104,"▁운동을":14105,"▁나라를":14106,"▁끝나면":14107,"▁LS용산타워":14108,"▁챙기":14109,"▁37.5":14110,"▁신입사원":14111,"▁임신부와":14112,"▁밥이":14113,"▁지키는":14114,"▁가능해진다.":14115,"▁탄력적":14116,"▁실태를":14117,"▁저하를":14118,"▁가져올":14119,"진흥원(":14120,"▁멀리":14121,"▁늘리고,":14122,"▁깊이":14123,"▁나누고":14124,"▁징계를":14125,"▁정해지지":14126,"▁노출될":14127,"▁더존비즈온은":14128,"▁일자리가":14129,"▁민원인":14130,"▁익숙한":14131,"▁노조는":14132,"▁분위기도":14133,"▁활발히":14134,"▁흐름에":14135,"▁'2019년":14136,"▁변호사는":14137,"▁캠페인에":14138,"▁트래픽이":14139,"▁성능을":14140,"▁편성해":14141,"▁곤두":14142,"▁라이프스타":14143,"▁인건비를":14144,"▁엠오피스":14145,"▁게시판":14146,"▁반려동물을":14147,"▁노하우를":14148,"▁칸막이를":14149,"▁이원화":14150,"▁스탠퍼":14151,"▁효성ITX는":14152,"▁싫어":14153,"▁꼴찌":14154,"▁앤드":14155,"▁끈다.":14156,"▁마인드":14157,"▁낯선":14158,"▁자치구":14159,"▁에너지를":14160,"·휴게":14161,"▁퍼블릭":14162,"▁zero":14163,"사회복지공동모금":14164,"▁sunny":14165,"▁염두에":14166,"▁한국도로공사":14167,"@obs.co.kr)":14168,"@obs.co.kr)>":14169,"1일":14170,"27":14171,"@yeong":14172,"ak":14173,"ble":14174,"iz":14175,"me":14176,"won":14177,"·사":14178,"·인사":14179,"’다.":14180,"▁를":14181,"가기":14182,"개사가":14183,"공학":14184,"과,":14185,"과거":14186,"권과":14187,"권은":14188,"그래":14189,"금으로":14190,"급한":14191,"나무":14192,"대회":14193,"돈을":14194,"동일":14195,"동으로":14196,"됐다”고":14197,"드라스":14198,"들로부터":14199,"디자인":14200,"라.":14201,"력원자력":14202,"리핀":14203,"매니":14204,"면을":14205,"면허":14206,"문제":14207,"바른":14208,"법으로":14209,"별,":14210,"봤습니다.":14211,"브리핑":14212,"석을":14213,"성의":14214,"수와":14215,"시효":14216,"시했다.":14217,"실제":14218,"앤쇼핑":14219,"었다는":14220,"여대":14221,"예고":14222,"울산":14223,"원하는":14224,"윤주":14225,"의무":14226,"이미지":14227,"저녁":14228,"적이라는":14229,"제작":14230,"주민":14231,"티는":14232,"파일":14233,"팩트":14234,"하길":14235,"학기":14236,"함과":14237,"항을":14238,"회도":14239,"▁이르면":14240,"▁재택근무자에":14241,"▁기관은":14242,"▁기점으로":14243,"▁수사":14244,"▁전무는":14245,"▁중점":14246,"▁코로나’":14247,"▁한데":14248,"▁한미":14249,"▁보관":14250,"▁보직":14251,"▁정규":14252,"▁자제를":14253,"▁공고":14254,"▁공무":14255,"▁공존":14256,"▁3가지":14257,"▁기업지원":14258,"▁경신":14259,"▁‘모":14260,"▁‘필수":14261,"▁육아의":14262,"▁“사회적":14263,"▁업무망":14264,"▁근무하지":14265,"▁근무체제를":14266,"▁\"워라밸":14267,"▁비자를":14268,"▁최다":14269,"▁주체":14270,"▁'오피스":14271,"▁'필수":14272,"▁조율":14273,"▁조기에":14274,"▁하한":14275,"▁나도":14276,"▁나다.":14277,"▁원이":14278,"▁고집":14279,"▁육아휴직·출산휴가":14280,"▁유로":14281,"▁서서":14282,"▁서소문":14283,"▁신혼":14284,"기업인":14285,"▁내수":14286,"▁않다”고":14287,"▁개의":14288,"▁없던":14289,"▁해본":14290,"▁500만원":14291,"▁강일용":14292,"▁의문":14293,"▁사용해야":14294,"▁사용률이":14295,"▁시행되면서":14296,"▁회사인":14297,"▁영통":14298,"▁높음":14299,"▁추석":14300,"▁우아한형제":14301,"▁불분":14302,"▁특유의":14303,"▁매번":14304,"▁80만":14305,"▁SDP":14306,"▁올리고":14307,"▁올림픽":14308,"▁세트":14309,"▁사무실도":14310,"▁재취업":14311,"▁재검토":14312,"▁74":14313,"▁7만":14314,"▁7명":14315,"▁확대와":14316,"▁확대되는":14317,"▁확대한다는":14318,"▁환경은":14319,"▁환경상은":14320,"▁판명":14321,"▁급식":14322,"▁건전":14323,"▁사회적으로":14324,"▁포괄":14325,"▁관계사":14326,"▁10시부터":14327,"▁96":14328,"▁SK는":14329,"▁SK(주)":14330,"▁고용유지":14331,"되는데":14332,"▁데는":14333,"▁줄인":14334,"▁이용하고":14335,"▁이용자의":14336,"▁협력을":14337,"▁제도화":14338,"▁발생에":14339,"▁계획도":14340,"▁종로":14341,"▁이어,":14342,"▁이어간다.":14343,"▁늘어남":14344,"▁△일":14345,"▁방역작업을":14346,"▁과로":14347,"▁미국은":14348,"▁양평":14349,"▁중소기업들은":14350,"▁정보시스템":14351,"▁온라인을":14352,"▁디스크":14353,"▁연장될":14354,"기관이":14355,"▁출산율이":14356,"▁허락":14357,"▁법안을":14358,"▁30인":14359,"그룹통화":14360,"▁적용을":14361,"▁심한":14362,"▁심리적":14363,"▁추가해":14364,"▁협업할":14365,"▁화상회의와":14366,"▁박원":14367,"▁박차를":14368,"▁리드":14369,"▁보고는":14370,"▁구성됐다.":14371,"▁115":14372,"▁갖출":14373,"▁시장도":14374,"▁확인된":14375,"▁스마트워킹":14376,"▁않는다고":14377,"▁장기근속":14378,"▁형식":14379,"▁형식으로":14380,"▁폐쇄하는":14381,"▁지속되면서":14382,"▁손잡":14383,"▁1년의":14384,"▁측의":14385,"▁삶이":14386,"▁집중도":14387,"▁집중하기":14388,"▁호환":14389,"▁호황":14390,"▁마스크와":14391,"▁업체의":14392,"▁걸리는":14393,"▁현대엔지니어링":14394,"▁현대중공업":14395,"▁그러다":14396,"▁허용하겠다고":14397,"▁분석도":14398,"▁비용절":14399,"▁임신한":14400,"▁누리고":14401,"▁방문자":14402,"▁(서울":14403,"▁경영을":14404,"▁홈앤쇼핑":14405,"▁기대할":14406,"▁준비할":14407,"▁성장하고":14408,"▁로스쿨":14409,"▁이동하는":14410,"▁드물":14411,"▁국민이":14412,"▁우선순":14413,"▁확보,":14414,"▁중국에서":14415,"▁끝내":14416,"▁단계에":14417,"▁출시를":14418,"▁300여명이":14419,"▁조성된다.":14420,"▁기본으로":14421,"▁\"재택근무는":14422,"▁임금감소":14423,"▁분산해":14424,"▁분산근무를":14425,"▁DX":14426,"▁트위터의":14427,"▁머신":14428,"▁날이":14429,"▁부분적으로":14430,"▁조정했다.":14431,"▁자가진단":14432,"▁유연근무제는":14433,"▁일상의":14434,"▁노동자들은":14435,"▁sh":14436,"▁전화나":14437,"▁않았지만,":14438,"▁컴퓨터로":14439,"▁많아지면서":14440,"▁은행은":14441,"▁몰라":14442,"▁일정에":14443,"▁일정한":14444,"▁1회로":14445,"▁사용자와":14446,"▁착용하고":14447,"▁보험회사":14448,"▁29일부터":14449,"▁미래통합당":14450,"▁차단하고":14451,"▁장점은":14452,"▁울산시":14453,"▁논의를":14454,"▁논의했다.":14455,")’가":14456,"▁4월까지":14457,"▁통상임금에":14458,"▁고용노동부와":14459,"▁개학을":14460,"▁출장과":14461,"▁안내를":14462,"▁스마트워크를":14463,"상황이":14464,"▁종사자가":14465,"▁기관의":14466,"▁인상된다.":14467,"▁인원도":14468,"▁이내의":14469,"▁준수해야":14470,"▁전원합의":14471,"▁돕고":14472,"▁6개월간":14473,"▁동기보다":14474,"▁하겠다는":14475,"▁송도":14476,"▁라이트":14477,"▁보여준다.":14478,"▁영화.":14479,"▁밖에서도":14480,"▁밀접한":14481,"▁부정수급":14482,"▁예산이":14483,"▁두기를":14484,"▁가사근로자":14485,"자녀돌봄":14486,"ature":14487,"▁복직을":14488,"▁벗어난":14489,"(2021":14490,"▁넥슨도":14491,"▁2015년부터":14492,"▁택했다.":14493,"▁정보통신(IT)":14494,"▁자세로":14495,"▁eun":14496,"▁얼마든지":14497,"▁갖춰진":14498,"▁여행을":14499,"▁책상에":14500,"▁붙여":14501,"▁이른다.":14502,"▁‘코로나19’":14503,"▁모집한다고":14504,"▁USB":14505,"▁실리콘밸":14506,"▁사라진":14507,"▁2회로":14508,"▁나가겠다”고":14509,"▁내놓았다.":14510,"▁괜찮음":14511,"▁끊김":14512,"▁당국이":14513,"▁120만":14514,"▁회계법인":14515,"▁상담사들의":14516,"▁매출액이":14517,"▁놀아":14518,"▁청와대는":14519,"▁JT":14520,"▁출산휴가와":14521,"▁샌드":14522,"▁완료했다.":14523,"▁특허청은":14524,"▁발굴해":14525,"▁낮추고":14526,"▁탑재했다.":14527,"▁방역당국의":14528,"▁쪽으로":14529,"▁상업용":14530,"▁CNBC에":14531,"기구인":14532,"▁독려하고":14533,"▁yj":14534,"센트럴":14535,"▁믿고":14536,"신청을":14537,"▁실질적으로":14538,"(주심":14539,"▁업무지구":14540,"▁롯데쇼핑은":14541,"▁갈등이":14542,"▁옆에":14543,"기능을":14544,"▁테크놀로지":14545,"구청장은":14546,"전환형":14547,"▁품질을":14548,"▁유일하게":14549,"▁내렸습니다.":14550,"▁높인다.":14551,"▁뛰어넘":14552,"▁삼성SDS는":14553,"▁까다":14554,"▁춘절":14555,"▁루틴":14556,"▁들여다":14557,"해보상":14558,"▁같아요.":14559,"남녀고용평등법":14560,"▁복잡한":14561,"▁중앙재난안전대책본부(중대본":14562,"▁기초생활수급비를":14563,"▁모범적으로":14564,"고속도로":14565,"ul@asiae.co.kr":14566,"▁주주총":14567,"▁보맵은":14568,"▁코스피":14569,"▁셀트리온그룹은":14570,"▁한화생명은":14571,"▁위기경보":14572,"▁떠올랐다.":14573,"▁로이터통신":14574,"▁소정근로":14575,"▁IMF":14576,"day72":14577,"▁관측이":14578,"▁턱없이":14579,"▁파격적인":14580,"nam.com":14581,"▁웰스파":14582,"▁스트레칭":14583,"▁폭발적으로":14584,"▁2만2297":14585,"▁포트폴리오":14586,"▁네덜란드":14587,"▁IT(정보기술)":14588,"바이에린":14589,"▁시나리오":14590,"▁15만915":14591,"▁zero@ajunews.com":14592,"▁sunnyday72":14593,"@yeongnam.com":14594,"드라스체크":14595,"▁전원합의체":14596,"(김":14597,"(콜센터":14598,"(외부":14599,".go":14600,"25년":14601,"3.":14602,"3000":14603,"82":14604,"83":14605,"@mun":14606,"CM":14607,"G넥스":14608,"HO":14609,"HR":14610,"PT":14611,"RI":14612,"T를":14613,"VD":14614,"dw":14615,"ly":14616,"s@hankyung.com":14617,"·확":14618,"·지배구조":14619,"”라면서":14620,"▁Y":14621,"▁벨":14622,"▁라고":14623,"▁ri":14624,"・재택근무":14625,"가와":14626,"가량이":14627,"개학":14628,"경정":14629,"계에":14630,"과에":14631,"관과":14632,"구요":14633,"그러":14634,"기념":14635,"나,":14636,"나도":14637,"나가는":14638,"넷마블":14639,"년째":14640,"뉴딜":14641,"담배":14642,"대사":14643,"동호":14644,"됐다\"고":14645,"됐지만,":14646,"된다\"며":14647,"들고":14648,"듯이":14649,"르타":14650,"목민":14651,"박한":14652,"반의":14653,"받았":14654,"방에":14655,"변경":14656,"보단":14657,"브랜드":14658,"생을":14659,"서류":14660,"서의":14661,"선기자":14662,"스티":14663,"시에서":14664,"식사":14665,"어,":14666,"얼굴":14667,"엔(약":14668,"역과":14669,"역량":14670,"연기":14671,"원기자":14672,"위안":14673,"의사":14674,"인상":14675,"인에":14676,"일까.":14677,"재를":14678,"전에":14679,"제이":14680,"지주":14681,"직접":14682,"창의":14683,"출입":14684,"층과":14685,"층에서":14686,"트의":14687,"티이미지":14688,"페이":14689,"하였":14690,"해지":14691,"해지면":14692,"화·":14693,"▁이기":14694,"▁기금":14695,"▁기후":14696,"▁사과":14697,"▁대행":14698,"▁대리는":14699,"▁대학교":14700,"▁수납":14701,"▁수여":14702,"▁1세":14703,"▁1순":14704,"▁시도를":14705,"▁전무":14706,"▁직업을":14707,"▁가면":14708,"▁일하다":14709,"▁중고":14710,"▁중장":14711,"▁코로나'":14712,"▁한두":14713,"▁보강":14714,"▁보일":14715,"▁인원에":14716,"▁제4차":14717,"▁자극":14718,"▁3사":14719,"▁3시간":14720,"▁3교대로":14721,"▁‘남":14722,"▁‘하이브리드":14723,"▁육아,":14724,"▁“콜센터":14725,"▁“신종":14726,"▁“임직원":14727,"▁근무하면":14728,"▁다를":14729,"▁주최":14730,"▁'자":14731,"▁'언택트":14732,"▁'스마트워크":14733,"▁조명":14734,"▁하오":14735,"▁하향":14736,"▁하라는":14737,"▁나눈":14738,"▁나이":14739,"▁원룸":14740,"▁육아휴직도":14741,"▁따져":14742,"▁연예":14743,"▁그럴":14744,"▁그다음":14745,"▁내릴":14746,"▁통일":14747,"▁모의":14748,"이라서":14749,"면서,":14750,"면서비스":14751,"▁오염":14752,"▁소식이":14753,"▁500만":14754,"▁생애":14755,"▁확산되기":14756,"하기만":14757,"▁현상을":14758,"▁현저히":14759,"▁강세를":14760,"▁마쳤":14761,"▁의욕":14762,"▁의지가":14763,"▁사용한다.":14764,"▁노는":14765,"▁20~30":14766,"▁미흡":14767,"▁미쳤다.":14768,"▁받고,":14769,"▁받으며":14770,"▁집이나":14771,"▁높다고":14772,"▁더블":14773,"▁6년":14774,"▁60만원":14775,"▁사무소":14776,"▁경우에만":14777,"▁도입하기":14778,"▁가능하며":14779,"▁특단의":14780,"▁차세대":14781,"▁근로조건":14782,"▁매장을":14783,"직원의":14784,"▁8시부터":14785,"▁사업도":14786,"▁사업주는":14787,"▁시간제":14788,"▁세션":14789,"▁직장생활":14790,"▁재발":14791,"▁출근한다.":14792,"▁상황\"이라고":14793,"▁정부에서":14794,"▁급히":14795,"▁화요일":14796,"▁보안과":14797,"▁제공을":14798,"▁제공해야":14799,"▁제공하며":14800,"▁94":14801,"▁979":14802,"▁점수는":14803,"▁체제가":14804,"▁변하고":14805,"▁고용을":14806,"▁고용형태":14807,"▁김해":14808,"▁맞돌봄":14809,"▁계획에":14810,"▁계획은":14811,"▁당황":14812,"2019년":14813,"▁AR":14814,"▁사태는":14815,"▁검찰":14816,"▁결과도":14817,"▁신청하지":14818,"▁대응책":14819,"▁대응방향":14820,"▁삼일":14821,"▁재택으로":14822,"▁역사":14823,"▁역설":14824,"▁금융사가":14825,"▁과감":14826,"▁되돌":14827,"▁아니고":14828,"▁아니라고":14829,"▁아니라는":14830,"▁대비해야":14831,"▁산책":14832,"▁LG는":14833,"▁대기업인":14834,"▁개인과":14835,"▁비대면·":14836,"▁강화와":14837,"▁출산율을":14838,"▁크고":14839,"▁열지":14840,"▁허리를":14841,"▁12만":14842,"▁12일(현지시간)":14843,"▁준수를":14844,"▁총동원":14845,"▁커짐에":14846,"▁공간은":14847,"▁Con":14848,"▁문제와":14849,"▁수요일을":14850,"▁결정이":14851,"▁결정했다”고":14852,"▁문화는":14853,"▁화상회의가":14854,"net":14855,"사업자":14856,"▁플레이":14857,"▁평가는":14858,"▁평가한":14859,"▁기능,":14860,"▁않는다\"고":14861,"▁중요하다\"고":14862,"제도와":14863,"▁기술에":14864,"▁향해":14865,"▁워라밸에":14866,"▁개발하고":14867,"▁개선과":14868,"▁전문가는":14869,"▁합격":14870,"▁합리":14871,"▁업계가":14872,"▁고려해야":14873,"▁오피스,":14874,"▁오피스는":14875,"▁삶에":14876,"▁18일까지":14877,"▁힘듬":14878,"▁느슨":14879,"▁참여기업":14880,"▁균형에":14881,"▁카카오게임":14882,"▁제품과":14883,"▁제품인":14884,"▁영향에":14885,"▁걸릴":14886,"▁최고경영":14887,"▁구글과":14888,"▁허용하기로":14889,"▁비용과":14890,"▁권고를":14891,"▁대부분을":14892,"▁검토하는":14893,"▁설치하고":14894,"▁선정했다.":14895,"▁효과에":14896,"▁26.2%":14897,"▁음료":14898,"▁지적을":14899,"▁인터넷에":14900,"▁복귀하는":14901,"▁복귀하지":14902,"위원장":14903,"▁장기화할":14904,"▁확보한":14905,"▁판단할":14906,"▁분야를":14907,"본부장":14908,"▁대체할":14909,"▁메신저와":14910,"▁문서보안":14911,"▁노력하는":14912,"▁안정화":14913,"▁계열사와":14914,"▁보호하는":14915,"▁장려하는":14916,"▁연결이":14917,"▁조성해":14918,"▁3년의":14919,"▁지금의":14920,"▁모바일로":14921,"▁부분에":14922,"▁애플,":14923,"▁T타워":14924,"위원회가":14925,"▁벌금":14926,"▁그렇다.":14927,"▁목표가":14928,"▁차단하는":14929,"보고서":14930,"▁꾸미":14931,"▁불편함이":14932,"▁5월까지":14933,"▁안내했다.":14934,"▁팬데믹으로":14935,"▁마음으로":14936,"▁실천하고":14937,"상황에":14938,"▁동참하기":14939,"▁이내로":14940,"▁참석했다.":14941,"대표는":14942,"▁모델로":14943,"▁찾아야":14944,"▁돼서":14945,"▁돼야":14946,"▁능률이":14947,"교육청이":14948,"▁질문을":14949,"인증을":14950,"▁쉬워":14951,"▁문의는":14952,"▁송파":14953,"▁보여준":14954,"▁와중에":14955,"▁골드":14956,"▁제기된다.":14957,"▁보완할":14958,"▁층을":14959,"▁바뀌었다.":14960,"▁선보인":14961,"▁두기가":14962,"▁공식화":14963,"▁건설사":14964,"amp":14965,"▁끌었다.":14966,"▁주변의":14967,"▁임시로":14968,"▁아내의":14969,"▁커뮤니케이션을":14970,"▁수립해":14971,"▁관련해서는":14972,"▁사고를":14973,"▁재개했다.":14974,"▁주문한":14975,"▁판교에":14976,"▁양성평등":14977,"▁3개조로":14978,"▁48.2%":14979,"▁시험을":14980,"▁일환이다.":14981,"▁다르다.":14982,"▁후보자는":14983,"▁디자인,":14984,"▁깨고":14985,"▁끼고":14986,"계약을":14987,"▁대출을":14988,"▁롯데지주가":14989,"▁당연한":14990,"▁구직자들에게":14991,"▁생기면":14992,"▁높아졌다는":14993,"▁서류를":14994,"▁팀즈를":14995,"수준을":14996,"▁완전한":14997,"▁유도하는":14998,"▁실질적":14999,"▁달성할":15000,"▁충족한":15001,"▁와이파":15002,"▁nature":15003,"▁워싱턴주":15004,"▁복리후생,":15005,"▁윈도":15006,"▁이스트시큐리티":15007,"▁바라보는":15008,"▁메모리":15009,"▁촉구하는":15010,"▁러시아":15011,"▁슈퍼":15012,"▁흔히":15013,"▁귀국한":15014,"▁공모전":15015,"▁‘집콕":15016,"▁발언을":15017,"▁4단계로":15018,"억달러(약":15019,"▁결합한":15020,"드로이드":15021,"▁수직적인":15022,"▁소멸시효":15023,"▁정부세종청사":15024,"▁보건복지부":15025,"▁꼬집":15026,"▁문자메시":15027,"▁합계출산율은":15028,"계열사":15029,"▁탁월":15030,"내부망":15031,"▁샤워":15032,"▁통증이":15033,"▁뉴욕타임스(N":15034,"hwa.com":15035,"▁프로모션":15036,"▁긴밀한":15037,"▁헤이스팅스":15038,"▁안타까":15039,"▁여론조사":15040,"▁일어날":15041,"▁유한킴벌리는":15042,"▁좋은기업지배구조":15043,"▁즐겁게":15044,"▁‘심각’":15045,"·가사노동":15046,"▁IBK기업":15047,"▁kej@dt.co.kr":15048,"▁박영선":15049,"▁ENM":15050,"▁근무성적평정":15051,".go.kr":15052,"@munhwa.com":15053,"'인":15054,"(환경":15055,")인":15056,"1000":15057,"2%":15058,"54":15059,"96":15060,"B)":15061,"NH":15062,"RE":15063,"RP":15064,"SW":15065,"US":15066,"eb":15067,"hj":15068,"min":15069,"~39":15070,"~17":15071,"▁Z":15072,"▁곡":15073,"▁굴":15074,"▁닐":15075,"▁벤":15076,"▁족":15077,"▁칭":15078,"▁에서":15079,"갤러":15080,"겠다.":15081,"계속":15082,"관계가":15083,"국에":15084,"군에":15085,"까봐":15086,"나와":15087,"나우":15088,"노버":15089,"닉스":15090,"단,":15091,"단에":15092,"답게":15093,"당이":15094,"대와":15095,"됐으며":15096,"된다":15097,"드홈":15098,"들께":15099,"라,":15100,"라질":15101,"리고,":15102,"릭터":15103,"만으로는":15104,"명→":15105,"목으로":15106,"미가":15107,"민영":15108,"배포":15109,"부품":15110,"불필요한":15111,"사히":15112,"사이버":15113,"선영":15114,"스토리":15115,"슬랙":15116,"시도":15117,"시청":15118,"시에도":15119,"양유업":15120,"업이":15121,"없음":15122,"였지만":15123,"위,":15124,"으려고":15125,"인들이":15126,"있음.":15127,"잔디":15128,"전시":15129,"점이다.":15130,"제'":15131,"주거":15132,"지서":15133,"캐피":15134,"클래":15135,"클럽":15136,"테고":15137,"테인":15138,"평양":15139,"하신":15140,"활성":15141,"회관":15142,"▁이러":15143,"▁있겠지만":15144,"▁재택근무에도":15145,"▁재택근무’는":15146,"▁재택근무자에게":15147,"▁기각":15148,"▁기분이":15149,"▁사법":15150,"▁대고객":15151,"▁지킬":15152,"▁수반":15153,"▁수습":15154,"▁1이":15155,"▁시너":15156,"▁시킬":15157,"▁2m":15158,"▁2조":15159,"▁2자녀":15160,"▁가기":15161,"▁가서":15162,"▁가성":15163,"▁가야":15164,"▁것인":15165,"▁일만":15166,"▁일명":15167,"▁일해":15168,"▁일하며":15169,"▁중증":15170,"▁한숨":15171,"▁위하고":15172,"▁제휴":15173,"▁정년":15174,"▁공채":15175,"▁3시":15176,"▁3학년":15177,"▁경보":15178,"▁상주":15179,"▁상징":15180,"▁‘반":15181,"▁‘워크":15182,"▁아르":15183,"▁아파":15184,"▁“내":15185,"▁“신":15186,"▁부인":15187,"▁부터":15188,"▁부부는":15189,"▁근무도":15190,"▁\"최":15191,"▁\"중소기업":15192,"▁\"향후":15193,"▁\"모든":15194,"▁비난":15195,"▁비말":15196,"▁비추":15197,"▁주에":15198,"▁주제":15199,"▁'대":15200,"▁'오":15201,"▁하려":15202,"▁하청":15203,"▁하려고":15204,"▁원하지":15205,"▁원거리":15206,"▁고속":15207,"▁고인":15208,"▁오가는":15209,"▁오디오":15210,"▁4시":15211,"▁4만5":15212,"▁말로":15213,"▁5대":15214,"▁550":15215,"▁지원되는":15216,"▁확산,":15217,"▁확산되자":15218,"▁안좋":15219,"▁국책":15220,"▁현안":15221,"▁현상은":15222,"▁의향":15223,"▁사용료":15224,"▁원격진료":15225,"▁시행은":15226,"▁만날":15227,"▁필리핀":15228,"▁근데":15229,"▁집의":15230,"▁집콕":15231,"▁영종":15232,"▁불이":15233,"▁사무처":15234,"▁사무총":15235,"▁도입해야":15236,"▁스카이":15237,"센터와":15238,"▁특이":15239,"...코로나":15240,"...육아휴직":15241,"직원을":15242,"직원이":15243,"▁성형":15244,"▁8명":15245,"▁SA":15246,"▁금액을":15247,"▁필요하지":15248,"▁세분":15249,"▁재고":15250,"▁재생":15251,"▁출근했다.":15252,"▁출근하도록":15253,"▁7개":15254,"▁상황”이라고":15255,"▁운영했다.":15256,"▁운영하며":15257,"▁무기":15258,"▁무제한":15259,"▁원격근무하는":15260,"▁화제가":15261,".com/":15262,"▁제공했다.":15263,"보다도":15264,"▁체납":15265,"▁김상":15266,"▁데도":15267,"▁협동조합":15268,"▁후,":15269,"▁워낙":15270,"▁조치하고":15271,"▁관리자의":15272,"▁처리를":15273,"▁방역조치":15274,"▁대응책을":15275,"▁삼아":15276,"▁행위를":15277,"▁들어오는":15278,"▁규제로":15279,"▁규제가":15280,"▁재택,":15281,"▁과연":15282,"▁게재":15283,"▁두는":15284,"▁두산":15285,"▁지급기업":15286,"▁다양성을":15287,"▁다양하다.":15288,"▁절실":15289,"▁있어,":15290,"▁개인위생":15291,"▁여성들이":15292,"▁프로토":15293,"▁효율성에":15294,"▁청취":15295,"▁월세":15296,"하겠다”며":15297,"▁트리":15298,"▁수준이었다.":15299,"▁법적으로":15300,"▁피하기":15301,"▁피트니스":15302,"▁클라우드,":15303,"그룹,":15304,"▁문제다.":15305,"▁잘하는":15306,"▁잘되어":15307,"▁PC는":15308,"▁결정에":15309,"▁추가경정":15310,"▁급여의":15311,"▁협업과":15312,"▁변화된":15313,"▁박종":15314,"▁목록":15315,"▁부서의":15316,"▁유지한":15317,"▁11만":15318,"▁평가에":15319,"▁갖췄":15320,".9%에":15321,"▁중요하다”고":15322,"▁추진했다.":15323,"▁향한":15324,"▁폐쇄된":15325,"▁포함되지":15326,"▁휴직,":15327,"▁SK텔레콤도":15328,"▁손으로":15329,".6%였다.":15330,"▁100여":15331,".3%에":15332,"▁충당":15333,"▁충돌":15334,"▁연구결과":15335,"▁16일까지":15336,"▁휴가는":15337,"▁정책으로":15338,"▁18만":15339,"▁빠르":15340,"▁하나를":15341,"(4시간)":15342,"▁프로그램에":15343,"▁업체들의":15344,"▁허용하고":15345,"▁허용한다.":15346,"▁비용,":15347,"▁비용도":15348,"▁권고하는":15349,"▁형태에":15350,"▁경영정보":15351,"▁잡는":15352,"▁홈피스":15353,"▁감소에":15354,"▁금지한다.":15355,"▁기록해":15356,"▁기록하며":15357,"▁사례다.":15358,"▁승용":15359,"▁수도권에":15360,"▁기대했다.":15361,"▁공급망":15362,"▁소통하는":15363,"▁로컬":15364,"▁지적한다.":15365,"▁인터넷용":15366,"▁복귀가":15367,"▁네이버도":15368,"▁나오면":15369,"▁급증에":15370,"▁확보하는":15371,"▁싶을":15372,"▁페이스북과":15373,"▁페이스북도":15374,"▁연봉도":15375,"▁상태가":15376,"▁독자":15377,"▁코엑스":15378,"억원에":15379,"▁노력할":15380,"▁장소가":15381,"▁안정적":15382,"▁위험성이":15383,"▁버튼":15384,"명)과":15385,"공간이":15386,"▁21.2":15387,"▁환자는":15388,"▁50명":15389,"▁어렵다고":15390,"▁DS":15391,"▁200만원":15392,"▁2001년":15393,"▁조정해":15394,"▁애플의":15395,"▁애플이":15396,"▁출입이":15397,"▁거주지를":15398,"▁LG유플러스,":15399,"▁\"코로나19가":15400,"▁어디에서":15401,"▁소비가":15402,"▁소비자들이":15403,"▁일정이":15404,"▁벌이고":15405,"▁미래가":15406,"▁차단한다.":15407,"▁파악할":15408,"▁핵심은":15409,"▁분리된":15410,"▁ji":15411,"▁완화해":15412,"▁본격화된":15413,"▁알서포트가":15414,"▁재택근무제가":15415,"▁\"이런":15416,"▁학교는":15417,"▁극복하는":15418,"▁여파에":15419,"▁마음대로":15420,"▁집계한":15421,"▁밀집된":15422,"▁반영된":15423,"▁전반의":15424,"▁기관에":15425,"▁3단계에":15426,"▁“이런":15427,"▁전날부터":15428,"▁라인은":15429,"▁가까워":15430,"▁전용면적":15431,"▁늘었다":15432,"▁어린이집,":15433,"▁좋아서":15434,"▁준수할":15435,"▁유럽과":15436,"▁얻었다.":15437,"▁대유행이":15438,"▁의심증상이":15439,"▁골프":15440,"▁밖으로":15441,"▁평소와":15442,"▁구조조정":15443,"▁일시적":15444,"▁세종청사":15445,"▁시민들의":15446,"▁자기개발":15447,"▁세대의":15448,"▁강력하게":15449,"▁호소하고":15450,"▁e메":15451,"▁나타나는":15452,"▁구체적":15453,"▁드러냈다.":15454,"▁최적화":15455,"▁장비와":15456,"▁올라가":15457,"▁수익률":15458,"▁현대모비스가":15459,"▁dor":15460,"직장맘":15461,"▁봉사":15462,"▁캐릭터":15463,"▁중이거나":15464,"▁만족도와":15465,"▁대중교통을":15466,"▁팔로":15467,"▁머물고":15468,"▁중소·중견기업이":15469,"!!!":15470,"교대조":15471,"달라\"고":15472,"▁예외적으로":15473,"▁리모트미팅":15474,"▁통보했다.":15475,"▁패키지는":15476,"▁특허청":15477,"▁떨어진다는":15478,"▁전후로":15479,"▁활발하게":15480,"▁절차가":15481,"▁조례안":15482,"▁확실한":15483,"~2019년":15484,"▁웨스트":15485,"▁대리점":15486,"▁주재로":15487,"▁추정되는":15488,"▁화장품":15489,"▁물류창고":15490,"▁조항이":15491,"▁케어":15492,"▁사흘은":15493,"▁맞추는":15494,"▁상호작용":15495,"▁겹치는":15496,"▁딱히":15497,"▁달러(약":15498,"▁이름을":15499,"▁작용할":15500,"베이도":15501,"현장에서":15502,"▁인도네시아":15503,"▁여기서":15504,"▁텐데":15505,"라스틱":15506,"▁무급휴직":15507,"▁성격이":15508,"▁엄격하게":15509,"▁헬스케어":15510,"▁과장급":15511,"마저도":15512,"▁vs":15513,"남녀고용평등과":15514,"▁야놀자":15515,"▁웍스모바일은":15516,"▁쟁점":15517,"▁음악을":15518,"▁점유율":15519,"▁3~4월":15520,"(복수":15521,"▁손소독제":15522,"▁애니웨어":15523,"임대주택":15524,"▁마사지":15525,"▁주한미":15526,"▁간소화":15527,"▁주민등록을":15528,"▁서면으로":15529,"▁헤드셋":15530,"▁공영쇼핑":15531,"▁미래에셋증권":15532,"▁촉발된":15533,"▁LIG넥스":15534,"▁리모트워크":15535,"▁정부원격근무서비스(GVPN)를":15536,"▁제목의":15537,"▁노르웨지아":15538,"▁후생노동":15539,"▁코니바이에린":15540,"▁탄탄한":15541,"인포섹":15542,"▁면밀히":15543,"▁(서울=뉴스1)":15544,"▁sunnyday72@dt.co.kr":15545,"티이미지뱅크":15546,"▁naturean":15547,"(J":15548,"(경":15549,"(재택근무":15550,"(기업":15551,"(원격":15552,"(BC":15553,"(서울":15554,"(부산":15555,"(사장":15556,"(오전":15557,"1%)":15558,"2만":15559,"34":15560,"74":15561,"7%)":15562,"DB":15563,"G)":15564,"PM":15565,"TM":15566,"kg":15567,"one":15568,"ut":15569,"wan":15570,"·신":15571,"·실":15572,"·태":15573,"·기업":15574,"·금융":15575,"▁칠":15576,"▁콤":15577,"▁퓨":15578,"▁핑":15579,"▁센트럴":15580,"감치":15581,"개편":15582,"결혼":15583,"공직":15584,"과도":15585,"국의":15586,"국제공":15587,"균열":15588,"냐?":15589,"네시온":15590,"년차":15591,"농촌":15592,"뉴욕":15593,"달라는":15594,"돌았다.":15595,"둘러":15596,"드림":15597,"드립니다.":15598,"들끼리":15599,"랜섬웨어":15600,"렌즈":15601,"령이":15602,"로선":15603,"리더":15604,"물인터넷":15605,"밀레니얼":15606,"반을":15607,"배,":15608,"변이":15609,"복귀":15610,"봉쇄":15611,"불이":15612,"비로":15613,"소리":15614,"소시":15615,"수선":15616,"스커":15617,"었을":15618,"연대":15619,"연습":15620,"오롱":15621,"와이":15622,"요즘":15623,"이게":15624,"이더":15625,"이면서":15626,"자간":15627,"자들을":15628,"졌고,":15629,"즈가":15630,"증이":15631,"지자체":15632,"진의":15633,"청에서":15634,"층이":15635,"카고":15636,"카르타":15637,"탄소":15638,"터디":15639,"토니아":15640,"투스":15641,"파수":15642,"피해":15643,"하느라":15644,"학회":15645,"해주고":15646,"했었다.":15647,"형으로":15648,"후통":15649,"▁이룰":15650,"▁이스":15651,"▁이형":15652,"▁있기를":15653,"으로만":15654,"▁재택근무’를":15655,"▁대만":15656,"▁대조":15657,"▁지분":15658,"▁지장을":15659,"▁지사장은":15660,"▁1은":15661,"▁1명,":15662,"▁전업":15663,"▁전직":15664,"▁전형":15665,"▁전액을":15666,"▁가비아":15667,"▁확립":15668,"▁한동안":15669,"▁보냈":15670,"▁위드":15671,"▁직원인":15672,"▁정무":15673,"▁자카르타":15674,"육아를":15675,"▁공인":15676,"▁3사는":15677,"▁경과":15678,"▁상여금":15679,"▁‘미":15680,"▁‘비":15681,"▁‘인":15682,"▁‘가족":15683,"▁‘아이":15684,"▁‘비상":15685,"▁‘라인웍스":15686,"▁아우":15687,"▁“사":15688,"▁“상":15689,"▁업무시스템":15690,"▁업무망에":15691,"▁\"가":15692,"▁\"오늘":15693,"▁비서":15694,"▁비우":15695,"▁'S":15696,"▁'가":15697,"▁'다":15698,"▁'재택":15699,"▁관찰":15700,"▁관할":15701,"▁하여":15702,"▁원심을":15703,"▁고육":15704,"▁유관":15705,"▁유력":15706,"▁유모":15707,"00개":15708,"▁연가":15709,"▁신생":15710,"▁내걸":15711,"▁내기":15712,"▁구민":15713,"▁구속":15714,"▁도약":15715,"▁실감":15716,"▁개정을":15717,"▁4,":15718,"▁4분의":15719,"▁4~12개월":15720,"▁말할":15721,"▁5부":15722,"▁5시":15723,"▁5시까지":15724,"▁생중":15725,"▁지원책을":15726,"▁안고":15727,"▁안정을":15728,"▁계층":15729,"▁사용하던":15730,"▁시행하고,":15731,"▁시행키로":15732,"▁만점":15733,"▁때만":15734,"▁미용":15735,"▁회사,":15736,"▁받으면":15737,"com":15738,"▁선순환":15739,"▁영수":15740,"▁높이고,":15741,"▁확진환자가":15742,"▁6,":15743,"▁불고":15744,"▁불어":15745,"▁도입하면":15746,"▁스루":15747,"▁가능합니다.":15748,"▁남겨":15749,"▁남짓":15750,"센터는":15751,"▁운행":15752,"▁8주":15753,"▁8명이":15754,"▁같아서":15755,"▁사업으로":15756,"▁시간적":15757,"▁시간대에":15758,"▁교사의":15759,"▁필요해":15760,"▁재차":15761,"▁출근하게":15762,"▁상황에도":15763,"▁상황에서는":15764,"▁운영도":15765,"▁외모":15766,"▁서울에":15767,"▁화성":15768,"▁사회관계":15769,"▁증가세가":15770,"▁휴네시온":15771,"▁앞선":15772,"▁사람인이":15773,"▁발생한다.":15774,"▁발생하기":15775,"▁각별":15776,"▁알코올":15777,"▁당신":15778,"▁온전히":15779,"▁기간에는":15780,"▁함.":15781,"▁관리도":15782,"▁신청해":15783,"▁△개인":15784,"▁대응과":15785,"▁대응은":15786,"▁명만":15787,"▁재택이":15788,"▁못하게":15789,".5일":15790,"▁응시":15791,"▁거리두기’를":15792,"▁여성과":15793,"▁여성들의":15794,"▁정보에":15795,"▁모두를":15796,"▁메르":15797,"▁강화하기":15798,"기관과":15799,"기관으로":15800,"▁15만":15801,"▁약간":15802,"▁문제점을":15803,"▁본사로":15804,"생활과":15805,"▁롯데는":15806,"▁해당된다.":15807,"▁구성된다.":15808,"▁확인한":15809,"▁개발하는":15810,"▁지속되고":15811,"▁세계에":15812,"▁손님":15813,"▁100만원":15814,"▁낮다.":15815,"▁쓰레":15816,"▁KT와":15817,"▁130":15818,"▁충격을":15819,"▁조직과":15820,"▁조직에":15821,"▁밀키트":15822,"▁질적":15823,"▁대구에서":15824,"업계에서":15825,"▁집중력":15826,"▁집중하는":15827,"▁집중하고":15828,"▁집중력이":15829,"▁매출도":15830,"▁눈앞":15831,"▁균형)을":15832,"▁호칭":15833,"▁계속할":15834,"▁카카오의":15835,"▁동안은":15836,"▁성과금":15837,"▁방안,":15838,"▁책정":15839,"▁된다”며":15840,"▁컨소시":15841,"▁ERP":15842,"▁산업단":15843,"▁형태는":15844,"▁노트북이":15845,"▁높아져":15846,"▁투자에":15847,"▁감소,":15848,"▁금지하기로":15849,"▁분위기는":15850,"▁효과는":15851,"▁아빠들이":15852,"지역추진단":15853,"▁내부에":15854,"▁내부에서":15855,"▁병원에":15856,"▁나오기":15857,"▁인증제":15858,"▁돌봄·가사노동":15859,"▁순환근무를":15860,"▁방지하는":15861,"▁장소로":15862,"▁개정으로":15863,"▁0.4":15864,"▁/박":15865,"▁연결돼":15866,"▁겪으면서":15867,"▁50%까지":15868,"▁대책으로":15869,"▁중앙행정":15870,"▁여러분의":15871,"▁사옥에":15872,"레이크":15873,"▁처리했다.":15874,"▁임금은":15875,"▁철학":15876,"▁격상되면서":15877,"▁사이의":15878,"▁지시하는":15879,"▁미만으로":15880,"▁조정,":15881,"▁자제해":15882,"▁모습으로":15883,"▁많아진":15884,"달러를":15885,"▁일주일씩":15886,"▁A씨에게":15887,"▁항소":15888,"▁꾸려":15889,"▁논의할":15890,"개발기구":15891,"▁부여하고":15892,"▁게임사":15893,"▁만들어야":15894,"▁차지한":15895,"▁2만명":15896,"사무직":15897,"▁불안한":15898,"~2000":15899,"자로서":15900,"▁회식,":15901,"00여명이":15902,"▁사진은":15903,"▁늘었지만":15904,"▁시설에":15905,"▁하겠습니다.":15906,"▁무엇인가":15907,"▁가족친화제도를":15908,"▁좌우":15909,"▁체계적으로":15910,"▁뜻한다.":15911,"ith":15912,"▁입주민":15913,"▁입주사":15914,"(86":15915,"▁편리하다.":15916,"▁층에서":15917,"▁지켜지지":15918,"▁주장도":15919,"▁소상공인의":15920,"▁1명당":15921,"▁스마트폰,":15922,"▁스마트폰을":15923,"▁배우자가":15924,"▁줌시터":15925,"(2020년":15926,"▁익명":15927,"▁아동의":15928,"적이며":15929,"▁아내는":15930,"▁줄어들고":15931,"▁KB금융":15932,"▁측면도":15933,"▁측면이":15934,"▁품목":15935,"주시립":15936,"▁dew":15937,"▁탈출":15938,"...\"재택근무":15939,"▁여건상":15940,"▁60세":15941,"▁60cm":15942,"유연한":15943,"▁삭제":15944,"▁대전시":15945,"▁다르지만":15946,"▁지키고":15947,"▁머물렀다.":15948,"tele":15949,"▁시행해왔":15950,"▁진정한":15951,"▁3만명을":15952,"▁경찰은":15953,"▁암호화된":15954,"▁길어진":15955,"▁통근버스":15956,"▁영아수당":15957,"▁영아수당을":15958,"달라”고":15959,"▁신뢰를":15960,"▁노출을":15961,"▁work":15962,"▁더존비즈온의":15963,"▁노무비":15964,"▁‘2019년":15965,"▁노사정":15966,"▁줄어든다.":15967,"▁배송도":15968,"▁노조가":15969,"▁정신건강":15970,"▁탑재해":15971,"▁정확하게":15972,"▁접수된":15973,"▁바꿔야":15974,"▁잔디":15975,"▁띄는":15976,"▁중소벤처기업부":15977,"▁추정된다.":15978,"kim@heraldcorp.com":15979,"▁신한은행,":15980,"▁출연해":15981,"▁국방부는":15982,"▁요소가":15983,"▁회원사":15984,"▁법안이":15985,"▁유명한":15986,"▁유명하다.":15987,"▁자발적":15988,"▁시급한":15989,"▁금융감독원":15990,"▁저출산·고령":15991,"협력개발기구":15992,"▁'리모트미팅":15993,"▁SK브로드밴드는":15994,"▁김지선기자":15995,"▁하나투어는":15996,"ver@etnews.com":15997,"·여가":15998,"▁시키는":15999,"▁밝혀졌다.":16000,"▁소식에":16001,"▁자부심을":16002,"분산근무":16003,"면접수당":16004,"▁‘그렇":16005,"▁시차출근제를":16006,"(사진)":16007,"▁운전면허":16008,"▁클래스":16009,"지속가능":16010,"(상한액":16011,"스테이트":16012,"▁“다만":16013,"▁의뢰해":16014,"age":16015,"▁만성질환자":16016,"▁생명보험":16017,"▁한국수력원자력":16018,"▁대법관)는":16019,"▁이코노미스트는":16020,"▁모은다.":16021,"어촌공사":16022,"▁VPN(가상사설망":16023,"(자부담":16024,"국제도시":16025,"▁신도림":16026,"▁특수고용직":16027,"▁세액공제":16028,"▁워터마크":16029,"▁한해서만":16030,"▁모으고":16031,"▁식료품":16032,"(외부망":16033,"▁river@etnews.com":16034,"▁삼일회계":16035,"amp;":16036,"▁아르바이트":16037,"▁추가경정예산":16038,"▁컨소시엄":16039,"▁dewkim@heraldcorp.com":16040,"(남":16041,"(부":16042,"(내부망":16043,"1개":16044,"4월":16045,"5G":16046,"6일":16047,"7%":16048,"98":16049,"9세":16050,";;":16051,"Work":16052,"est":16053,"hye":16054,"oi":16055,"place":16056,"sk":16057,"top":16058,"·하":16059,"·기술":16060,"·원격":16061,"”(":16062,"▁됨":16063,"▁롭":16064,"▁..":16065,"▁al":16066,"▁됨.":16067,"간접":16068,"감지":16069,"건축":16070,"구에서":16071,"기록":16072,"나게":16073,"내역":16074,"넷은":16075,"니,":16076,"니는":16077,"대고":16078,"데도":16079,"됐을":16080,"되지는":16081,"례를":16082,"리던":16083,"리스트":16084,"림의":16085,"말로":16086,"민지":16087,"배나":16088,"버렸":16089,"법,":16090,"법’":16091,"비율":16092,"상우":16093,"생명":16094,"생물":16095,"서트":16096,"서류를":16097,"소벤처기업":16098,"손보":16099,"수정":16100,"슈퍼":16101,"스프":16102,"스에서":16103,"실도":16104,"안내":16105,"알서포트":16106,"어붙":16107,"억위안":16108,"언스":16109,"었다":16110,"여부를":16111,"오지":16112,"워터":16113,"원칙":16114,"유를":16115,"전용":16116,"접근":16117,"졌다":16118,"졌지만":16119,"주화":16120,"주시는":16121,"중간":16122,"찌감치":16123,"창원":16124,"채움":16125,"처에":16126,"촉진":16127,"치가":16128,"커넥":16129,"퍼브":16130,"포메이션":16131,"하네":16132,"해지자":16133,"호가":16134,"회선":16135,"회선을":16136,"다...":16137,"▁이럴":16138,"▁이송":16139,"▁이다.":16140,"▁이곳에서":16141,"▁있다”는":16142,"▁재택근무한다.":16143,"▁사정이":16144,"▁지구":16145,"▁지친":16146,"▁지수가":16147,"▁수강":16148,"▁1심":16149,"▁1.6":16150,"▁1·2":16151,"▁시ᆞ":16152,"▁2.2":16153,"▁전일(8":16154,"▁등급":16155,"▁직책":16156,"▁가점을":16157,"▁가트너":16158,"▁것에서":16159,"▁것인가":16160,"▁일찌감치":16161,"▁중학교":16162,"▁인스타":16163,"▁위기관":16164,"▁제언":16165,"▁제조사":16166,"▁제70":16167,"▁정당":16168,"▁정밀":16169,"▁공장은":16170,"▁3종":16171,"▁경리":16172,"▁경상":16173,"▁경보가":16174,"▁‘원격":16175,"▁‘성과":16176,"▁‘남성":16177,"▁아낄":16178,"▁“수":16179,"▁“현":16180,"▁“출산":16181,"▁“기존":16182,"▁“오늘":16183,"▁부러":16184,"▁업무량":16185,"▁근무해야":16186,"▁근무하며":16187,"▁\"다":16188,"▁\"이는":16189,"▁\"출근":16190,"▁\"국내":16191,"▁비필수":16192,"▁주저":16193,"▁주의를":16194,"▁주어지는":16195,"▁주5일":16196,"▁'2":16197,"▁'브":16198,"▁'해":16199,"▁'K-비대면":16200,"▁조립":16201,"▁조회가":16202,"▁하늘":16203,"▁하자":16204,"▁나흘":16205,"▁출력":16206,"▁원내":16207,"▁원)를":16208,"▁고백":16209,"▁고개를":16210,"▁육아휴직통계":16211,"▁유니":16212,"▁유학생":16213,"00명에":16214,"▁서피스":16215,"▁연기로":16216,"▁신문은":16217,"▁그녀":16218,"▁내야":16219,"▁도래":16220,"▁도교육청은":16221,"▁모자":16222,"▁않기로":16223,"▁없는데":16224,"▁오지":16225,"▁오해":16226,"▁여주시":16227,"▁감당":16228,"▁감동":16229,"▁임원은":16230,"▁위해,":16231,"▁4년까지":16232,"▁말도":16233,"▁5∼":16234,"▁5급":16235,"▁발빠":16236,"하기를":16237,"▁안되":16238,"▁강하게":16239,"▁마드라스체크":16240,"▁계정을":16241,"▁사용은":16242,"▁사용하도록":16243,"▁사용자를":16244,"▁원격수업을":16245,"▁20년":16246,"▁20여":16247,"▁만난":16248,"▁많기":16249,"▁많을":16250,"▁장면":16251,"▁회사에서는":16252,"▁늘렸":16253,"▁영세":16254,"▁영입":16255,"▁바베이도":16256,"▁적잖":16257,"▁높기":16258,"▁높고,":16259,"▁6년까지":16260,"▁경우라면":16261,"▁감염경":16262,"▁도입한다고":16263,"▁도입했다고":16264,"...전":16265,"▁단점이":16266,"▁근로를":16267,"▁성취":16268,"▁8.7%":16269,"▁SSD":16270,"▁사업계획":16271,"▁금요":16272,"▁본점이":16273,"▁올바른":16274,"▁필요에":16275,"▁반입":16276,"▁재단":16277,"▁7,":16278,"▁7명은":16279,"▁확대해야":16280,"▁확대되면서":16281,"▁무더":16282,"▁판토":16283,"▁서울에서":16284,"▁원격근무자":16285,"▁화두":16286,"▁증가가":16287,"▁실시를":16288,"▁실시하게":16289,"▁포상":16290,"▁포착":16291,"▁10세":16292,"▁98":16293,"▁9개":16294,"▁점수가":16295,"▁변환":16296,"▁좋습니다":16297,"▁때문이라는":16298,"▁SK(주":16299,"▁SK인포섹":16300,"▁김종":16301,"▁김철":16302,"▁줄였다.":16303,"▁중소ᆞ":16304,"▁저는":16305,"▁제도에":16306,"▁사람에":16307,"▁최근엔":16308,"▁맞고":16309,"▁남성들의":16310,"▁계획하고":16311,"▁한국MS":16312,"▁한국무역":16313,"▁입소":16314,"▁입지":16315,"▁초봉":16316,"▁기간과":16317,"▁In":16318,"▁방역지침을":16319,"▁방역물품":16320,"▁삼고":16321,"▁규칙을":16322,"▁재택과":16323,"▁금융사의":16324,"▁금융위원회는":16325,"▁되기도":16326,"▁산하기":16327,"▁전환은":16328,"▁아이돌봄":16329,"▁LGU+":16330,"▁나타날":16331,"▁시작하는":16332,"▁PL":16333,"▁했다면":16334,"▁했으며":16335,"▁거리두기로":16336,"▁대기업들도":16337,"▁예정\"이라며":16338,"▁것이며":16339,"▁것이며,":16340,"▁정보의":16341,"▁정보화":16342,"▁프로북":16343,"▁대표의":16344,"▁고객들의":16345,"▁강화하기로":16346,"▁구축하고,":16347,"기관,":16348,"노동조합":16349,"▁허리가":16350,"▁감염증(코로나19)에":16351,"▁12일까지":16352,"▁가족관계":16353,"▁25.5%,":16354,"▁생각하지":16355,"▁15분":16356,"▁C씨는":16357,"▁출퇴근과":16358,"▁투자는":16359,"▁마련된":16360,"▁급여와":16361,"▁뒤에":16362,"▁뒤늦게":16363,"▁근로자들을":16364,"▁학기":16365,"▁교육은":16366,"사업에":16367,"▁플라스틱":16368,"▁IT·모바일":16369,"▁롯데그룹은":16370,"▁롯데케미칼":16371,"▁식탁":16372,"▁유지하면서":16373,"▁구성원은":16374,"▁평가도":16375,"(3월":16376,"▁경제에":16377,"▁경제매체":16378,"▁적극적":16379,"▁확인,":16380,"▁제외됐다.":16381,"▁제외하면":16382,"▁발표를":16383,"▁워라밸은":16384,"▁형평":16385,"▁개발했다.":16386,"▁폐쇄에":16387,".1%를":16388,"▁부모를":16389,"▁선택을":16390,"▁등이었다.":16391,"▁사업장으로":16392,"▁전문직":16393,"▁손님이":16394,"▁우려하는":16395,"▁우려하고":16396,"▁복지혜택":16397,"▁외부에서도":16398,"▁밀려":16399,"▁번아웃":16400,"업계에서는":16401,"▁균형)":16402,"▁카카오가":16403,"▁동안의":16404,"▁건강이":16405,"▁프로그램,":16406,"▁프로그램으로":16407,"▁정도는":16408,"▁정도만":16409,"▁걸맞":16410,"▁첫해":16411,"▁방안에":16412,"▁분석됐다.":16413,"▁누워":16414,"▁노트북은":16415,"교육을":16416,"▁제한,":16417,"▁제한돼":16418,"▁제한적으로":16419,"▁감소를":16420,"▁설치할":16421,"▁설치하지":16422,"▁토끼":16423,"▁이전에도":16424,"▁의무를":16425,"근로제를":16426,"시설에":16427,"▁아닌,":16428,"▁성장과":16429,"▁성장했다.":16430,"▁성장하는":16431,"▁드리":16432,"▁나오자":16433,"▁인증마크":16434,"▁보인다고":16435,"▁판단하는":16436,"▁엄두":16437,"▁엄중":16438,"▁돌아왔":16439,"▁싶어도":16440,"▁면적을":16441,"▁코너":16442,"▁코오롱":16443,"▁단축을":16444,"▁판매하는":16445,"▁장려하기":16446,"▁3개월은":16447,"▁연결되는":16448,"▁겪을":16449,"▁위치정보":16450,"▁50%,":16451,"공간의":16452,"▁우수사례":16453,"▁고민해야":16454,"▁GTX":16455,"▁있었습니다.":16456,"▁있었는데":16457,"▁있었는데,":16458,"▁사옥이":16459,"▁바이러스의":16460,"▁“재택근무로":16461,"▁나눠쓸":16462,"▁기회도":16463,"▁임산부를":16464,"▁DRM":16465,"▁통상적인":16466,"▁시차를":16467,"▁사이에서는":16468,"▁국회에":16469,"▁st":16470,"위원회에서":16471,"▁많아지고":16472,"▁잠잠":16473,"▁현실이":16474,"▁가입한":16475,"▁공격은":16476,"in.com":16477,"▁필요하다”며":16478,"▁뉴욕주는":16479,"▁청년들이":16480,"▁요구했다.":16481,"▁요구하고":16482,"이었지만,":16483,"▁주목된다.":16484,"▁삼성전자에":16485,"▁도시락을":16486,"▁점검한":16487,")’로":16488,"(63":16489,"▁30%가":16490,"▁30%를":16491,"▁친절":16492,"▁1월로":16493,"▁업종의":16494,"▁출장이나":16495,"협회,":16496,"다\"면서도":16497,"▁여파가":16498,"▁팬데믹이":16499,"▁돈은":16500,"▁https://":16501,"▁공개시스템":16502,"▁경기,":16503,"▁인상하고,":16504,"▁업무용(내부망":16505,"▁동참을":16506,"▁화면에":16507,"▁침실":16508,"▁늘었다는":16509,"▁점심시간을":16510,"▁이메일과":16511,"하다며":16512,"▁유럽,":16513,"▁WEHAGO":16514,"▁스타트업이":16515,")'이":16516,"▁모임,":16517,"▁원칙이다.":16518,"▁베이스":16519,"▁제시하는":16520,"000여명이":16521,"▁문의하면":16522,"▁진단을":16523,"▁진단키트":16524,"▁골반":16525,"카드를":16526,"여성의":16527,"▁구조조":16528,"▁하락한":16529,"▁이렇다":16530,"▁뛰어나":16531,"리스토":16532,"▁배우는":16533,"▁늦은":16534,"▁이외의":16535,"연구소가":16536,"▁지역사회에":16537,"▁위협에":16538,"▁개최한":16539,"@kyeong":16540,"▁신설해":16541,"▁종식된":16542,"적이어서":16543,"▁공장에서":16544,"\"...재택근무":16545,"▁녹음":16546,"▁개인정보보호":16547,"▁매뉴얼에":16548,".7%)이":16549,"▁수익을":16550,"▁35~39":16551,"▁학생들은":16552,"▁dong":16553,"타임데스크탑":16554,"▁명령했다.":16555,"▁중이며":16556,"▁회복을":16557,"▁저커버그는":16558,"▁통제하고":16559,"▁상담사들이":16560,"▁다르지":16561,"▁12개월이":16562,"비용을":16563,"▁기여하고":16564,"▁에스지":16565,"▁에스케이":16566,"▁실리콘밸리의":16567,"aaS)":16568,"▁연동해":16569,"▁팀원들과":16570,"▁경영진이":16571,"▁배려하는":16572,"▁to":16573,"▁tru":16574,"▁편집국":16575,"▁분류해":16576,"▁교수=":16577,"▁3회로":16578,"▁CNBC는":16579,"▁쏟고":16580,"▁인간관계":16581,"▁띄어":16582,"(OECD":16583,"▁줄었다고":16584,"▁돌파했다.":16585,"▁효율적이라는":16586,"▁협의해":16587,"▁연락을":16588,"▁물류센터":16589,"▁공포가":16590,"79%":16591,"▁트래픽을":16592,"7665":16593,"▁자리잡을":16594,"▁떠오른":16595,"프레시":16596,"▁기한을":16597,"▁갑작스럽게":16598,"▁국민연금공단":16599,"▁칼퇴":16600,"▁이로써":16601,"▁체결했다고":16602,"▁대해서만":16603,"▁테스트를":16604,"▁비판이":16605,"▁이벤트를":16606,"▁시리얼":16607,"▁1990년대":16608,"▁용이한":16609,"▁유동인구":16610,"▁전수조사":16611,"▁손해배상":16612,"▁입법예고":16613,"▁\"아직":16614,"▁존중하는":16615,"▁기초생활수급비":16616,"·사회·지배구조":16617,"제조업":16618,"▁정의당":16619,"·소상공":16620,"▁옵션을":16621,"▁뿌리":16622,"▁헌법재판":16623,"▁위기경보가":16624,"▁융합":16625,"▁자부심":16626,"▁왕복":16627,"▁폴라리스":16628,"▁마감했다.":16629,"▁의왕연구소":16630,"ffice":16631,"▁김수영":16632,"▁현대·기아차는":16633,"▁물리적으로":16634,"▁유증상자":16635,"▁지능형":16636,"(Work-Life":16637,"▁잦아들":16638,"▁깜짝":16639,"테크노밸리":16640,"배우자":16641,"▁전공의":16642,"▁슬기롭게":16643,"▁스케줄":16644,"▁볼보자동차":16645,"▁산업재해보상":16646,"▁자릿수":16647,"▁네오위":16648,"청소년":16649,"터미널":16650,"▁해명했다.":16651,"▁크리에이티브":16652,"here":16653,"▁펀드는":16654,"▁스탠퍼드대":16655,"▁naturean@dt.co.kr":16656,"국제공항":16657,"▁생중계":16658,"▁전일(8시간)":16659,"▁인스타그램":16660,"▁제70조":16661,"@kyeongin.com":16662,"&A":16663,"&amp;":16664,"(고":16665,")나":16666,")씨도":16667,"/사진제공=":16668,"2개":16669,"365":16670,"6개":16671,"6개월":16672,"CI":16673,"NA":16674,"SO":16675,"XA":16676,"ab":16677,"kly":16678,"ll":16679,"lan":16680,"moon":16681,"o@hankyung.com":16682,"s@donga.com":16683,"vice":16684,"·아":16685,"·조":16686,"·지원":16687,"·원격근무":16688,"·IT":16689,"·과학":16690,"·현대":16691,"▁↑":16692,"▁샘":16693,"▁틸":16694,"▁re":16695,"감,":16696,"강도가":16697,"거리가":16698,"겠느냐":16699,"경철":16700,"고요.":16701,"기영":16702,"기기를":16703,"남취재":16704,"넥슨":16705,"단지,":16706,"대유행":16707,"됐다”며":16708,"되지만":16709,"등학생":16710,"디아":16711,"라시":16712,"랫동안":16713,"레이터":16714,"려운":16715,"력도":16716,"만4":16717,"맞돌봄":16718,"반도체":16719,"발생":16720,"발표":16721,"버린":16722,"벤션":16723,"부대":16724,"불가":16725,"블록":16726,"서부":16727,"서피스":16728,"서린빌딩":16729,"세이":16730,"셔서":16731,"수령":16732,"수산부":16733,"스모":16734,"스퀘어":16735,"스포메이션":16736,"신기":16737,"쓰고":16738,"알리오":16739,"어져":16740,"연계":16741,"연맹":16742,"연합뉴스":16743,"였고":16744,"오면":16745,"온다.":16746,"외국":16747,"운드":16748,"으니까":16749,"으려는":16750,"으려면":16751,"음료":16752,"이므로":16753,"인증(":16754,"일수":16755,"일기자":16756,"있다":16757,"자본":16758,"작년":16759,"장학생":16760,"장소를":16761,"재료":16762,"재해":16763,"전이":16764,"전(CE":16765,"조사는":16766,"주도":16767,"즈마":16768,"즈헬":16769,"지던":16770,"지연":16771,"지거나":16772,"진행":16773,"쪽에":16774,"쪽으로":16775,"청와대":16776,"총리":16777,"취소":16778,"치기":16779,"카톡":16780,"통화를":16781,"투명":16782,"피파이":16783,"하에":16784,"항에":16785,"현아":16786,"현정":16787,"협동조합":16788,"화하기":16789,"회로":16790,"▁이격":16791,"▁이사회":16792,"▁있더라도":16793,"▁재택근무/":16794,"▁재택근무한":16795,"▁재택근무자들이":16796,"▁기사는":16797,"▁기기에":16798,"▁사장,":16799,"▁대량":16800,"▁대목":16801,"▁대안을":16802,"▁수술":16803,"▁수위를":16804,"▁1곳":16805,"▁1을":16806,"▁119":16807,"▁1.2":16808,"▁1.3":16809,"▁시까지":16810,"▁시점에":16811,"▁시카고":16812,"▁2심":16813,"▁2심은":16814,"▁2.9%는":16815,"▁확고":16816,"▁확신":16817,"▁일수를":16818,"▁중대한":16819,"▁보태":16820,"▁보장을":16821,"▁인류":16822,"▁인문":16823,"▁정량":16824,"▁공사는":16825,"▁공지가":16826,"▁공문을":16827,"▁3곳":16828,"▁3억":16829,"▁3000여":16830,"▁기업에서는":16831,"▁기업규모":16832,"▁경계를":16833,"▁‘S":16834,"▁‘나":16835,"▁‘무":16836,"▁‘신":16837,"▁‘어":16838,"▁‘클라우드":16839,"▁아리스토":16840,"▁“2":16841,"▁“더":16842,"▁“직장":16843,"▁“임신":16844,"▁업무시간이":16845,"▁근무방식을":16846,"▁\"근무":16847,"▁\"이를":16848,"▁\"서울":16849,"▁\"클라우드":16850,"▁\"기존":16851,"▁방과":16852,"▁다닌":16853,"▁다리":16854,"▁다리를":16855,"▁다국적":16856,"▁'미":16857,"▁'착한":16858,"▁관공":16859,"▁관저":16860,"▁조작":16861,"▁조화를":16862,"▁하든":16863,"▁하버":16864,"▁하기도":16865,"▁나가지":16866,"▁나경철":16867,"▁고생":16868,"▁고등학교":16869,"▁육아휴직수당":16870,"▁유례":16871,"▁유포":16872,"▁유목민":16873,"▁서부":16874,"▁서둘러":16875,"▁연평균":16876,"▁신중":16877,"▁내각":16878,"▁구부":16879,"▁도요타":16880,"▁모빌리티":16881,"▁개를":16882,"▁없더라도":16883,"▁소지가":16884,"▁소수의":16885,"▁소중한":16886,"▁감점":16887,"▁4.":16888,"▁5~10년":16889,"▁생일":16890,"▁지원해야":16891,"▁지원한다고":16892,"▁확산하기":16893,"▁안동":16894,"▁안드로이드":16895,"▁국세":16896,"▁사용하게":16897,"▁거절":16898,"▁거대한":16899,"▁문책":16900,"▁시행될":16901,"▁시행해야":16902,"▁시행되고":16903,"▁미쳤":16904,"▁동탄":16905,"▁영화를":16906,"▁적당":16907,"▁결코":16908,"▁6000명":16909,"▁6~9":16910,"▁우버":16911,"▁또다른":16912,"▁사무관":16913,"▁감염으로":16914,"▁감염관리":16915,"▁남동":16916,"...코로나19":16917,"▁매매":16918,"직원들이":16919,"▁기자]":16920,
[...]
